#version: 0.2
Ġ %
s t
Ġ i
a l
o r
p n
_ _
Ġ =
al l
3 2
: :
c t
a s
e e
i n
6 4
st d
c all
i t
" *
e r
a i
st r
Ġ l
t r
Ġ @
Ġ% "
c l
a t
u ct
str uct
d e
a d
as s
cl ass
e n
i d
v e
r e
v o
c o
Ġ@ _
Ġ% __
at or
e l
Ġ t
m p
i s
Ġ call
a b
Ġ 0
Ġ vo
Ġvo id
it er
( %
c e
ct or
ve ctor
b as
n u
l e
ab el
Ġl abel
(% "
:: _
n o
x x
o c
z n
ai l
all oc
c xx
iter ator
a r
g nu
t h
c mp
tr ee
Ġ b
r b
o d
Ġt ail
Ġ [
co n
o n
ai r
p air
e x
o ad
f or
bas e
Ġ }
Ġ {
u b
no de
Ġt o
a st
Ġ x
re t
alloc ator
th is
en d
n or
nor m
1 0
norm al
. __
s s
f in
Ġl oad
i c
tr y
ad d
en try
:: __
Ġb r
a n
1 3
Ġ ]
1 6
zn st
i i
Ġ de
fin e
Ġde fine
Ġ ret
1 2
Ġ entry
u n
in k
p tr
i f
s ai
1 7
st or
0 0
* ,
Ġ s
" ,
on ce
od r
c ast
Ġl ink
Ġlink once
h i
bas ic
l o
z st
k e
i st
ex t
b od
bod y
stor e
i r
e v
s e
Ġ% _
o p
in d
i p
er ce
co erce
1 1
Ġ store
p ad
1 5
i v
i ee
in t
s ub
vo ke
Ġ@ __
in g
Ġ 1
* *
Ġi cmp
n e
e a
d o
v al
m o
id x
g e
t mp
con d
_ (%"
Ġ] ,
Ġb it
Ġbit cast
u e
Ġi n
a y
mo ve
ir st
Ġ f
r o
tr a
re f
Ġ p
f irst
ub le
is ai
do uble
Ġ <
h e
ar r
. .
in c
u l
arr ay
no t
vector i
1 4
ex it
e ct
v ar
( )
Ġ (
le ss
t o
Ġ double
he ad
th en
c h
isai iee
i z
str ing
ind var
n s
1 8
ne w
indvar s
as h
Ġp hi
Ġin voke
con t
zn k
l pad
e d
sai s
p re
an d
iterator ip
s p
Ġi f
e q
lo op
h ash
"* *
e st
head er
alloc a
Ġ alloca
Ġ un
d i
array idx
loop exit
l l
n ext
1 9
Ġ "
ea m
str eam
Ġ add
h s
2 0
di ve
l ast
a g
Ġ eq
pair i
ee v
t u
l oad
vectori isaiiee
Ġ for
m a
e p
_ (
pre header
o l
m e
Ġ ns
p y
Ġns w
mp l
i l
sp l
in it
Ġ 2
i mpl
hi le
ul t
w hile
it y
lo at
i e
ab le
o s
co py
t y
re s
i x
tu p
Ġ nu
s ro
sro a
Ġf loat
el ect
2 2
t ail
f f
Ġ% .
ty p
de tail
o stream
op s
] ,
tup le
w ind
Ġun wind
co mp
b o
00 00
typ ee
Ġ z
k s
. )
2 3
.. .)
o t
val ue
spl it
] *
en t
ag g
en ce
i de
2 1
Ġ -
Ġ )
er ence
or t
u r
l p
iz er
ee e
cl ea
f p
in voke
nu p
clea nup
pairi k
2 4
tra ce
i on
2 5
l hs
p r
znk st
co v
m ul
i g
r s
> *
s an
de x
in dex
con v
bo ol
san it
sanit izer
to int
Ġ ptr
Ġptr toint
s elect
er s
it s
d iv
ref erence
2 6
at e
Ġ std
p t
> >
tra its
2 9
add r
to bool
de v
on g
ee ee
de c
con st
pair ii
2 7
k c
p c
re move
"* ,
e m
as m
res ult
er o
st ar
vector is
Ġz ero
* )
Ġ asm
3 0
se t
c ss
p ro
id ee
Ġl and
ff ect
ab ort
idee ffect
Ġs ideeffect
Ġ 4
ret val
2 8
q ue
v m
t er
c r
Ġzero ext
as an
i ce
ch ar
Ġnu ll
Ġ ...)
ed ge
no abort
ers on
copy load
ll vm
n t
l css
lcss a
sai x
al ity
3 4
erson ality
b u
ii e
str o
stro y
de stroy
r hs
m in
cr it
" ()
ep il
Ġ" ",
Ġ ,
3 3
el se
Ġ" "()
ing pad
Ġland ingpad
c ur
star t
w ar
> ,
tr ue
e s
s er
a c
3 5
8 0
is h
Ġ ex
r k
fin ish
i j
re a
ide nt
alloc at
ident ity
ar g
t able
allocat ee
al se
pr int
p h
s iz
3 6
8 6
s h
3 9
rea ch
Ġnu w
reach able
0 9
con struct
r n
3 7
b e
3 8
g t
ma p
pro m
Ġl pad
Ġl ong
ge t
war d
3 1
rn st
l t
de que
i al
idx prom
min ate
iteratorip ist
me m
e h
u t
reference is
e c
l oc
4 0
c c
i os
hash table
at ch
Ġun reachable
arg s
init ial
Ġs ext
kc z
fp kcz
print fpkcz
n iter
saix ee
tra ct
Ġ 3
inc dec
g in
for ward
e t
vectori x
loc k
a ge
c atch
ma x
Ġs lt
i isaiiee
4 9
i m
s c
p o
Ġ 8
siz eev
en s
cur r
er ks
5 0
be gin
Ġf ast
l ist
curr ent
i stream
r t
4 4
de f
Ġfast cc
Ġs gt
f l
>> ::_
Ġex tract
ser t
4 8
st is
Ġ cleanup
4 7
5 5
Ġ and
~ {
Ġs ub
6 7
w ide
e sais
u me
a p
un t
p st
initial iz
iteratorip st
, ~{
il b
10 0
res ume
ter minate
l b
r ks
4 5
Ġextract value
ge p
4 6
d b
zn sai
s w
r an
p ot
Ġ while
Ġ( ...)
co unt
base iisaiiee
el b
zn s
fl ag
i le
ic ee
Ġ(...) *
p ar
pairii ie
po int
in sert
eev t
Ġs elect
vectoriisaiiee ee
l ong
4 1
un r
initializ ed
zn ss
un initialized
id d
p ersonality
g xx
Ġp ersonality
iterator it
5 6
c x
db g
allocator ev
ss ee
ur n
c ee
less iie
4 2
re ad
b r
o f
4 3
5 7
r st
m idd
midd le
ve c
i est
6 9
dev ice
5 8
zst l
un c
de allocatee
b it
0000 00
ne d
Ġin t
cx a
ix em
5 9
pairi xx
stor age
eh cleanup
node ist
Ġz ext
ig ned
d at
less is
d pot
typee os
on st
reference it
traits isai
Ġ( [
f o
6 0
el em
. _
5 1
Ġ no
spl at
f alse
h o
p ie
Ġf alse
t p
i o
9 9
i me
allocator ist
ss ai
Ġ (%"
br oad
s b
Ġ catch
broad cast
bu f
re v
} ,~{
is e
5 2
se cond
b lock
elem ent
tuple ij
ev t
comp le
dat a
p os
ee c
b al
l or
m od
traits icee
Ġ ult
x st
ret urn
comple x
6 2
6 5
s r
sp ec
ran ge
s a
p u
ce w
destroy ip
pie cew
piecew ise
an g
a it
bas eev
b ac
6 8
vectorix saixee
node is
a ct
5 4
ic st
6 1
er k
ii st
base ip
5 3
n al
re m
traitsicee rst
pairii iee
s ink
p s
base ist
Ġ or
iter eevt
ho le
tr unc
b ig
hole index
sai cee
al igned
a ult
forward ir
g lo
Ġs h
glo bal
7 9
l en
def ault
it ion
in s
move ir
cl ang
6 3
l at
ke y
Ġin ter
Ġinter nal
7 0
l and
ed eev
] ]*
d ee
vector ist
big int
in fo
exit cond
6 6
] ],
rs ait
Ġ 16
ee d
k st
Ġ (%
Ġ trunc
t e
c he
mem buf
7 7
Ġ 5
p hi
che c
ii est
p kc
7 8
ee t
ssai ssee
j j
lat ile
Ġvo latile
iteratorip xst
b rk
Ġex act
10 00
pairiiie sais
) *
tu re
en dev
o ff
0 5
i ct
sai iee
zstl s
an s
chec k
vectorix saix
7 5
flag s
zns ol
eeee ns
c ap
pairii iest
er se
pos ition
ct ion
ix e
12 8
7 2
begin ev
7 1
rev erse
7 6
par ent
ne g
is s
7 4
8 8
u s
u al
Ġsh l
bac k
> ::_
zstls ist
ostream ict
ro w
eq ual
8 9
7 3
Ġ 10
pu sh
m iter
traitsisai st
sh r
Ġ resume
ash r
Ġ ashr
c in
z l
znsol se
Ġ mul
ep st
Ġ .
b t
cap ture
9 0
Ġno capture
iterator ist
Ġ cond
vo id
f r
d r
Ġ true
m m
re g
s d
off set
is se
Ġ} ,
pairik x
8 5
>> >::_
t ext
s ort
f t
il m
lessiie saiiee
i b
*) ,
a re
pro l
Ġ" .
ma in
Ġ 32
"* )*
p ut
zns ir
eee c
znsir ser
Ġs div
8 1
dec ay
nu m
allocator iie
co ut
d s
ce pt
p er
8 4
if f
9 2
h ea
Ġ u
array destroy
ect ion
8 2
$ {
ex cept
m ii
l el
Ġs ection
) ,
tr ip
hea p
no dee
Ġ< {
8 7
eee ot
star tup
10 1
brk ns
8 3
b b
Ġ 7
d iff
ep lel
i ll
_ (%
th row
10 5
Ġ 6
Ġ2 4
d ir
9 5
val u
ii ist
9 6
diff erence
e j
bu ff
l r
b vector
1 10
th read
f s
ptr ev
t est
ee bt
er r
tree iist
ie t
Ġl or
er minate
Ġt erminate
h t
pr ime
le ft
lessiie sais
en st
less ice
znss d
array decay
vectoriisaiieeee ns
no except
que ue
9 7
ee ev
forward ist
l a
tree ist
Ġf mul
typee rks
pairik ss
s u
ix st
p p
ke t
9 3
p ol
hash ing
9 1
ie s
vectoris ssaissee
9 8
ig ht
ip st
9 4
ix saixee
traits isaiiee
sw ap
io init
co de
a u
p im
iter cl
se ction
Ġ read
st ate
Ġ 12
w or
fp sr
dir flag
cxx mii
Ġ} >
0 4
l y
pol ic
polic y
impl d
znsirser i
Ġf cmp
l s
ic saicee
tree iiist
no p
p f
identity iiest
d er
al i
as e
c st
>> ,
ne t
*) *
Ġf add
n sub
0 6
valu ee
o ut
ice st
10 3
i xx
f ill
ali as
znsai st
iterator is
copy ist
Ġu gt
lessis se
Ġ 9
en able
h and
) )
10 2
base ixsaixee
Ġno alias
sai st
0 1
vectoriisaiiee e
ma ke
iteratorip k
x tra
re hash
xtra iter
a m
f ile
0 7
p i
p op
bu c
buc ket
} "
1 12
0 11
ii ee
ce st
r ight
k v
s k
Ġs ret
initial izer
nodee pst
de d
range d
lo g
ep p
is on
mem set
pairiiie s
" ]*
on ly
deallocatee rs
e ot
ce ss
Ġ vector
" ],
hashing ens
lo w
ma ge
ee st
as k
Ġp o
Ġread only
ig n
10 4
Ġpo ison
Ġ ${
h el
u ar
iteratorip ss
j rk
eev pt
comp are
1 13
un ion
allocatee rs
Ġl shr
11 1
10 7
hand le
less ixe
mp kv
allocatee mpkv
ie onst
moveir ieonst
ee ixem
it ch
1 16
un i
double complex
d pt
r a
hel per
typ e
1 17
" )
11 5
iee ev
}" (
znsolse i
ce v
el m
epp ev
ac cess
12 0
vectoriisaiiee ixem
l d
10 6
10 8
10 9
less ix
un init
sort in
forwardir k
bu g
b f
pairik c
au x
g uar
buff er
heap in
Ġs ig
pr iv
Ġsig next
Ġ eh
if ix
e bo
siz e
n d
cxxmii p
sc an
0000 0000
l cmp
do m
deallocatee ps
a ce
Ġun def
ee sa
ifix sr
val ptrev
ran dom
in e
war di
guar ded
ii iee
un guarded
un d
identity is
id sai
cxx ne
eee t
b ee
t st
u p
impl c
re ss
Ġ char
11 4
st at
v er
tree ixst
11 9
d t
lessix esais
m s
y val
array ctor
Ġb yval
w m
s cev
bac ke
ostream it
11 8
a me
2 00
12 9
vectoriisaiiee edeev
o m
i mage
ee ot
s ol
12 3
ssai ss
ac k
ie c
s i
Ġ ne
Ġx or
is ssaissee
i ed
i y
on e
1 32
pairixx est
in st
add ress
sh l
v la
ds o
iss st
ee edeev
12 7
scev gep
at exit
print f
vectorixsaix eeee
ro ll
13 0
allocatee m
der ed
or y
ee s
n cmp
ee m
ai p
u nor
unor dered
de p
ss s
un roll
vectoriisaiiee d
baseip iet
Ġ8 3
0 8
12 4
w r
Ġ 15
*) *),
as hi
ep kst
Ġs w
eev rs
at ion
ep i
x s
c re
base isssaissee
epi log
12 5
construct is
pair is
12 1
12 2
scan f
14 7
znss c
12 6
destroyip st
te mp
ij rk
un reachable
vectoris ssaiss
pairixx esais
at om
j u
par t
l icst
itercl ins
ix est
traits ilb
x t
rk t
erk t
g c
rt x
it e
hash ens
deallocatee pim
ie ot
uni que
ee rks
lessixe saixee
m er
m t
0 10
t age
int er
e onst
ail b
18 4
v base
c pp
de bug
st est
s nd
Ġ do
znsai ce
d is
vector icsaicee
re throw
mer ge
f b
cxxne ip
array init
id de
pairi ks
pairik xx
insert ion
m ask
aux ilb
h w
iteratoripss st
cre ate
13 6
znsolse pf
wor k
back ward
13 1
_ )
vectori b
vectorib sai
iteratorip ies
e g
13 9
l ine
0000 0
l if
tr ans
Ġ ehcleanup
p ort
Ġret urn
13 4
13 5
n ip
15 0
lessice saicee
et ime
lif etime
u ff
ixx st
vectori ls
vectorils ail
e os
rs os
13 8
znsolsepf rsos
Ġ4 0
sw itch
for wardi
ij eeee
13 7
vectoriisaiiee ec
e mp
vector idsai
2 11
isse st
uff le
iteratoripk ist
Ġ4 8
policy ens
14 0
typee rs
13 3
atom ic
15 4
l i
iee e
vo t
c py
g th
end licst
Ġ 69
ed pot
000000 0
ar d
o b
l m
tmp cast
f loat
Ġ 20
c m
init c
traits ice
init d
x ee
q u
pi vot
impl ilm
err or
f unc
forwardir pst
c nt
p ks
Ġsh uffle
Ġshuffle vector
pairik icest
j s
i ks
] ]]*
29 49
op er
14 2
node ii
Ġ 64
construct ii
ch an
su m
f un
move irst
copy ilb
Ġzero initializer
s igned
2949 67
eeee brkns
destroy is
Ġ} *
sai ssee
znss ixem
push section
pop section
] ]],
14 5
len gth
l im
store merge
14 6
traitsice saicee
25 6
em rks
) **
pairik ii
14 4
tree ixxst
identity ixest
n xt
znk ss
vectoriisaiiee c
mem cpy
gc j
14 8
ex tract
Ġin sert
Ġinsert element
splat insert
v a
iteratorip css
14 3
( <
Ġ \
s y
ii ie
valuee ve
0 15
vectoriisaiieeee s
14 1
vectoriisaiiee eplel
impl is
16 3
29 5
c hi
d one
c pu
iter s
key epkst
lim it
no d
t ag
a ins
wr ite
it i
14 9
no n
Ġ 17
Ġf p
forwardir kst
add rev
z d
16 0
ib le
alloc ate
iie ot
ro t
t c
x m
do iti
fun ction
b ad
s oc
iisaiiee sais
ee eplel
1 64
d st
at h
pairik ic
for m
eeee st
v t
vectoriisaiieeee brkns
bo und
k t
dep th
g en
base i
f c
se g
brk st
iter ip
sai y
it o
15 2
membuf ist
lp v
n ame
15 1
pairik iiest
o k
ob j
zd lpv
p age
ito fp
15 00
o de
a non
0 2
znsai ied
16 8
vectorixsaix eeeens
b y
deallocatee p
c u
lessisse saissee
ii evt
15 5
zn wm
pc i
d ma
15 6
ee eee
b l
destroyip iievt
15 8
Ġ4 294967
ee pt
15 9
max im
15 3
ep is
ass ign
forward iieot
ss c
s ext
15 7
alloc v
iteratorip s
typee s
sai m
Ġs rem
0 14
tree icst
Ġ. \
c ard
lessice sais
address of
u sb
x et
** *
znsai iec
dt fp
cl dtfp
cxxmiip ist
p kst
emp kc
tupleij rs
Ġ 11
re alloc
ev ent
len empkc
er as
f low
pn st
16 5
ee dpot
ra w
Ġs itofp
Ġun e
tree issst
re store
Ġ $
Ġ middle
set iist
is sss
ic cst
st ack
pairik icee
crit edge
u g
li ke
re ct
b i
r x
tupleij dpt
pairi is
sai c
Ġ 13
assign able
mem ory
0 3
construct ible
constructible is
like it
baseiisaiiee d
assignable is
3 00
16 2
l ink
base s
Ġf sub
move ilb
t x
17 7
znsaice d
cl erk
16 6
16 9
l x
un signed
m ed
lessisse sais
eeee s
identity icest
an ce
eeev rs
tree iccst
fr ee
pairikx cest
forwardirk ieot
ai st
eras ee
cont ext
ist er
destroy ii
base in
eg er
19 2
d p
10 24
i or
17 4
ct r
>* )
l st
16 7
wor d
dr m
17 0
base ilm
16 1
valuee pkst
siz eerks
h ashi
t cl
: \
tupleij rk
17 3
ee onst
maxim erkt
n c
jrk ieeev
constructii jrkieeev
*) **
jj j
mo de
d debug
allocator isse
part ition
Ġ o
low er
5 00
Ġb ug
base cldtfp
allocator i
17 6
issss st
pn s
f mul
fmul add
x eonst
tree issssst
c s
header s
bas eeot
identity issest
iterip fb
m ut
bas eeeest
iter e
vectorixsaix eee
m i
x eot
ee sais
t op
17 5
z z
Ġ" =
moveir xeonst
sp in
at tr
17 9
n el
Ġ h
17 2
s f
st u
in put
n r
pairi x
sc al
iteratorip x
2 10
f mt
ijeeee ev
86 0
vectoridsai dee
17 1
vectoriisaiiee sais
co mm
17 8
pre v
g r
alloc is
hash ii
par am
pr ior
t w
18 7
d a
point er
obj ect
a in
copy in
ej rk
prior ity
19 5
ac he
allocis ains
node ijrk
at er
18 8
te ot
node iie
iterator ii
vectoribsai bee
traitsisai xee
5 00000
18 0
fr ac
dr op
18 5
19 4
con f
node ix
hashii ens
tupleij eeeot
ix t
base icsaicee
iter eet
iee t
s cl
pairiiiee e
Ġ 30
vectoriisaiiee s
18 6
it em
ip in
ju mp
allocatoriie c
0 19
restore ii
mm ev
Ġ1 4
cm d
fo o
iv er
18 2
18 3
$ _
mut ex
Ġ@ "
i ve
Ġ@" _
pairixx es
me t
b est
bi gnu
is oc
in ode
g re
erasee pst
allocator ixe
19 9
e mpl
t ion
empl ace
dr iver
v table
back erk
b is
ir q
19 7
ic saic
} \
n v
m ent
an t
il i
inter val
gre ater
10 0000
a pt
20 5
b kt
re al
19 0
iterator in
baseiisaiiee c
cl e
27 38
vector icsaic
f u
pair idde
pairikx c
lessiie saist
19 6
clea rev
61 16
c ashi
iee c
bignu m
a nop
18 9
g p
860 184
860184 2738
Ġ4 6116
20 1
Ġ46116 8601842738
erk st
in tr
y saiy
c ache
im ag
ho st
cl ins
c i
sol ve
apt er
ie sais
18 1
vectori ysaiy
re set
fin d
19 8
main e
c f
, *
eeev pt
19 1
ase os
de sc
2 15
b er
Ġextract element
cxx lt
traits it
se q
cashi er
nodeis s
em m
0 12
v l
med i
traitsicesaicee rst
de le
line ar
trace point
0000 0000000
ate g
b rt
f neg
0 13
pair id
t t
2 13
ee sc
u se
identity est
20 19
ad apter
d x
s q
80 211
p ee
l ay
dis card
priv ate
ee eevt
idde n
ju st
2 14
m lx
base isai
by te
vectorixsaixee ixem
c ateg
ad just
categ ory
pairik ist
fu ture
t ime
pc m
to t
20 3
pairikx cee
Ġh idden
en gin
pre d
conf ig
19 3
22 7
po w
2 12
__ .
are d
cl k
aip is
ms g
top index
a v
engin e
u int
ip is
20 4
0 22
20 6
t ask
Ġ 67
20 2
sai j
y y
1000 05
vectorixsaixee edeev
* *,
i en
bit set
Ġ4294967 295
zst eq
Ġ 31
m saim
initializ eem
ss m
i evt
ee ed
re q
cxxneip ist
d ge
4 00
stor ag
ep t
Ġsw itch
vectori msaim
2 19
b in
x or
chan nel
Ġ%. _
Ġ" ${
Ġ2 8
sh ared
storag eem
hash elb
vectoriisaiiee eppev
zn saix
g pu
23 0
e b
Ġf div
v b
Ġfp ext
20 9
33 7
erk ss
s m
mem move
r cu
ph y
Ġ1 8
rk sai
rt l
vectoribsai b
right epst
left epst
min at
20 7
Ġ 56
u m
saiiee t
25 5
i ent
g ra
os ort
pairik iiee
ee sd
ct x
_ "
intr osort
de nt
a rea
3 64
ep kc
cxxmii pst
set icst
cl erks
d m
an y
reg s
pairixx ee
22 2
nip im
iteratorip lst
ij dpt
de allocate
2 32
c as
sp t
iterator ix
p is
stu dent
pair ipst
Ġ461168601842738 79
nod eev
x spt
ar y
jrk st
g l
22 1
, $
minat ev
k m
g ro
y st
ter minatev
p erson
s ail
iterator iie
0 24
ii ies
asm result
bucket s
or e
20 8
2 17
2 16
znsirser x
seg ment
on t
Ġ( {
ee eppev
stat ic
23 1
Ġ2 5
o ur
a w
vectoriisaiiee et
2 18
o ver
iee vt
22 8
x k
typeerks a
ej ee
co lor
20 18
ss st
soc k
to iiest
que st
d d
24 9
ai pst
1000 0
ee sb
Ġ1 9
pee l
backe dge
out put
re p
bu s
l le
ee evt
forwardir ieot
Ġ2 3
23 7
) *,
Ġ __
traitsisai ssee
p ip
rn a
p ath
emm ev
i rect
28 5
cxxlt ip
destroyip ss
re quest
*) *,
"* **
it h
scal ar
24 0
22 4
dele te
ind irect
30 7
istream it
str s
get ilm
p ix
e o
2 20
vectoridsai d
re c
} ,
cle ar
con tr
nodeijrk st
iterator iist
iteratorip ieet
insert ij
ins n
act ion
g s
int eger
cxx eq
ip x
i bu
chi ld
c ase
our ce
f ace
cf g
29 2
swap in
ied tcl
baseip iedtcl
0 18
pairikss iest
image info
n st
26 0
en ne
m ers
num ber
tw ister
mers enne
ii ed
22 6
23 5
23 9
constructiijrkieeev rs
if t
t im
29 4
25 7
z strs
znsaice c
iiiee st
zstrs icst
ai pim
allocator iied
Ġ 63
22 5
im m
s ign
gro up
25 1
node s
pairikxx est
helper ili
23 3
baseip xet
iter ens
pairiiiee c
Ġf neg
23 4
ar ch
ct l
jj jjj
rksai ce
insert jjjjj
destroyip ievt
destroyip ieevt
25 0
baseisai bee
pr oper
er ase
p b
mii eept
hashi x
e f
equal s
22 9
m y
pairiiie c
chi p
eee s
cl ient
back ij
gra ph
no ne
24 8
un lock
pairiiiee ot
backerk i
27 3
destroyii eevrs
d ist
32 7
28 8
ctr l
22 3
f ail
sc si
sh ift
c d
spin lock
f w
0000 000000
error pkc
typee ns
30 5
> ::
sk b
addressof ist
5 12
w l
node iiee
iter iz
p le
znsol s
24 6
pc s
u le
pair iee
r ing
reg map
Ġ@ .
Ġread none
fin al
scalar it
iteratorip kst
o fin
25 8
d eev
2 64
comm on
vectoriisaiieeee l
map iiist
deallocateep xm
r kc
pairik y
fr ame
ix ers
vectorixsaixee eplel
l not
back wardi
stat us
23 8
fr ont
tupleij o
be g
over flow
backwardi lb
d ate
26 6
eeev n
24 2
j saij
23 6
insert ijrk
re d
map i
x fs
proper ty
m atch
pairik cst
sp ace
tot al
str ip
vectori jsaij
node ixe
er t
d c
put char
w ith
element ixt
vectorixsaixeeee s
compare ist
26 7
int el
25 2
k er
24 3
24 5
sy nc
deque iisaiiee
baseip k
co l
ke d
en de
Ġ 100
tr ie
iteratorip is
p l
m ult
ip k
par ty
Ġ2 9
Ġ} >,
24 4
pie t
rem ent
i k
29 6
se arch
less ile
abort v
s max
moveir n
in str
50 1
tree i
pairikc iest
sr c
Ġ4 9
ij rs
construct ix
e sai
ma c
pairiiiee onst
il st
reset ev
element s
a a
bound ers
insert in
znss ple
0 20
eee mmev
construct ist
b a
d y
ir s
iter ev
comp ev
38 4
33 3
32 5
vectoriisaiiee eeet
25 4
0 21
o w
iteratoripx es
in fin
vectori esai
vectorixsaixee d
part ial
26 9
loop in
0 27
ii ii
destroyii eevpt
p lat
0 17
second child
26 2
100 5
idsai dee
be c
param s
print k
ver t
24 7
25 3
de n
25 9
sa ve
24 1
27 9
iter ist
28 2
i el
act ive
r lock
node ij
27 1
header c
co un
28 3
pairikii eee
am d
ieeev n
s ing
0 26
znsai ss
pairikic eee
contr ol
28 0
pairikss iee
28 1
"* *,
c a
sail ee
w ait
** )
pp ev
f a
p v
Ġno p
} :
strip it
pairik l
construct iss
flag ss
fmt flagss
b m
27 0
10 10
allocator ix
ic u
iteratorip cst
u re
Ġ 65
medi an
de st
lessixe saist
_" (%"
26 8
pairikc iee
s g
Ġ2 6
node ice
26 3
ee rs
cxxeq ip
4 09
prime s
r dx
34 5
typee eos
Ġ 35
c al
u sh
plat form
l gl
26 1
Ġ 50
zst ne
h int
dt or
oper ation
0 16
vectoriisaiiee emmev
f e
ev pt
coun ter
p m
reg ister
pair inst
value s
rs bis
i enst
el l
hash iss
Ġ 52
pix el
sing le
m w
29 7
znsols ex
bigint eger
dist ance
m an
j rks
er st
, \
27 5
ip h
28 6
da mage
ii erkt
real p
hashix ens
ep k
constructii j
Ġ 36
str len
27 2
swap ii
1000 10
] ]
v f
Ġ 80
b pf
ut ion
vectorixsaixeeee brkns
infin t
va arg
fo und
mo vl
v is
pb ds
traits is
nv km
hashiss ens
Ġ2 30
0 28
imag p
op tion
13 69
valu eet
vectorixsaix eeec
set ist
less iy
ej s
ro m
pow er
ce sais
0 23
ap p
bas ee
re co
b rks
s ct
Ġ try
iteratorip dst
reco g
to ptr
Ġint toptr
cxxmiip xst
30 1
100 1
Ġ 33
nodeis se
epkc rksaice
iterator i
27 6
29 3
27 4
r c
pairikss st
amd gpu
zstls icst
m as
sct p
allocator ime
28 4
0 25
se c
constructiijrkieeev pt
n ic
Ġ 128
32 9
iz e
bal ign
st ep
3 10
cxxne ipst
iteratorip iec
b ar
bo un
k asan
64 0
32 0
iteratoriie c
con fl
znssple c
confl ict
vectorisssaiss eee
} "()
g cov
ch ro
ce t
26 5
ce onst
iteratorip ie
ce ot
00 0
39 7
for e
20 36
m st
36 9
50 5
length ev
s l
ee rt
sol ution
147 48
34 2
vectorisssaiss eeeens
Ġfp to
27 7
sp i
pairidde st
constructiij ieeev
3 12
Ġ" ~{
0 29
f v
ipx n
43 00
st ist
Ġs le
hashtable iist
if i
Ġ ol
loc al
ld a
sq rt
chro no
forwardi xeot
except ion
vectorisssaissee ixem
p e
a x
be fore
ebo h
h list
base il
s cc
3 15
sk ip
ide d
eeev dpot
s lo
Ġol t
d v
58 4300
584300 92
58430092 1369
584300921369 39
val eevt
a inst
Ġ230 58430092136939
22 337
29 0
nipim iet
pairik is
n ipst
85 47
g o
zst lt
Ġ 34
forwardirk xeot
i elb
14748 364
rement pst
cr y
ex p
destroy iss
vectoriisaiieeee piet
backe os
ios icst
22337 2036
nodeii eee
223372036 8547
val c
chec ks
f n
mapi icst
pair it
iter eeonst
eq erks
27 8
moveir ceonst
vectorilsail ee
30 6
ac pi
swapii enst
m c
3 34
f il
put s
b n
vectoriisaiiee st
deallocateep ssm
emp ty
allocator inst
29 9
h dr
eeee c
ab s
Ġ2 1
fr action
Ġu rem
nodee ps
bl as
pair ic
at a
to iie
nodeii lb
f rom
mp t
impl ixt
Ġ2 2
helper ilm
ep xs
ee j
su per
xx evt
category erks
Ġ23058430092136939 51
form at
32 8
pro mo
3 11
32 4
lo bit
ter ks
7 99
destroyip xxevt
30 3
const ant
t iee
sub dev
s cr
backe o
znsaix ed
on ent
in v
3 14
29 1
point sais
s ig
30 2
w e
28 7
9 15
ar row
destroyip x
r at
sc d
is ion
l abel
p dev
set ixst
h ci
res ource
nodeiss lb
lock dep
less ist
pre c
pairi lle
sc i
or d
p k
mod ule
0 30
37 4
Ġ2 56
up date
cl b
vectorixsaixee c
Ġo gt
3 19
0 32
iterator ice
Ġo ge
ss e
in ser
36 3
sol ver
00000000 0000000
lessice saist
iteratoripk xst
iee eot
destroy ix
q p
35 0
29 8
lp fc
pair ist
k mem
00000000 0000
val id
j st
28 9
n arrow
pairiiiee d
iteratorip yst
rks bis
ps o
32 1
tiee pso
stat s
iiiee sais
r ip
Ġ2 55
hash iiest
eeee sa
35 9
t ar
p ast
baseip ist
mas ked
map ix
vectoriisaiiee est
co ok
Ġfpto si
var i
b tr
34 1
znsaix ec
ss eot
node i
33 8
delete is
ofin it
end ofinit
membuf iie
35 4
35 6
vectoriisaiieeeel ins
count ed
re l
37 7
element past
i a
s ld
node cl
ed tcl
m x
r i
ip c
cont in
ur ation
m b
sc f
node icee
34 3
ee brt
t es
ro ot
slo t
Ġu div
bal ance
32 2
30 4
net dev
baseixsaixee d
p la
map ist
ii ilb
btr fs
boun de
pairikic elb
sort ipin
bounde pst
ir t
tupleij xspt
33 6
al ph
*) (
forward irst
3 16
contin ue
ol d
f d
v p
ijeeeeev pt
int eg
ij xspt
eej ejee
im lm
loc ks
clerk is
ijeeeeev rs
eejejee erst
b ss
0 34
baseip st
33 1
Ġ4 6
32 3
sc s
Ġun signed
33 9
san cov
select in
36 5
Ġ 99
ir k
con ne
pairikxc eee
tree iy
backward in
32 6
34 7
integ r
30 9
d u
c b
oc k
h as
insertijrk ieeevn
std io
ee ns
pairixx eee
c ge
iie t
stdio eb
sa me
css ee
en eerks
pair idd
le ve
0 35
l c
un k
30 8
34 0
jrk x
cssee brkns
0 31
set issst
3 17
constructix jrkx
Ġ6 55
str ided
comp onent
en c
3 13
Ġ...) *)(
air o
35 3
iteratorii rip
0 33
bigint st
partition in
35 1
tim er
d uration
nr vo
iiie iee
eeee ls
_ ,
6 24
first in
cont ain
base idsaidee
pivot in
e pns
le t
heap ip
mo st
39 4
be ot
q ed
33 5
34 8
node sais
m at
to issest
h or
pairiiiee s
po ol
pairik ib
3 18
attr ibu
Ġ arraydestroy
s z
re balance
u ser
0 36
ir is
saiy ee
allocatori pnst
test case
46 9
Ġ2 7
skip dtor
traitsisai cee
l er
x eec
c airo
5 10
36 2
k en
contain er
46 0
tar get
m v
ssee ev
allocator ice
a ve
v ers
0 37
map ic
to ixest
op en
integr al
u res
3 86
bas ers
reg ion
qu ad
35 2
den try
o ss
36 0
o u
y nc
is active
r ation
ch ine
34 9
string stream
backe v
p at
pairix iest
0 38
>> >,
is c
34 4
te mpl
forwardi beot
ra de
ma tr
34 6
l ns
n ing
Ġ46116860184273879 03
__ ._
prec ision
iteripfb s
val array
r ate
iterator isse
uni form
3 30
solve v
iteratoripcss e
or g
baseil sailee
i id
hash ic
lessiie clerkis
38 5
jj jj
j p
ej o
p ret
cxxltip ist
ration al
cpu id
0 39
Ġ 66
leve l
t s
bucket se
p kt
templ ate
option s
ee cl
use d
Ġ"= {
ejee est
val clins
3 32
rade on
scl l
empty ev
ce c
gp io
forwardirk sseot
ib lb
itercl ipis
bu il
deque ist
u rb
fa ctor
constant iblb
37 6
3 80
ej lm
le d
ma chine
point st
pairiiie aseos
c ore
0 40
n am
}" (%
rot jjjj
s us
pro b
eeee d
35 7
nu ll
err no
hashic ens
znsai pnst
Ġ 39
799 95
iid ii
h al
b pst
pairik ice
d vb
rebalance bpst
m ar
b its
36 8
35 8
xx x
pairi xs
most ev
pret ty
cl ock
35 5
n start
mem check
vectorisssaissee d
Ġb lock
iterator c
( @
Ġblock address
mp le
su c
w id
ch unk
base iist
m ee
lat tr
di str
1000 01
by tes
n lattr
temp or
ss et
max iierkt
pairik cc
hand ler
p ack
ijeeee est
par se
ijrk st
unique ijrkst
o ol
allocatorix ec
su i
ijeeee epst
ijeeeeev pst
iterator iiee
ac ket
r unt
test v
39 5
qu er
i wl
d w
or der
37 0
n fs
me sh
ss cl
b int
tempor ary
b lb
distr ibu
ss i
v c
"* )**
39 0
pairik cx
Ġ 51
Ġ9 2233720368547
pair iss
di g
con n
n f
37 2
vectoriisaiieeee p
re sp
Ġ atomic
vectoriisaiiee eeee
Ġs ge
distribu tion
as ync
67 1
matr ix
pairidde sais
de t
js on
di o
cge terks
49 6
s el
pla ce
lessisse saist
37 9
ii i
p x
saim ee
copy erks
38 1
no w
masked ptr
ss eonst
pairi e
59 2
m j
brks bit
traitsicesaicee brksbit
pc pis
sort ip
cook ie
37 5
37 8
aipim ien
baseipk ist
38 3
ass ert
less ime
ib sai
attribu te
pr ee
ss evt
n ilb
36 1
m id
pairikii elb
ls l
de m
38 7
36 6
v s
swap ip
mi el
36 7
p to
ex pr
ad v
queue ist
g lsl
iteratoripss es
pree mpt
as erks
ibsai bee
ss ion
po ss
x est
dis p
scl d
ic k
em rk
iterip f
name space
mult is
eed eev
cry pto
u i
37 1
bkt s
me mp
de l
construct ion
de lay
er kc
vectoriisaiiee ed
ag er
lo ok
eeee lb
ce s
38 8
0 44
ee eeet
fil ter
tree ilst
construction erks
Ġ 60
38 9
ir pst
pro to
39 1
mapix cst
operation s
iteratorip mst
pro g
ch g
ic j
g h
bf a
lessile sais
base c
pairid iest
40 8
vectorisssaiss eeee
destroyipss ssevt
iv lb
constructiss jrk
eee sd
dec rementpst
c k
+ ${
moveir sseonst
Ġ4 09
q erks
cpu mask
* ]*
ang le
iteratorip kc
tupleijrk ieeeot
vectoriisaiieeee evt
cas es
lessiiesaiiee d
runt ime
4 294967
} :\
37 3
iter is
bas eee
image stack
r q
Ġcall br
inter nal
baseisssaissee d
ip iet
baseixsaixee c
ip cee
traitsisai mee
l ite
mo le
de cl
e th
ex ec
ig h
s end
ibsaibee sais
0 41
next ev
38 2
hor se
mo v
39 8
ep s
e i
bitset ilm
n er
0 45
ee n
vectorixsaixee eppev
bl k
re cur
mo z
cr tc
w q
c ell
h ba
39 6
0 48
tr ien
m ag
c p
we ight
ep ks
in ic
re le
ix eept
comm and
ed g
look up
bin ary
vectorisssaissee edeev
zsteq ipst
zstne ipst
Ġ +
0 47
: .
Ġ. ,
i pnst
co der
39 9
std e
ii eec
destroy in
4 10
in f
b io
Ġ4 7
dy nam
40 4
dynam ic
Ġ8 2
vectorisssaiss eeec
bas eeed
ou ter
backeo i
nodeix ee
vectoribsaibee sais
znsaiss ed
constructiijieeev rs
40 6
cxxneip xst
p fs
erk x
ifi er
b d
multis et
ep mj
rb eot
forwardi rbeot
znsaiss ec
0 46
h d
44 4
64 6
ee eeec
znss ase
znssase oss
0 43
ro ty
40 5
lessiy e
pairii cest
0 42
ch k
s bit
pairixx eec
res ize
is p
tw o
op t
>> >>::_
39 2
ptr int
vectoricsaic eee
m d
Ġ 57
t ed
isse pt
addressof issept
55 5
6 00
c an
40 7
roty jjj
Ġ} >*
39 3
Ġ4 4
b st
sq lite
destroyipss evt
oper ator
Ġ4 1
ctl z
pairii i
dis able
pairik iie
p a
Ġ ._
ref count
ay star
4 26
bigint d
h id
zst p
traitsicesaicee sbit
zstp licst
gr id
erks ait
b iiee
Ġ2 14748364
pairikxx ee
eeee erksait
Ġ 38
point s
in vo
aip xs
es ains
copy ip
7 58
z stor
hashtable ixst
node st
st a
baseip met
40 1
45 6
f ix
0 49
vari ant
eo ss
itercl ip
iteratoripcss edeev
po se
allocat ed
base iy
hi gh
Ġ 1000
comp ar
c q
Ġ 37
t inter
complex s
: $
}, =
44 7
in place
p ds
chan ge
f i
node se
backij s
man ager
rt w
ee est
i ins
q la
deque is
f iel
rele ase
if y
4 55
saixee t
99 99
moz ill
doublecomplex s
property rna
bo x
mozill a
he d
50 2
Ġb ool
mar k
c y
4 35
Ġ 55
nip xm
w a
loc ation
mlx sw
invo ker
reference c
an sw
0 50
icsaicee sais
bn x
40 3
ip t
pairixx e
tinter m
map p
reg ex
l n
l f
eeee pt
mapic ist
allocatorisse c
ejrk iee
pairixx eeonst
4 16
4 12
Ġ 68
ixsaixee sais
se qu
ve v
ir ks
4 11
read er
tr an
4 15
pairikicee c
constructiss j
prob le
8 000000000000000
quer y
erk ilb
z ext
n l
heap ipin
4 20
Ġ4 2
co medi
map iss
4 14
exception info
pairik st
nodeii edpot
x en
4 27
pairikxx eee
aipim iet
4 17
iph y
40 2
to ken
4 13
_ .
eeee ps
if s
p acket
11 11
d ay
lessiiesaiiee c
0 59
ing s
pro be
s of
e on
alph a
mm io
ip s
identity iie
8 00
prom ise
allocator ip
Ġp red
me ss
n b
} ",
ixx e
4 18
pairikss b
Ġ ()
pairikx s
br merge
to icest
l same
ile st
traitsis ainst
47 6
znsai med
ie w
89 6
me c
base im
zst an
409 6
iy est
vectorisssaissee c
75 80
44 8
b c
i oc
j eert
d f
* ],
pairiiiee brkst
Ġ 96
pp ort
r pc
iteratorix ec
f req
w iphy
reverse in
Ġx chg
k vm
4 24
node c
insertij s
pairik m
x eeeot
bit map
m on
res er
49 7
struct ures
vectoriisaiieeeeee brt
b v
49 9
mm c
a e
pairixx ec
biiee pt
end er
c ash
eee sais
pairiiiee ec
4 22
s is
map em
iteratorip jst
h er
al f
enable d
front end
valu eee
4 23
trien ode
4 64
b id
4 32
std out
44 6
cxxeqip ist
promo te
vectoriisaiieeeel ns
x sr
45 9
address ofin
cev t
pairikxc elb
mp ty
4 25
0 55
fl ush
c eee
integer is
iph er
i w
ipc enst
nod eeeest
wid th
4 19
nodeix eee
d inic
4 33
50 8
4 29
4 28
44 5
p in
Ġ4 5
pairixx eeot
ii lm
p ass
pairiiiee vt
57 6
valuee de
integer it
forwardirk ceot
s mp
Ġ10 24
rk st
48 8
vb ev
ieeev dpot
complex ide
foo v
load n
a f
f er
epk ipiet
Ġo eq
4 50
po ll
addressofin st
pairikss ieee
baseisai b
nodeii eec
p xm
aip xm
gc d
t m
buffer ist
map ixxst
do main
ise mpty
u x
base sa
Ġ5 12
pairikc ieee
policy e
4 30
o und
45 4
49 8
pro cess
r un
cl ip
vectorisssaiss eeeebrkns
destroyix eevrs
mess age
44 1
pairikc s
4 34
60 6
category in
eee m
fiel d
45 2
, ${
Ġ 115
em iel
eeee lns
j x
ime t
ul ator
4 40
45 8
50 7
k free
pixel channel
d l
le ar
answ er
4 37
i re
eeev pst
vectorixsaix eeet
ff f
46 6
47 7
0 57
pairikss best
Ġh alf
allocator ile
47 8
45 7
ac ity
r mw
nip imet
nipim eet
bar v
ee clins
eee onst
48 7
b swap
Ġ arrayctor
46 8
v ide
0 51
sc hed
4 49
4 21
lear ning
co s
47 2
eee os
oc fs
44 3
ub ign
allocatorix ed
clerk xs
s in
f m
constructixjrkx eeevrs
r dev
eeee eebrt
pairikc cest
queue iist
func s
vectoriysaiy ee
ee p
do w
int f
l ib
data ers
ul l
rb x
cal c
b begin
iterator ixst
iteratoripx eet
Ġ 78
ii en
50 4
ii o
4 36
vide o
0 56
Ġxchg q
pairikx iest
Ġ 76
2 0000
pixelchannel map
r dma
destroyipx evt
x edtcl
baseip xedtcl
cap acity
vectorilsail eeeens
destroyipx eevt
p ps
60 1
Ġ8 7
vectorimsaim ee
mo us
ff l
itercl iins
p d
th er
vectoricsaic eeee
y mous
anon ymous
47 0
5 09
im st
ev en
war ned
) ::
ffl ush
inser ter
od d
iteratoripk ssst
nodeii eed
Ġ namespace
destroy ist
pip e
4 39
4 67
Ġ655 35
to ol
gen er
0 58
l ang
construct icj
mask cond
Ġ4294967 294
ssc is
12 43
pairiee est
000000 07
0 53
treeiy st
Ġ12 7
45 1
4 80
45 3
ipcee s
5 13
vectoriisaiiee emiel
co st
inter face
d fs
membuf ixe
46 5
t v
cl erkc
pre p
g list
44 2
isc si
bas eeec
sse brkst
sub stream
extract ev
lessiy esais
4 38
rk i
vis it
Ġs eq
destroyip c
" ]]*
47 5
cxxlt ipst
v if
siz em
Ġ _
" ]],
48 36
h l
e clins
less iieec
is ss
47 4
__ ,
pairikice sais
ill st
0 52
49 2
pairi icee
47 9
sy s
ic eee
00000000 000000000000
46 2
du mp
0 54
deallocatee pcm
per f
de scr
tupleijrk ieec
iy e
ac ks
tree node
array iilm
g be
promo ted
48 9
disp lay
c el
ip ssebrkst
o g
proble m
48 5
z ero
le x
vectorixsaixeee mmev
u c
pairikii eec
ch o
Ġ46116860184273879 0
46 1
pr od
mapiss ist
l db
50 6
d ai
t a
app ende
val ist
set precision
2 00000
Ġatomic rmw
greater ix
mm u
set t
eeee evt
mo unt
se ssion
eee miel
forward isse
forwardisse ot
pl an
67 4836
674836 15
5 44
n finish
5 22
4 86
iterator iss
vectoricsaicee sais
vers ion
48 4
ss is
Ġ 58
g b
s n
t un
ptr ist
or ig
engine imlm
check p
v d
60 3
ssc si
tupleij iiiee
initializ e
un pack
bo ard
60 4
re use
6 55
constructix jx
47 3
reg ulator
ii isai
ejrk ieec
sseeev rs
Ġ67 1
znsai mec
zns ainst
dr v
ne st
ssee t
64 1
baseisssaissee c
p xet
cu le
r m
pairikic eeee
front ev
mole cule
ende pi
ss sc
4 31
ssee c
47 1
wm operator
vectoribsaib eeixem
p atch
constructiijieeev pt
at ter
5 17
iteratoripcss eppev
46 3
Ġ 72
v irt
200 0
iiee eevt
s ource
il in
pairix iesais
cxxmiip ssst
exp ect
destroyix eevpt
idsaidee sais
ixx eest
48 1
Ġ 59
49 5
vectoriesai eeee
iee bt
55 8
5 15
c ub
0 60
clerk i
basee ept
49 0
identityiie clerki
hashtable iiisai
hashtableiiisai ienst
nodei clb
Ġ1 12
b s
ext ent
backerk x
lessixe clerkxs
iteratorip xs
en coder
* >
h a
p g
48 3
vectorisssaissee eplel
znsolse d
ad er
val ik
49 1
ee se
iteratoriiee ot
Ġ10 00000000
5 11
2 14748364
m ixeept
ie sai
c er
forwardir xeot
pairikx iee
isss ssaiss
mod imlm
tupleijrk xeeeot
49 4
32 53
soc ket
mapp ing
ic al
48 2
addressof ipnst
referencec vbev
58 7
mag ick
64 5
swap ix
bas eeee
znss as
itercl ist
co dee
f ir
baseip cet
cxxneip csseebrkns
min iierkt
p ref
el t
c ut
n an
swap ers
co ord
5 14
base ixst
ic enst
co dec
50 3
58 5
55 6
hashtable isssssaiss
hashtableisssssaiss enst
99 9
49 3
58 4
eon s
78 96
o se
ix erkt
l in
c v
su sp
ee pst
g cc
p q
iiie brkst
copy ipis
t ab
ic s
maxim um
capacity ev
swap icenst
Ġ"= *
lessiye saiyee
Ġ409 6
st o
backe c
ty y
m alloc
list iisaiiee
inser tyy
insertyy jjj
57 5
k i
r w
b h
ec x
Ġ461168601842738 7896
un it
pairik j
destroy ic
work queue
call back
5 24
g er
dow n
s as
55 2
55 9
swapix enst
pose st
pkc s
iter it
ass ume
pairi ll
o me
ce ph
to isse
5 20
res iz
wide iv
lf tr
rat io
re ass
5 16
heapip ilin
test s
lessile sailee
to ice
vectorixsaixee eeet
eb x
ed x
se tup
v iew
comp ound
time out
num s
pkc is
1243 3253
vectoricsaic eeec
co m
fe at
n and
( ,
sort ipxn
55 7
ss d
forwardi ceot
av irt
ker nel
ser ial
vectoriisaiiee ms
baseiy saiyee
pairikicee ed
baseim saimee
55 4
allocatorime c
f ence
cast ev
n eerks
bucketse p
bas eem
iteratorice c
id s
s x
pairiee esais
5 0000
k ref
bigint sais
base v
nodee m
0 68
5 19
x eeevn
saij ee
pairikc p
s ge
Ġ%. ,
tupleij oc
iteratorip ces
pairikxcee c
nodeiss ee
to ers
au dio
j ob
identity iyest
treeiy yst
56 8
58 8
59 7
km alloc
Ġ12 0
r is
par avirt
m r
56 0
bucketsep pns
5 50
Ġ4 3
t b
pe op
arg v
tupleij rkc
k control
ig ne
resiz eem
64 3
vector in
dele ter
cc c
nodecl irk
bucketse m
ij e
ea x
b node
allocator ide
a h
Ġ% ..
s ur
uni q
allocatorisse d
55 1
get ers
64 8
7 68
6 14
rk ns
5 18
reser ve
sc atter
st op
eee ixers
60 8
j o
pairii cesais
promise ive
64 2
pairiiiee pt
7 57
vectorisssaiss eeees
v rt
59 8
vectorixsaixee sais
right mostev
tree illst
destroyiss evpt
0 67
arg c
tra ck
identity ilest
59 6
28 640
vectoriesai eee
58 9
_" (
p an
fix ed
100 100
vert ex
her e
> )
56 6
zsteq icst
pairix iee
lay er
59 9
h fi
up lo
56 2
56 9
n eed
Ġb t
sy st
80 2
s la
56 5
ad j
5 67
p ssm
307 52
ft est
pairille st
destroyipss eevt
p end
vl an
227 30752
369 28640
( [
wind ow
0 69
pairikiie sais
Ġ 61
. (
left mostev
64 4
5 23
war n
5 32
syst em
7 00
vectoriisaiieeeep iiet
59 3
iteratoripkc st
f abs
5 28
57 9
54 19
ef x
pairikii eeee
promiseive st
page s
backij ieeevdpot
copy ipk
ter n
gr am
57 7
vectorixsaixeeee lx
vectorixsaixeeeelx ns
en u
x c
iteratorisse c
aip sss
e igh
, =
56 3
vectoricsaicee ixem
m pns
pairiii ers
e ar
poss ible
en um
6 67
pairikiiee ed
327 68
eth tool
sett ings
64 9
5 26
n la
im est
le onst
vectoricsaicee d
erk i
4294967 295
tp u
5 25
y s
0 65
ap ack
o ll
zz le
ac qu
5 40
iiiee e
bigint s
Ġ 54
ejrk xee
Ġ8 8
Ġ10 1
t ty
oper and
vectoriisaiieeee ieebt
5 30
55 3
ic c
5 86
eigh tpu
eightpu zzle
hashi cest
u ce
57 0
es a
p iee
vectoridsaidee ixem
rel apack
18 12433253
25 67483615
26 36928640
40 22730752
Ġ4 00
6 09
5 27
Ġ30 5419
5 33
toiie saiiee
5 36
5 34
constructixjrkx eeevpt
inc rementpst
node iceee
has he
erkx lb
z one
sai f
min max
saissee t
pairi isse
Ġ2 00
0 64
loop ip
zstor st
solve ve
nodeij s
buil der
moveir leonst
compar ee
57 2
traitsisai pnst
vectoriisaiieee ot
0 61
index ers
pairixxe aseos
0 62
ro und
descr ipt
Ġ305419 896
base ij
uar t
conne ctor
trans fer
f ib
descript or
56 1
co e
toiie saist
al g
pr oc
5 48
ee erks
contr oll
plan e
mw are
57 8
b p
Ġ 86
iee st
q lc
insertij ieeevn
iteratorii eneerks
iterator issst
iteratorip sseet
b ed
s kc
ch ain
57 1
if saif
fir mware
qlc nic
7 11
peop le
constructissjrk sseeevrs
57 3
Ġ c
5 29
iteratoripss e
ej rkc
h ard
r d
de ot
scal e
ee epst
pairille sais
5 37
ut e
iteratoripx ec
eeee ed
0 63
g variant
data ev
59 5
pend ing
add l
inst ance
bignum ber
59 0
59 4
vectorixsaixee s
5 38
5 35
64 7
sp ort
g a
v port
bigint c
swap p
pairixx eed
vectoribsaib eed
ge ome
map iist
6 20
controll er
red uce
sel ftest
vectoriisaiieeeep ieet
5 45
scatter list
identity ist
57 4
membuf ice
Ġ92233720368547 7580
bo ok
pairikic eeec
nest ed
5 47
st acks
10 00000000
5 80
zstlt iiiebrkst
5 39
5 21
Ġ 92
58 1
ase b
Ġ *
65 4
forwardi o
Ġ 53
x er
tr ig
reference aseb
},= {
b tree
bl ender
r intf
resp on
ail ee
traitsis ailee
baseip xst
emrk irks
pairikl cest
recur se
h cd
Ġ214748364 7
70 4
pairiiiee clerks
c or
vectoriisaiiee ept
vectorijsaij ee
* >*
Ġ 62
clerk sss
iteratoripx e
5 49
sh o
destroyiss eevrs
58 2
iterclip xs
6 25
Ġ"={ @
t d
p un
758 00
hash issest
tc p
rksai cest
6 10
wr it
Ġ92233720368547 75800
fc a
a int
pairiiiee evt
de s
x y
pairik ll
pairik xst
c elb
tr ies
sig nal
rt vec
58 3
stack restore
b locks
/ *
ss est
Ġ output
Ġ code
r ule
b lo
/ \
y le
* /\
Ġcond ition
base sd
stacks ave
} ,*
ssee evpt
7 67
el n
expect ed
unc ore
60 5
s or
69 8
zstan st
wor ds
ssc i
Ġbt q
t i
Ġ nrvo
str cmp
au to
f x
cont ains
iteratorip est
6 12
b j
iteratoripcss eeevt
val ip
r f
geome try
ptr i
less ide
Ġ 90
iteratoriirip ie
f if
baseip piet
* ]
1000 1
eerks ait
wor dem
60 7
pairikxx elb
wa ke
match er
num b
5 46
h wm
0 66
forward it
nodeiss eee
back erks
dis c
_ *
59 1
pairiky cest
5 64
iiiee s
re main
vectorixsaixee eeec
go og
e fp
5 31
b la
l shr
c blas
nipxm xet
vectoribsaib eec
typee t
baseicsaicee d
ss f
acqu ire
ende ps
t em
0 70
znsai bed
cry pt
pat tern
pairikic ens
de onst
cre d
distance ipcenst
su pport
pairikii eeec
rt c
r y
Ġ4294967 288
br id
pairid iee
fr ag
6 13
ast er
c ipher
p ii
lessixesaixee d
b cmp
214748364 8
construct ipcees
6 11
br cm
pairikxc eeee
up per
hashtable issst
ho ok
69 1
6 26
backward ip
460 68
goog le
v cpu
c and
dequeiisaiiee e
292 150
l an
6 15
6 16
292150 46068
ss eevpt
destroyiss eevpt
constructicj rkc
m n
Ġ8 192
ixx ex
con s
g u
1 100
epk ns
tinterm node
index epns
b context
67 8
Ġ115 29215046068
6 18
Ġ( <
test cas
brid ge
14 33
s min
pairis ss
st cl
le ot
iteripfb rks
l iter
Ġ46116860184273879 02
lessicesaicee d
get ili
eecl sr
iterator icee
tr f
function if
60 2
6 23
j iff
m eet
r p
r sp
ss p
Ġ10 4
dig its
t bl
pairikss x
tupleij os
f ast
find ers
eeee t
sp eed
clerkc s
he ight
b ipst
Ġ11529215046068 469
pie onst
d sp
liter al
uni code
jiff ies
sc sd
6 32
iteripfb st
p id
array s
sc ore
67 9
b li
vectoriisaiiee eee
pairie iest
tran sport
66 6
e saist
67 4
il n
membuf isse
5 42
sequ ence
bswap l
i ens
pairid s
Ġ1 44
app end
" (%"
68 5
v eev
testv as
moveir pieonst
6 17
isai st
0 79
cxxltip xst
cee c
pro gram
pairiiiee t
swapip ienst
6 27
ass igne
5 41
f ai
respon se
destroyipc cevt
d n
6 22
char ge
ij o
Ġ *,
cub e
an tu
6 19
aipim iiet
m ip
enu mp
c j
vec init
cm nd
6 61
be sais
67 7
der ef
en k
5 43
dat as
vectoricsaicee c
iee et
pairiiiee deev
s co
b ind
pairikib est
100 2
pairixx ees
6 62
Ġ1 92
Ġ10 7
a mp
4294967 296
adv ance
tupleijo iee
pairi m
w in
jp eg
prep are
pr im
nodeix edpot
buckets ev
0 75
traitsisai dee
p ms
tupleijrk xeec
Ġ 97
io us
l work
end point
m ath
pix man
68 8
Ġ8 4
9 2233720368547
sort ed
q ib
Ġ 384
6 86
mp i
vectorilsail eeedeev
eeee onst
lessisse clerksss
vectoriisaiiee evt
_ "*
iee epst
iterator ixe
do t
to is
invoker ist
6 21
fo op
ij eert
able it
u f
m aster
pc ie
f shl
vectorisssaissee eppev
6 28
wmoperator type
stringstream icst
z e
pairikice c
stor en
ve ct
con str
swapp ableit
a q
rb d
c n
greater is
nod eeee
pairiiiee ppev
dw c
0 77
re hashe
node iy
epkc s
tree imst
au d
erasee n
pop ev
move s
r ee
10 25
moveir pf
itercl ix
equal ser
er blb
o i
baseisaib eed
en gth
n i
index epkns
z zn
fif o
baseip pst
cl ose
n fp
ejrk xeec
tupleij xx
b gp
setprecision i
lessime saimee
nodeem rs
eept ev
as ic
lessice clerkcs
un register
67 6
tree ij
me s
ee ens
77 1
it mp
68 4
69 9
hashtable icst
inc rement
67 5
vectorilsail eeixem
me mo
67 0
65 3
sm c
6 37
cxxneip ssst
list iie
m ux
0 71
tupleijo st
hwm gr
iv in
identity ixe
iteratoripcss ees
68 7
70 8
ptr unc
get char
Ġf ptrunc
nipim ieet
pairiiiee ee
bm vert
base ii
6 29
Ġ vec
phy s
base iesai
67 3
im ept
addressof imept
20 48
bo t
ptr in
pairiiie ist
pair iris
in struct
10 00000
sqrt iien
pairikxcee ed
id st
re port
80 7
vari able
68 2
p lel
fr eest
io st
trig ger
x mm
ss eeeot
r am
comple tion
9 21
1000 5
vectoridsaid eeeens
ii iest
fr m
list ist
Ġ20 48
en a
node iieot
ieeev pst
el e
from bool
at ed
n wordem
iteratoripcss emmev
6 69
iterator ic
deallocateep mm
6 30
pf ss
struct ure
attr s
p ll
lessime sais
6 34
to ixe
cxxeq ipst
ee qerks
copy sign
dig it
ide st
ph itmp
vectoriisaiieeee enst
68 9
iteratoriirip iec
70 7
imm st
ap i
iee ot
6 35
dm g
pairikx cesais
hashix est
sink pv
at t
match ing
0 78
Ġ10 9
pairikss xest
70 6
p ft
67 2
big n
ss ld
cl emm
pairikcx est
s en
ssc d
fill ip
r r
6 50
vectoridsaid eee
6 33
6 39
Ġ 71
t g
freest yle
iteratorip le
Ġ10 00000007
hashing clemm
val clip
not ifier
at m
swap ipis
6 36
pairiiie js
8 20
0 73
en ode
jp j
typee e
7 13
sh ort
7 14
compound literal
Ġu itofp
Ġ 79
pairid iesais
ee edpot
decl are
brcm f
1000 9
vector ifsaif
initializeem rki
vectoridsaid eeee
sla ve
ex tra
st m
lessix eec
6 80
iter i
ssc s
7 28
6 59
c fp
tree immst
identity imest
69 5
ub ifs
mw ifi
mwifi ex
al t
"* )*,
typee rst
i max
if ic
max flow
rn g
pairi iss
dt cl
ir kst
6 38
Ġ 77
09 0
68 3
ai s
0 72
comple te
w il
dr aw
12 00
ix gbe
10 88
v h
6 63
medi a
69 0
69 7
ss n
69 4
pairikss ielb
rec v
prod uct
conne ction
7 10
distance in
iiie iesais
sort ipst
net work
map ep
in o
item str
v x
constructixjx eeevrs
sur face
vectorilsail eee
0 74
79 3
promote is
increment pkst
ss cc
kc is
pt s
moveir deonst
86 9
v v
05 0000
ff e
alph ab
sai dee
sol v
Ġ 70
69 3
eee is
tra vers
68 1
b nxt
pee r
dev data
nodeix lb
b miter
appende m
si mple
f est
8 13
constructissjrk sseeevpt
7 12
res h
constr aint
ee lb
nv if
tail recurse
69 2
lessixesaixee c
rk ss
st elb
cl ist
7 18
n rhs
c ifs
ve ce
sequ enc
part i
mod int
conne ct
stat ist
79 0
id j
ot g
6 60
il it
edge sais
heap ipxn
Ġ5 00
l v
str cpy
w h
vectoricsaic eeeens
w al
lessicesaicee c
en e
7 09
a fs
80 1
rt union
b pt
69 6
alphab et
ssc f
ejo st
iteratoripss s
pfss iost
70 2
insertijrk xeeevn
ent al
le ave
pip ds
statist ics
p cet
io mmu
c ent
pip fs
s ens
7 19
fmt flags
6 57
iteratorii edeev
co ll
mt d
not ify
eq u
Ġ(< {
aux est
b at
set fest
8 192
pairii ien
nodeix eec
iteratoripcss ee
baseii ins
b and
ne igh
6 64
r vt
fun ctor
d am
hashi y
iteripfb iieeeevt
Ġ 10000
ratio ill
80 5
baseij saijee
9 592
let ter
ct xt
iterator iy
valuee s
k l
feat ures
sscl l
g fs
pr t
en dep
le tt
70 5
Ġ8 9
y ee
Ġ1 496
6 52
v k
fmt fl
77 7
n ss
6 31
pairikss s
da v
allocator ipst
l ap
80 8
Ġ cpuid
Ġo le
vectoriisaiieee onst
d lm
issss ns
backeo x
nodeix eed
z er
b eee
7 17
lessicesaicee sais
n ft
20 22
insert ipin
u st
a cl
ii piee
iipiee brt
vectoriisaiiee eeec
zstor rst
u delay
fixed rst
,= {
pairikss bee
moveir p
sm all
( {
g sp
pair s
zstlt icst
vectoridsaidee sais
q disc
iiii iiii
cee ev
6 56
loopip iln
6 68
el i
sscl d
g sequenc
gsequenc enode
t in
foo i
pairikxc eeec
0 76
instruct ion
tupleij ii
map icst
traits ic
local e
Ġ out
ixx es
10 30
c dp
sco pe
tra p
pu s
pairikii ens
deque i
cur sor
ge m
unique in
dev m
8 12
m rk
valip fb
ac cu
typee ee
mod ifier
a dev
p ed
map ii
77 6
max jpj
8 99
link node
vectoridsaidee d
i mple
ex n
iterator plel
6 65
cxxltip csseebrkns
d ap
7 25
i co
70 3
znssple pkc
gsp ca
dis k
vectorixsaixeeee pxet
pair idx
Ġ vaarg
vectoriysaiy eeeens
icee bpt
pointer iceebpt
640 45
7 22
o map
znssas epkc
blo b
pre ssion
p thread
86 1433
861433 64045
70 1
646 50
Ġ76 86143364045
86 8
co ex
Ġ7686143364045 64650
h da
y ear
e k
7 16
mo l
er nst
7 20
pairikc ielb
78 8
cur ve
80 3
g string
vece xt
edtcl sr
pairikiie c
x frm
fo ur
Ġ16 0
86 2
79 1
j eevpt
iteratoripss ec
initializeem rks
ep cs
vm w
_" (%
6 51
ser ver
el ist
r v
w atch
pairidde s
net link
7 23
k b
o v
77 8
numb ers
iiee ot
deref erence
4 00000
iteratoripss edeev
7 15
ejrkiee rnst
r ai
met ad
per im
vectoricsaicee s
constructissj sseevpt
iteratoripss eppev
8 18
zsteq ipssebrkst
zstne ipssebrkst
7 32
aipxm xen
en tries
7 24
rect angle
same is
tupleijrkc eeeot
ev al
u ve
io v
pairiky cee
sec itemstr
me sa
f ac
7 29
v si
v id
b w
gener ic
80 9
sy mb
table idx
weight ed
b ke
m box
eeee ot
hash map
coe ff
scev check
79 8
heap ipst
solve i
iiie sais
6 58
di ct
vk tr
baseicsaicee c
d rbd
begin em
9 00
trip le
b ip
iiie iest
ee nst
f h
enump kcis
ip v
di ag
frac st
h dev
distance ipk
80 4
o ther
m al
comp ress
7 21
mult i
cap s
88 8
sseeev n
loc ked
pref ix
it r
base issssns
mode s
deque ixsaixee
ssai s
channel s
Ġ8 5
Ġ655 36
tupleij dpot
vector ip
f ault
wm i
vectorilsail eeee
86 1
clerk x
baseisaib eec
c group
nv me
identityixe clerkx
l ens
ex pression
znsai bec
7 26
78 9
irq restore
cr d
au th
erk ijeert
t fm
10 72
t id
tupleijrk sseeeot
7 27
u pt
ir a
as d
itercl iipieebrt
g error
cer es
tupleij pfssiost
en v
d up
pairikxx eec
1000 07
dap m
nodeiiee ot
lett ers
pow ii
vectoribsaib eeec
o th
baseil sail
e ad
w reg
traits ip
par ame
Ġ 75
78 2
vo l
av ail
pat ient
09 1
vectoriisaiieeee c
sens or
rx px
pairi yy
Ġ4294967 292
metad ata
mon th
sh ow
event s
mov q
09 9
p mm
pairii x
str ength
visit ed
88 5
s st
pus he
pairi mm
80 6
maximum weighted
maximumweighted matching
get s
conv f
x l
c arr
tupleij iiieest
86 3
ex perim
strlen pkc
experim ental
array start
ep ms
znsirser l
i fin
use s
mult ip
86 6
f lo
0 81
pt st
u v
n ssc
duration ilst
iteratorix eeot
Ġ35 20
Ġ 119
pt sais
id lm
m q
pairikss ieec
m it
c am
7 33
* ]]*
backerk ss
sto ail
epp is
ixx eesais
ran g
* ]],
vectoriisaiiee es
s vc
im ed
pairik lle
ass oc
r value
d ss
nodeeee pst
sm u
toiie sais
55 55
s qu
sc ene
eee ixe
iteripf brk
zst cost
zstan rst
baseip let
offset s
inf oc
Ġ 98
sd p
ic ious
ss l
poss ib
forwardi deot
fw node
pol y
vectoribsaibee s
iteratoriiee qerks
77 2
100 7
vectorilsail eeeplel
o ct
me ot
baseiesai eee
swap ipst
pairixx eevt
susp icious
79 5
pair ir
insertij rks
min ixerkt
ser v
Ġ46116860184273879 00
x a
allocator imed
se ma
7 37
7 35
ee elb
7 50
pairi issest
av x
v ma
b ixeept
bm loop
destroyic eevrs
vectorixsaixeeee evt
node im
pun to
86 7
node pkcis
enc y
w rk
def er
n a
ii lb
get ik
u mul
alloc node
bat adv
top ev
0 80
di re
is k
par ser
i err
77 3
iz ed
vectorixsaixeeee eebrt
33 33
iee pst
7 34
less ije
inserter ki
7 40
y mm
scan ner
fc s
ca ch
eev rt
ilit ies
accu mul
8 19
7 45
th e
sema ph
bj ect
u max
l ight
allocat eev
dev t
remain ing
b ios
s v
09 4
jo urn
cl l
semaph ore
ve x
iy st
nip ssm
ate m
pairikl cee
78 3
sp rintf
m vm
journ al
]] ]]
77 4
g mp
7 43
vo lt
de allocateev
i er
10 50
10 00000007
m ay
79 2
86 5
vectorixsaixeeee lns
dat ast
77 5
p unt
09 3
7 38
7 55
iteratoripk dst
e bt
n p
rt sx
hel d
lessice saic
vectoribsaib eee
pairikiieee ixers
7 48
min im
lex ico
k object
p data
cl er
less i
mt k
vectoridsaid eeec
graph ical
78 4
lexico graphical
nod eee
go od
map is
po st
ld v
100 3
b ro
tt t
iteratoriie bec
lessissesaissee d
Ġ11529215046068469 75
vectorilsail eeees
79 6
8 11
8 10
pairik iss
82 325
168 2022
307 1682022
Ġ384 3071682022
Ġ3843071682022 82325
7 30
dat ap
read y
pairikiceee ixers
7 70
n x
g end
epp ei
max ixerkt
equals ers
7 39
u id
Ġ2 40
gend isk
79 4
09 2
pairidd ee
i mp
pairikm cest
78 7
88 9
. ,
Ġ10 8
f st
ip kst
500 0
ig int
znsai ded
tupleij iiieesais
sortip ievt
cxxmii pc
codee pns
p sais
b an
aipxm xet
10 11
link ed
7 44
nodeicee c
p wm
09 7
Ġ 73
vectoriisaiiee evpt
pairikx cec
77 72
gs list
l ver
op tim
0 83
hashi lens
ff s
int err
bucket ep
count s
n n
sa a
i is
rec ord
ff ff
iteratorix rxpx
beginem pns
eightpuzzle ilm
nodeijrk ieeepst
n dev
vectoriisaiiee eevt
7 46
Ġ8 1
col um
09 6
iteratoripk is
select cmp
ctor loop
f re
eo st
mem arrays
icj ieeet
stoail icjieeet
traits ipnst
nodeclirk ieepst
stcl irst
ge st
p fp
de code
lessiiesaiiee est
destroyic eevpt
79 7
cr k
n fc
proto col
9 37
equalser ks
d ce
deallocateep lm
mem cmp
bu mp
uve au
i icee
queue i
pairiiiee eot
base icst
hashiy ens
map issst
7 64
100 10
r ad
eeee sc
is i
sock addr
nodese pp
i kc
1 105
unicode string
7 36
an al
gcd xx
ejrkc ee
data structures
a co
no uveau
m l
8 16
ut il
09 5
cal ce
tx q
buil d
cxxeqip xst
vectorixsaixeeee x
bucketep pns
Ġ17 6
aip ssm
nodese ps
sub device
max i
em st
irq save
pairixxee brkst
cash er
wid get
con vex
78 1
7 86
374 18
cxxeqip csseebrkns
f et
r work
val s
ipk is
7 49
pairik i
backward ipis
p ers
xx et
sh ader
vectoriisaiiee elb
complexide sais
Ġ" {
sai ce
guar d
erk clb
ij est
base issst
cl one
le c
10 12
r mmio
w are
pc pkc
gr u
de fp
nodeijrk ieeevpst
io write
mac ro
typeerks b
eq ev
qu ot
icc saic
mrk m
ejrk ssee
0 85
ow ner
node il
b ul
7 56
pairikc ieec
89 0
ep pst
89 3
f lt
7 69
c at
8 25
hard ware
cxxneip kst
aux emst
mt ab
x hci
co lle
bc ma
pairik ix
rot ate
h ns
0 82
0 84
aystar search
baseipk iet
< >::
ss b
m ix
7 47
r and
erkss lb
rehashe mrkm
8 22
iterclix ns
left epkst
right epkst
Ġ 136
8 24
delay ed
m gr
crk saice
58 99
o x
pairikxc ens
vo ut
vectorilsail eed
calce m
l us
r ds
mut ation
dir ty
io ctl
k x
ac y
ad ded
iteratori pn
92233720368547 7580
set is
7 59
se m
pan el
f ont
constructixjx eeevpt
th ree
inter leave
Ġ 95
8 14
pr i
pairii ielb
hashtable iccsaic
hashtableiccsaic enst
debug fs
ac ke
checks c
s ent
sho ot
saiiee onst
moveir saiieeonst
cxxmiip k
bgp d
me sais
conv ert
pixel info
k ase
sub str
7 31
t ers
error s
j i
array idlm
et a
us age
iiiee ee
iie sais
cee t
7 41
mod ul
78 5
pi ed
c err
t au
in et
ar f
cl d
iz ation
defer red
su pp
c gs
idd st
0 89
8 51
m ic
Ġ} )
key s
8 26
e ilb
un map
ie aseos
cu st
vectoris sais
vectoridsaidee edeev
m g
12 34
88 4
w c
allocatori bec
xer bla
nip x
dr w
nodeij rks
90 4
s at
ar t
symb ol
e brkst
nipxm eet
nipx met
iiie ieee
it b
lesside saidee
8 27
inc rel
100000 5
dire ction
le g
heap ipx
lx n
heapipx lxn
88 2
Ġ2 24
mi evt
fillip mievt
7 60
proto buf
db l
ic h
sy mtab
k k
8 31
traitsip pnst
s o
policy c
pairikcc ee
dp fs
Ġ() *
n printf
no alias
hashing elb
scr een
89 8
Ġ1 16
per i
b ran
se ctor
pairikxx eeed
my rn
89 1
8 37
ent ity
we brt
comm it
pairikx best
iteratoriple s
iteratorii eppev
al s
7 79
list base
f an
8 15
reset em
clerk ss
vectoridsaidee s
tupleijo ieeeot
nodeicee d
at ive
wal k
9 11
, %
iteratorip y
myrn dv
Ġ2 60
ej oc
10 09
7 42
8 17
d war
n api
ba z
iteratoripcssee enst
7 65
vector it
m tu
wr ap
Ġ10 2
8 23
y eot
9 12
Ġ 74
node ile
7 66
vectorixsaixee st
iee sais
tupleij xxx
ma ze
pointer rna
stat eev
s ee
cxxneip k
t en
89 2
hid er
0 87
12 71
queue s
nf sd
el im
bro ken
nodee st
an a
volt age
baseip det
pair in
datap lus
Ġ20 8
isse clerkss
hd mi
identity ice
pfp sf
lp ort
tr o
accumul ator
eeee sd
iteratoricee ot
r ss
Ġ15 00
7 63
Ġ1 10
pairikxx esais
insertijrk sseeevn
valid ate
iterator ins
90 6
sa fe
traitsisai yee
ds i
89 4
wake up
c ms
11 10
i vout
dwar f
wr iter
se d
f am
pairii st
deallocateep dm
7 54
destroyip d
il y
nodeice dpot
sm b
Ġ409 5
id erkt
iteratorix eneerks
r oc
find in
coord in
interr upt
pro file
Ġ10 5
10 48
mi en
7 80
9 18
icee c
0 86
th resh
q q
10 99
e cho
cust om
20000 5
Ġ(...) **
s dio
09 8
memo ized
nip cm
de lt
j ee
ro bot
work er
aip mien
Ġ2 305
hw fn
7 51
pairikssiee ee
7 61
bo ot
pairikx ieee
complexide st
le vrt
lessissesaissee c
tupleij iiee
pairikxx eeee
35 0000
serv ice
88 7
edge s
88 1
carr y
vectoridsaid eec
vectorixsaixeee miel
ref dataev
pairik mc
11 13
pb vh
90 8
nodecl is
h cl
brks ait
znsai pst
atom isp
il j
d q
interleave d
greaterix eeeevt
constructicjrkc eeevrs
ice brksait
zsteq icebrksait
90 2
q e
webrt c
p js
isaiiee vrt
pn t
8 30
g ad
br acket
0 88
tree linknode
moveir saim
moveirsaim eeonst
baseip p
ly di
toice saicee
ide v
7 52
t ipc
memoized p
po i
icee pt
per m
89 5
bran ch
per mutation
dev link
allocatorip ie
ro ute
pairik d
construct i
vectorilsail eeec
9 25
h p
set i
pairikx ielb
destroyip cevt
destroyipc eevt
9 22
m db
10 23
11 14
sh u
8 55
vectorilsail eeeebrkns
vectoribsaibee ed
fam ily
header ks
o le
war ning
ther mal
st es
pairiklle st
sy n
8 29
d sa
ro ok
tupleijrk st
f its
nodeiss eec
f ull
toixe saist
category ipcenst
string i
oc h
gad get
f old
base sb
sh a
leg acy
msg hdr
ees g
iteratoripkc ss
vectorimsaim eeeens
88 3
nodee mm
x attr
ev rt
factor s
9 17
fai led
ma xx
c beginev
rea k
c cl
data est
addressof i
identityice clerkc
nodese pps
mapii bst
eo x
8 34
g ue
9 14
str ev
is sc
valarray ide
allocator iye
m map
sy m
11 12
99 8
solver st
i iss
stack iist
rep ly
ar m
less ij
ai pcs
pt p
c ord
tree iddst
support ed
less iceec
00 5
cov er
peri od
bt c
backe m
comp os
b mesh
znsirser d
s ch
8 36
lap acke
znssas erkss
eecl ips
8 39
9 13
emrk brks
int erse
g fx
k d
is er
ar ena
ss ec
pairikicee deev
vectoriisaiiee aserks
90 1
toisse saissee
cache s
Ġ12 9
89 7
se cur
Ġ32 64
7 53
0000000000 12
row s
sof tc
iee ec
edg eesais
8 21
s css
v i
t sais
ii eebt
ea k
cand id
9 19
nodeemm pns
aipssm sset
0 110
q uar
iterator s
ib ed
pairiiiee eeot
sai me
char act
eo saime
8 28
7 62
tr c
nodeij rkc
sa mple
partition ipin
mp ks
virt io
znsai dec
comp at
x string
x eeevdpot
f ii
u ps
pivot ipin
tun nel
out b
c beg
saicee t
tage ms
9 16
9 20
pf ipt
issc eet
xstring issceet
8 38
powii ien
first ipin
9 28
secur ity
zns i
greater ist
pairikciee ee
identity idest
xm it
y et
s im
select ipin
point e
dat um
cxxmiip lst
c dev
ixx lb
th rea
re try
d sais
ptr inst
l ic
traitsicesaicee d
sh uffle
nodeiss eed
assigne os
ubign ili
buil tin
90 3
0000000000 13
a cos
alloc no
8 49
tupleijrkc eec
ipcee t
on line
lay out
sh ad
pairik yy
isse sais
" ]
aux ipcees
tran sa
pairic iesais
ib eerksait
allocator ibed
dereference able
l eep
Ġ dereferenceable
impl inst
ixxe brkst
codee rs
9 24
pp ei
8 33
s eec
pin ctrl
ol ver
cl os
n il
Ġ10 48
itercl ipst
log ic
mm m
ul pt
swap s
cashier st
9 26
e cl
90 7
ed t
ic en
ae ad
deque icsaicee
tun er
9 32
nodeisse dpot
ver ify
test cases
coordin ate
8 70
colle ction
8 35
een try
iee ed
iee ee
pairixx eeec
br cms
Ġ12 2
99 5
antu m
transa ction
sof t
pairikssiee ed
lessij esais
9 23
k p
ip w
r ilb
node operation
low word
mid word
high word
colum n
th eta
iteratoripcss eens
ioc b
znsols ee
call oc
treeij st
pairi jj
a region
pairikicee clerks
tr i
tupleijrk sseec
tr s
11 15
list ii
un g
me onst
Ġ 118
] **
Ġb igint
su f
sl eep
p kv
Ġ() *,
pr op
ejo iee
i work
8 47
list node
nt b
ejrkc eec
stro ke
iiiee lb
item s
chk xer
la ce
vd be
susp end
m th
iiie ieec
delt a
ii x
8 32
11 18
listii erks
ejrk st
9 29
pushe os
99 6
s rt
mag ic
8 40
10 20
q s
advance in
moveir pst
iiie cee
dt a
eo ilb
cl ust
ice s
pairi l
baseipk xst
md dev
r port
m u
memp ool
Ġ 91
8 48
rq st
8 45
sf ii
squ are
m ad
h h
ejrk sseec
iteripfb iiee
candid ate
sc ulpt
re mo
Ġfpto ui
8 50
10 15
bound in
pairiisse sais
200 5
tupleijo xee
99 2
vectoriisaiieeee ievt
Ġ() **
m iceept
aud it
di rect
lessis seec
iteratoriss eeot
sd hci
c eeee
Ġ4 295
x pxet
ist ers
possib ilities
pairi es
h u
Ġ err
17 12
vectoriysaiy eee
flush icst
y pe
at ure
s ft
save d
anal y
ce dtcl
Ġ12 4
re allocate
nip ss
constructissj eevpt
de coder
8 77
nipssm eet
nipss met
e ii
xee epst
l ar
10 26
ph ba
iteripf br
y eonst
0000000000 14
bracket matcher
9 10
sb st
flush ev
8 57
end ptr
iterator icst
99 4
vectoriysaiy eeixem
ub i
8 59
10 22
mapem b
zns o
vectoribsaibee ms
u fs
c g
frame buffer
long int
valclip iieebt
con gru
person sais
pairikxceee ixers
reser v
vectorixsaixee eee
8 46
lessile saist
8 86
iteratorip ceet
charact er
p ay
Ġ 94
ip kc
mapix ist
ejrkxee rnst
9 36
ss ss
11 17
cashier sais
destroy imageinfo
moveir yeonst
g f
sc if
all ow
iteratorii lb
8 56
nodeixe ot
g v
pairikii eedeev
mapis sbst
vectorixsaixeeeex eebt
iesai eeesais
st v
8 64
fail ure
99 0
pairim mesais
t node
vectoricsaic eeeebrkns
dr aco
vectoricsaicee edeev
x fer
baseip cedtcl
cs l
byte it
gvariant type
k obj
vectorisssaiss eeet
b g
tp l
in p
k a
supp ly
sr q
Ġ107 37418
ee ept
11 19
ld u
iteratorii epst
gp enc
aux ev
pairixx eept
j m
znsai led
Ġ16 384
backij xeeevdpot
pairikxx eeec
22 22
pairikciee ed
0000000000 01
iteratoripk lst
em u
substr emm
b cm
u dc
p wr
9 27
port s
d eec
count ers
*) )
interse ction
skc ipher
9 33
Ġ214748364 6
c ro
pairikss iesais
list ixsaixee
Ġ1 17
vectoriisaiiee aseos
pairikx b
iiiee ec
13 14
10 19
9 30
r l
py m
thread st
if stream
vectoriysaiy eeedeev
znsolsepf rst
ior ead
Ġ16 7772
be ta
nv met
lessiiesaiiee s
cle i
500 05
er a
5899 34
trans form
mm y
ref cnt
sub mit
val ev
erkx jeert
c w
wq e
identity isseclerkss
disable d
s j
iee pt
iiie ss
ens ion
pm u
y n
to ii
su ff
nodesepp is
pairikssiee ec
ac c
x dp
constructicjrkc eeevpt
ad c
au se
ro ce
di b
10 28
h c
j mp
pairiss iest
iee onst
hcl ge
al go
en ame
Ġ10 0000
base it
uct ion
hs otg
bul k
t lv
znsai pied
8 41
8 78
met a
sort ist
9 35
l un
znsols el
00000000 00000
8 43
99 7
11 16
toice saist
Ġ99 9
val iz
packet s
g iz
pairille s
ab c
hi er
insertij xeeevn
vectoribsaib eeee
co or
h am
ptr isaist
str n
ss ns
pk vm
interval sais
ij s
Ġ5 24
1 128
ee prom
9 58
q r
ld x
Ġ2 62
Ġ32 512
10 13
to ilest
id i
cx d
cxxmiipc st
x eeevpst
en et
100 4
pairiiiee ed
tag s
10 14
oc ket
pt e
8 74
8 44
ep ls
znsai p
25 00
Ġ1 13
8 54
iteripf brkst
nil fs
dc p
mi cldtfp
basee cldtfp
dem angle
lydi a
ter m
10 40
Ġ 137
fl d
r ctx
10 17
copy ins
k ill
pairikss xee
an ge
lessije saijee
8 79
x gbe
z ge
not null
up dat
ijeeee eps
mov ie
map iy
ld c
8 80
10 18
rc v
Ġ10 00000
point ee
v gpu
main enk
9 34
ir kc
me th
9 31
optim ization
pay load
sinkpv z
ab l
du mmy
x prt
tc b
c ert
set ter
erase b
s hi
de g
9 38
buffer ed
14 69
to iyest
pairii ces
bm edge
backe oc
l w
fet ch
x dr
list i
vectorijsaij eeeens
b reak
coex ist
8 76
op code
wh ich
move isaiieevrt
dee ev
valuee be
9 60
11 32
znsai lec
op p
9 56
ix lm
minim um
gra ham
400 0
hashi m
meth od
8 71
h n
0000000000 10
on ic
j ffs
9 47
ac q
base iie
ie j
lessiiesaiiee sais
sy l
off load
1000 09
pairixxee evt
8 42
de sais
tr e
over lay
p xee
iteratorip p
p ch
identity cl
Ġ6 24
10 34
move in
_ "**
g g
9 45
context str
macro block
adj ac
gpenc il
ee clerks
r ender
pr io
jj pjs
ir iilb
gro ups
q l
sc b
eeee sb
reg isters
sr ssp
8 58
9 05
elim it
count jjpjs
fai le
p w
y o
g ain
complex idee
ep mm
7 00000
rep lace
Ġ16 8
co mb
conv er
9 67
p ub
h r
lle vt
me i
rx rpc
Ġ922337203685477580 7
es b
rk x
if ace
vectorilsail eec
tc f
sqrt f
greater iiee
9 66
vectoriesaieee ixem
ee ppev
ge ii
10 56
ss ssee
8 53
as et
ad ap
gs ource
8 75
vectorisssaiss eeemmev
destroyip llevt
922337203685477580 8
device s
tupleijoiee sd
modifier data
ee brkst
iteratorip des
10 27
vectorimsaim eee
8 73
fs l
im r
znkss ixem
hash is
9 46
Ġ12 3
Ġ1 64
bigint e
mg mt
static s
9 39
node iye
met al
travers er
8 52
aystarsearch ins
flo or
10 16
cre at
mapep ps
of stream
st age
giz mo
swap i
char it
eee brkns
0 100
zsteq icen
se s
pairi ex
g am
interval st
insert eos
typeerks bis
less iiee
Ġ12 1
ta ch
10 29
copyipk ipiet
visit or
1088 64
1000 02
f sc
ur ned
Ġ2 16
l terks
dp k
iterator ile
array ixlm
Ġ1 32
pro t
analy zer
heap ist
b x
zstlt ixxebrkst
identity ijest
treeij jst
3 00000
tail ers
pairiky celb
co ls
99 1
9 64
Ġ 111
99 3
ee aseos
at tach
baseidsaidee d
std in
ip iv
pairikssb eee
h isi
12 29
fl ash
d complex
for ce
q t
9 49
Ġ1 40
9 09
p sb
rc p
tt m
echo audio
remo te
track ing
v end
rk nst
ij os
queue d
Ġ2 68
m fc
pairic iest
a hd
9 42
greater iieeeevt
9 57
oct eon
h y
k ss
mo not
Ġ15 2
g as
parame ters
pairixx eeee
9 88
d tr
result s
forwardirk leot
9 87
ijo iej
graham scan
t ls
struct infoc
9 55
c sr
h ull
pairiee es
monot onic
resource s
h dcp
fp rintf
15 17
iter eebt
id le
pairikss cest
swapii ienst
9 80
comparee pkc
r ct
added geii
ik is
pt ev
br ush
9 59
Ġ10 3
vectorimsaim eeixem
0 101
typ es
vect v
00 2
hashtable ist
change d
znsai y
xk b
as ais
Ġu le
sn printf
x max
buff ers
10 37
x bf
al ign
f at
t ies
st an
9 54
min or
up ev
il ity
pa int
pairik lst
vectoridsaidee eplel
12 28
pairikciee ec
baseilsail eed
bar i
Ġ2 307
feat ure
adjac ent
Ġ acq
f act
pairiss iesais
baseip ssst
day s
8 72
r hashtable
cap ab
pairidd eeonst
9 48
sh ot
vend or
vectoriysaiy eeee
iteratorix edeev
pairikc best
Ġ 130
pairixx en
basee erkst
edt micldtfp
ej iiiee
handler i
operand p
in ner
distanceipk ienst
point c
Ġ67 108864
frame s
vectorisssaissee st
10 55
bn a
rat elimit
parti cl
map iccst
Ġ 114
Ġu ge
f id
el ine
9 86
300 0
9 50
ab sd
ce il
zn am
su mm
12 15
v r
pc pii
c ac
person st
inplace inst
pairikm cee
9 65
comp il
manager iz
pairidd eee
9 40
cxxeq ipk
in valid
re ce
Ġret urned
traitsic elb
v nic
chi l
100 8
11 44
tupleijo ieec
112 5
pairikc iesais
precision el
0 103
min fo
10 32
iteratorii emmev
im x
m ch
erk nst
pairiii ens
ix esais
elem s
< __
insn pi
pairixx eedeev
12 18
pla in
ii rilb
h ave
x d
ij st
rt nl
Ġ2 88
cho ice
w p
act ual
12 20
b ea
i info
par port
mul ate
forwardi leot
112 4
pairikic eeeot
queue ixst
" (%
12 13
10 35
ejo ieec
wl dev
boun dep
in qu
pairikiiee clerks
x window
m iss
boundep kst
im eept
proper ties
9 44
im ev
Ġ8 589934
12 12
g id
pairikcc eee
Ġ 93
pairixxee ppev
el j
n g
ir xs
rw lock
j max
10 21
x i
sai h
pairikssb elb
str ncmp
9 68
map il
fr ace
k unit
vectoriisaiieee brkst
r xs
h z
100 6
ver bs
iteratoriss eeqerks
tupleijii iiee
n h
destroy il
vectoriisaiiee jrks
category ipk
book mark
10 46
c ens
pim t
en sc
9 69
w w
iteratoris srssp
Ġ1 84
state seq
l ee
pairikicee eqerks
forwardir sseot
mb x
ive d
cr c
10 49
ay er
11 46
vectorixsaixee est
re iser
tro uble
reiser fs
h saih
per cent
9 78
Ġ5 36
Ġ5 11
faile dpk
find erki
swap ist
112 3
re cover
se ss
11 47
q i
res v
h v
d pf
sign ature
100000 0000000
d la
scal equ
il ter
const init
endep x
800 1
cont ent
0 102
is nan
iteratorip j
step s
abs x
12 51
epk xpxet
nodee pi
v mem
t point
vectoriisaiieeee eevt
tupleijoc eeeot
11 40
10 39
oth ers
v dev
Ġ1 41
cl s
ex act
time spec
pairie iesais
9 79
mid i
12 19
112 6
k fd
lr u
pairikxcee deev
28 80
00000000 0
br d
eeee ssee
l num
11 49
thresh old
il a
g d
niter s
12 25
10 44
reg x
reg y
ee ixers
memp x
memp y
10 36
Ġ32 768
do g
deque isssaissee
permutation in
8 00000000
13 52
suff ix
10 45
Ġ4295 000
pc idev
rai d
ul ve
00 01
t gt
h inic
el f
10 38
x chg
11 45
iteratoric rcp
zst m
vectorisssaisseeee p
ran get
d if
10 33
11 48
c eeec
nodeix eeot
g ame
m int
st and
b arr
bu sy
fre qu
Ġ monotonic
conver ter
Ġ12 5
min i
l on
nr m
pv r
m dio
Ġ99 9999
16 00
datas ais
identity elb
reserv eem
9 75
c graph
ul ate
ed dd
110 8
: ${
hal f
us ing
p ct
112 2
Ġ922337203685477580 6
500 01
9 61
swapip xs
9 62
vectoriisaiiee esais
list is
no s
multiset iist
9 43
fu se
9 74
p j
n ex
str u
tinterm traverser
iterator il
icc ns
ms ix
quer ies
info str
char s
pairikxx ec
9 89
12 17
01 13
eecl is
re st
segment sais
10 47
9 70
15 64
66 66
ran k
pairix ies
0 104
it or
vectorixsaixeeee enst
sd ma
im er
root ev
wrap per
p prev
9 52
zst mi
tu al
as n
pf n
11 64
segment tree
traitsisai piee
net s
11 58
gcd ii
Ġ common
9 77
r int
cs io
stcl irkst
tim ings
10 59
insert ip
tim ing
fsc ache
trien od
sft k
12 24
9 53
ep sss
m imeept
aip k
pred phi
9 76
ie brkst
12 16
11 50
mix er
9 63
comparee pkcs
hn ae
t da
es ult
10 58
pre sent
eeee pimt
yy l
cc g
w ay
baseim saim
00 4
Ġ12 6
frequ ency
eee se
im buf
9 84
0 105
can cel
pairixxee clerks
nal i
ss ls
iiieiee ee
b ail
110 7
v ase
in j
ind uction
hash iie
pairikx ssest
pxee brt
vol ume
hashi j
12 22
10 67
mapep pim
pr v
construct iy
checks um
open mode
113 3
destroyipd devt
iteratorice deev
std err
l ing
10 57
pairikxcee clerks
z y
eev ee
113 4
nodeii ers
ld t
10 68
iteratorip cs
strcpy pcpkc
z on
id r
9 72
pairikiiee eqerks
ssls ocket
62 10
sched ule
open modes
ac py
iiie ies
j ris
watch dog
m dev
10 31
55 44
110 4
v cc
12 14
400 2
10 69
00000000000 2
il jrk
mapic xst
s hash
construct iljrk
constructiljrk l
co al
iteratoriirip i
11 97
range s
barr ier
pairid ies
113 7
vectorimsaim eeedeev
pairikj cest
112 0
10 64
dr ive
find erkss
hashim ens
3 0000
o int
inserter kx
12 23
magick exception
pairii dest
f buffer
sslsocket str
18 60
div ide
10 78
vmem map
max y
iterator im
an im
9 41
200 010
get ev
cl ers
lib call
12 26
hashiie clei
0000000000 09
mapi is
11 55
c pow
ipx ln
lessiye saist
14 16
throw magickexception
insert ipxn
rb e
12 32
loop ipxln
pairikc iec
iee eest
copy ipst
range sais
eeee enst
v ir
clust er
11 57
p ause
iteripfb rs
iiiee eonst
vectoricsaicee ed
minat ed
mapp ed
vectorixsaixee ed
ht c
t ile
iterator ppev
traitsisai jee
10 95
k u
Ġ1 80
compos ite
wl an
sd f
yyl type
ii iec
ee rkt
moveir meonst
nod eec
sp ar
toisse saist
cle an
ixx saix
pairiky ceee
baseiy saiy
f coe
struct rna
is digit
10 52
de mod
s ib
>> >>,
dat ar
iteratoripk mst
allocator in
move isai
ah c
112 1
gue ss
ap ic
seg s
00 7
bigint ee
rel inqu
a o
pairikss iec
dd d
frag ment
9 73
count ev
ig b
Ġ10 23
relinqu ish
ans y
o ob
sc is
s mi
de ns
] *,
vectoricsaiceeee pcet
ext ension
11 99
00000000000 3
ej xx
11 59
gr p
listiisaiiee d
9 51
pairikl ceee
9 83
allocatoride c
0 107
allocatorile c
en crypt
pn ode
gc di
cc p
Ġ1 96
i lo
m ipst
iteratorixe bec
10 79
10 54
9 85
jp js
zstmi in
seg sais
base iccns
file ilb
Ġ1 48
14 79
11 80
nodee sais
ific ate
0 106
ver dict
c en
znsolse m
13 18
s een
forward inst
9 81
10 61
reserve d
cpuid jpjs
113 6
110 2
110 6
pairikxx ens
q h
bigint cee
xee pst
q len
icee ot
w d
ci a
el s
j ar
bigint eot
18 44
is a
ir x
hashtable ixxsaix
ip r
rbe gin
ieeev rs
10 89
13 44
dr en
bea con
tupleij d
pairik issest
ptr s
baseip yet
key str
ceeev rs
Ġ2 25
strcmp pkcs
ll ib
rt llib
nssc k
cmp sais
11 52
irk ins
87 09
110 9
to u
_( <
rep ack
u cl
113 1
bm face
12 30
10 86
d ing
sh ar
stm mac
ch r
00 1
appende pkc
w eak
Ġ* >,
be z
chil dren
p ai
00 6
b dev
cpu info
11 89
vectorisssaissee eeet
11 53
12 37
Ġs imple
traitsicee c
hashtableixxsaix enst
pairidx est
h ub
10 60
11 56
ath er
Ġ >::
point eonst
back light
lo l
g ate
atm el
vp x
ixx eee
c sum
os d
112 7
p lay
Ġ2 50
t n
87 23
00 3
10 77
deallocatee pym
011 1
nipcm cet
s di
Ġ2 64
rai ist
h ack
s ide
party st
1111 11
16 80
ix eeot
per cpu
rbegin ev
ir ow
12 27
ig nor
ip u
urn g
12 09
6 00000
10 74
le af
1 101
eli minated
u verbs
ent ial
pairikib ee
x display
iee d
read l
avail able
valarrayide sais
9 71
cd ns
p pt
tupleijxxx eest
sp kc
112 9
baseip kst
10 65
zstm irkst
) ),
eeeis a
ms i
il sail
ce d
11 41
hash ns
j eot
shad ow
9 82
113 5
n vm
g main
12 10
]]]] ]]]*
pn p
sp ac
vectoriysaiy eeeplel
act iv
]]]] ]]],
Ġ cmp
fc f
bignum st
110 3
idsai deec
baseip sset
sn ap
10 87
ers ion
pixel alpha
testcas er
gen e
vectoriysaiy eeees
113 0
113 8
r or
Ġ10 6
assoc i
base idsaideec
vec st
compar ison
10 90
lang u
g hashtable
o st
comparee rkss
iteratorip cec
iteratorip ce
10 75
ce j
u il
hashtable iyst
iteratorii erblb
11 88
ss eee
vectoridsaid eeees
distance ist
l ssns
vectorisssaisseeee lssns
read back
cond ition
array i
g pi
11 90
dfs ii
ob stack
em crksaice
set ilst
n m
ixe oi
destroy string
Ġ2 57
soc ke
exec ut
11 93
w ire
hashtable ilst
chi ps
Ġ2 27
vectoricsaic eeet
cq e
x b
544 42
nodee onst
att ack
allocator ije
frac sais
ejoc ee
Ġ32 767
pairiicee ot
l eentry
ld work
ll l
20 10
dee t
12 36
11 54
pcm cia
p xxet
15 23
10 41
iteratorip ks
ef i
functionif b
iiii i
i pn
gu ided
iteratoripcss eplel
12 35
g ather
m xs
iv tv
iteratorip fst
ex ist
tupleijo xeeeot
tim est
pv pkvm
1000 010
traitsisai p
113 9
g hash
nodeijrk xeeepst
eo clb
:: (
iteratoric eneerks
or ith
g ap
traitsisai pst
Ġ10737418 24
vm cs
pport data
log module
nip dm
mth ca
interval s
w b
en ded
ep ds
2 100
nodeclirk xeepst
vectorimsaim eeee
cxxmiip dst
f all
t ic
sys fs
iterclix pxeebrt
nssck fw
th ing
Ġ10 000000
sa in
sink iz
the ory
n ee
ro ut
ring s
ma j
vectorimsaim eed
s gl
Ġ2 48
print er
ed it
97 152
a hash
11 42
12 33
sd na
timest amp
12 38
ans x
0 109
10 70
Ġ(...) ***
iteripfb ssssee
12 49
nodeijrk xeeevpst
writ el
h an
wm gizmo
mi erks
modul ar
11 43
"*)** *
seg tree
pkv s
sm bus
a k
im c
pad apter
disp atch
10 53
exp onent
12 21
dec ry
m bus
ej r
u vc
ii b
12 39
r io
Ġ10 0000000
g ly
gr ap
trans l
ap e
pairixx ejs
orig in
Ġ3 00
d word
prob ing
un expected
ip iee
as es
di graph
el d
Ġ1 89
s low
iteratoricee qerks
Ġ2 32
ve ga
m sr
limit ed
en code
_ ",
as c
point ec
11 87
s eed
iiiee eot
cent er
z he
co se
12 80
push erki
isssaissee sais
s ine
tr st
moveir saist
0000000000 04
ixe os
tree idst
10 51
13 15
er ns
bas ert
mo vb
ex y
baseilsail eec
nt sr
ifix ntsr
move isaist
14 39
sl ice
cee st
pairiiie ms
rehashe mmm
m lb
g vt
i q
l eet
vo te
13 13
11 51
100000 1
Ġ2 29
m ater
v fs
iiiiiiii iiiiiiii
array is
node ime
nl msghdr
see dem
ee rkns
detail ne
Ġ25 67483615
bind er
is prime
imag elist
mo use
vir tual
Ġu no
cut s
mater ial
13 35
vectoridsaid eeeebrkns
ipiee rkns
b cd
vectorilsail eeeppev
12 11
pairixiee onst
basee ns
01 16
px eet
forwardio ieot
range st
pairikx bee
st e
gmain context
m ib
ist ent
d db
10 63
vectoricsaicee eppev
iteripfb xx
f trace
13 00
or den
num st
m any
sub sys
11 83
tu rn
01 12
ip ienst
ee lm
sy trf
ear ly
116 3
18 56
lesside sais
14 20
s li
01 17
pairixx em
f ab
trans ition
str to
em lb
constructicj ceeevrs
10 43
comp ute
ch ke
ila env
j et
pairiisse s
ev eeot
h acks
12 44
cxxneip lst
15 83
s data
10 73
120 8
compil er
128 1
116 0
10 97
iteratoripy es
10 71
cxxneip cst
max iderkt
14 38
dy n
appende mc
12 50
v ia
sub div
Ġ g
12 57
znsirser y
1010 10
tupleijiiiee s
sim d
0 108
m ight
13 17
Ġf ilter
11 85
sho st
12 60
ion ic
Ġ* >>::_
ma ind
gcdi xet
m is
Ġ 131
13 16
fan cy
eeee ens
10 66
zstne icst
coal es
mo yo
solve ii
pairikx iesais
tupleijoc eesd
12 73
il eept
13 19
j r
12 47
exy nos
z o
10 42
stack ist
x h
congru ential
10 94
pairisss se
ee mm
abort pkcis
Ġs p
Ġ%_ .
mon itor
Ġ13 1072
Ġ2 54
10 84
mv pp
m ds
eeee ee
ip a
Ġ23 13
testcaser esult
dp m
jar vis
00 8
initialize ipk
three vector
10 80
11 96
12 45
116 5
base isse
pairikii eeeot
ug ly
17 99
parame ter
em be
011 5
assigne m
12 90
11 86
vertex iter
pbvh vertexiter
rx q
t l
ugly gep
to moyo
p blk
pn g
sen se
12 05
11 84
mip i
vectorijsaij eee
1 10000
Ġ2 28
vectorixsaixeeee ens
io no
iteratoripk yst
is u
ft s
travers als
14 23
typeeos a
ev iew
b eam
011 4
iee rkt
magick memory
iee s
err nod
ac ked
is m
frac s
distribution iie
state s
langu age
typ ec
hw if
vx ge
Ġ1 88
item sais
bint st
14 40
fr act
vs nprintf
11 94
tou ch
u dp
h pi
vectoriysaiy eeec
horse info
movie tracking
l int
ra x
Ġ536 8709
sc nprintf
nodee t
10 82
ke st
Ġ 501
12 46
i op
ll b
embe de
117 2
Ġ$ $
_ "*,
55 35
gly ph
relinquish magickmemory
802 154
12 48
io base
6 641
pairixx eeeot
m usb
b el
put spkc
o stringstream
ban k
Ġ 134
116 7
scl k
l cd
its ait
execut or
b on
best ack
may bestack
custom data
10 62
ee x
forwardirk yeot
mark up
ss ic
destroy imagelist
dequeiisaiiee ed
cxxmiipk ist
ch un
v dd
10 96
ptr e
index erk
08 000000000000000
name s
sf nt
gnu m
es as
decry pt
10 76
116 9
117 5
eee brkst
16 27
Ġ2 31
pairiiie aserks
any matcher
116 2
nodeice ot
nt est
12 06
pip cs
12 40
pairic s
19 39
92233720368547 757
set iyst
membuf i
vectoriysaiy eeeebrkns
hider c
14 24
sfnt ly
e xx
ep crksaice
pairimm est
maj or
linked list
r ps
pairikicee d
Ġ%. )
ipx evt
valik ie
vectoribsaibee ept
an k
clos ure
un limited
znsai j
Ġ1 99
10 83
nt fs
construct im
14 32
rs nd
mx l
ol der
quar k
10 85
w ant
f bt
h dw
pl arena
11 98
Ġ rcu
fbt ft
locale compare
x eet
cl i
vectoriisaiieeee sb
hashij ens
Ġ1 49
2 185
x rks
rep ev
mas ks
flt min
no neg
x esais
iteratorip mes
vectorimsaim eeec
ra wm
dd dee
Ġ2 52
me gas
megas as
r iv
ker nfs
12 59
nodecl irks
th r
Ġ8 38
trans data
Ġ1 45
ert ificate
n w
hd ac
forwardio st
rawm idi
t cldtfp
hea pnode
e mulate
15 34
Ġ16 7
vectorisssaissee sais
de form
116 1
ss y
ev ali
sf d
to k
cxxltip ssst
d ssc
cy cle
i hi
jo in
suf pair
Ġ1 47
Ġsp ir
a max
sel f
tupleijoiee sb
p dm
qu antu
pr s
n id
allocator iy
14 19
rate s
116 6
13 36
13 39
128 8
is ci
acos iien
cler i
num er
] ]]]*
24 00
antum to
ne ss
12 64
zsteq ip
op ts
emrk xrks
z t
15 20
655 36
bez triple
znsirser m
net if
erks a
srt p
gen l
14 17
14 29
ld wrk
shar abl
h op
ejo xee
creat eemm
sharabl eem
sh ut
createemm rksaice
identityiie cleri
12 01
16 16
fl ip
set s
eox lb
s dev
at an
z tv
Ġ 139
traitsisai eee
n y
cl g
214748364 7
dec number
pg hdr
g imple
13 62
un lint
vectoriisaiiee i
w and
12 07
eh ci
isai s
12 68
e sp
zstne ip
10 000000
bo ole
cas enum
14 18
10 98
state inst
rs i
15 22
iteratorix eeqerks
ipx enst
12 58
get line
117 7
13 34
r gb
vectoriesai eeeee
eeee edeev
rct i
r hash
al igne
tre ader
pro xy
vectorijsaij eeedeev
00000000 00000000
Ġ524 288
ee ii
a es
u ment
c nd
access ev
lim its
15 88
117 4
Ġin range
11 81
15 16
Ġ1048 576
lar ge
120 2
u nu
12 04
mapiy cst
class dev
pairikxcee eqerks
cee rs
pport s
8 00000
b atch
12 55
run ning
Ġ(...)** ),
Ġ complex
cee ot
vectoriisaiieeeeee bt
boole an
cnt l
c ir
task let
14 28
ht t
nodeicee ot
13 32
pairikxxeee ixers
b pose
plarena pool
le vt
is ed
pairiii eps
magick info
pairikxc eeeot
Ġ262 144
bf q
te gra
socke treader
sk l
lb l
14 15
tupleijxx xee
coll ation
nodeem rk
long integer
10 91
_ ()
in b
cach eview
s ie
dbl min
117 0
13 55
128 2
cer tc
str cat
pairikss iens
a z
val i
pairidiee onst
16 14
cc cc
q os
ir ieeot
in form
b eeee
cashi ers
13 33
mpl er
tupleij jjj
l j
em it
l g
strn cpy
cy cl
ut f
vectoribsaibee evt
check g
scr area
24 04
011 9
iteratorix eppev
ld tb
rad io
ext ack
ph m
pl erkss
wire less
fraction st
d quot
bv h
14 26
Ġ2 20
eo i
och ar
ee i
vectoriysaiy eed
tupleijoxee sd
ssd sc
m cast
12 76
map ixst
16 15
de ad
Ġ2 26
ixxe iest
drv data
ees f
t f
011 8
map illst
connect ed
sib ling
20 20
c struct
w here
vectorixsaixeeee pxxet
12 75
segment st
znss plerkss
Ġ15 6
15 25
14 27
Ġ32 0
m clk
dt b
pip eline
Ġl ist
ixe oc
r oper
clock ens
li br
Ġ1 46
pc pu
ijo cej
ij j
23 97
q ual
tupleij x
12 69
bigint iest
push erks
slo pe
130 3
le te
15 27
mode l
Ġ 135
pairikcx ee
11 82
info sais
vectoriesai eeesais
for mul
bas erki
12 67
vectoricsaic eeees
132 6
Ġ15 7
iiie cesais
associ ation
117 1
pairi iceee
tupleij st
sm lnum
alg orith
e pnst
12 99
char se
117 8
cr t
116 8
120 3
iteratoriirip ies
le w
eev ent
j ack
Ġ15 0
un locked
iiiee c
check us
aip dm
13 30
cache d
ro bo
allocator iee
00 9
5544 32
valip f
mapil cst
j b
item st
12 56
pairikib elb
val it
stand ard
r ssi
10 93
iteratoriss lb
sd l
een eerks
nodeijrk ssee
11 95
py st
b und
ser io
w o
12 70
text ure
ug h
valikie clins
2 187
117 6
roper ty
b or
s il
ic ast
1000 03
copyip pis
mm x
117 3
14 25
eeeessee sais
min iderkt
132 8
12 31
es w
132 4
u ter
set imst
10 81
iteratorice bec
f g
p kcz
pairikcc eec
edge st
ix en
ee aserks
tp g
12 42
ds y
13 37
bigint aserks
i stringstream
v u
constructiij r
cxxmii pyst
b all
ieeev pt
01 32
time s
nodee d
scal oc
ej iiee
ms leep
12 79
traitsicesaicee c
file s
m k
iterator deev
pairis sss
Ġ4294967 296
sortip ssn
j eonst
s id
one y
vectoriisaiieeee iet
f imc
array sof
arraysof memarrays
poll fd
13 10
132 0
fin der
12 41
weight s
d addr
12 54
st un
pairikib eee
pairi ic
tupleijoc eec
13 50
Ġ4 10
destroy id
] ]]],
pairi y
11 91
conv ersion
bl ank
cd f
ac cel
v sp
400 08000000000000000
sj a
g markup
er ilb
128 4
iterator ij
hi p
reg i
greater ixe
screen info
Ġ1 90
Ġsh ort
pc b
m oney
nst array
bund le
nodecl irkc
nodeclirkc eepst
ejrkcee rnst
nee ded
constructissj sseeevrs
blocks ize
vectorixsaixeeee pxeet
128 3
buffer iie
ip iiet
132 9
10 92
bit em
iteratorix epst
charse pcs
vectoriesaieeee ens
ep och
is sais
aip ls
g node
ejoc eec
pairidd eec
0 120
de ps
Ġde lete
h older
q pl
ut put
tupleijrk l
backwardip xs
13 49
ertificate str
m ir
15 19
t con
as cl
iiie bee
ixx ee
pairiicee onst
t ee
ent er
Ġ acquire
c nic
i int
15 18
big uint
vectoricsaicee ms
nodeisse ot
conn track
c si
13 01
bnode socket
getline icst
16 17
vec ip
ld z
y i
aipxm xxet
p as
state sais
12 74
app ly
m buf
v ha
det ect
*) ***
ej ris
sp an
Ġ 138
class pkcis
b eec
vectorimsaim eeeebrkns
ss eeee
vm m
at s
ns isu
pairikss cee
tm it
at l
maind er
Ġ1 43
libr ary
13 07
equalser k
13 12
14 14
16 19
to imest
128 5
vm x
vectorixsaixeeee edeev
hi st
Ġ1 86
trans info
ban im
orden ar
idee pt
13 45
15 35
not mask
qpl ib
on es
14 12
ag p
pairikcx eee
ejrkssee rnst
internal mmap
pairiiiee eonst
9999 9
13 38
g option
typee ps
sseeev pst
13 46
prog ress
log ical
iteratoriiripi edeev
shut down
ld ab
rot at
nsisu pports
vectoridsaideeee p
nodeijrkc eeepst
v chi
destroy iy
cel ls
nip lm
c id
13 86
13 09
13 77
Ġ20 4
r reg
init v
sort ipxevt
erkc jeert
16 22
segment s
rtw dev
lessiiesaiiee ee
a ap
"* ),
13 31
132 1
c json
regex mask
j am
nodeijrkc eeevpst
lay ers
13 11
g lew
vectoricsaicee eeet
pairikl celb
ed d
ip tion
si w
15 24
debug p
sail eet
eeee se
max len
min heapnode
t elem
en o
l to
ct ype
14 30
value pair
x ns
less ii
datar ks
14 22
traitsice saic
ro om
15 63
bl end
pairik ixest
thread s
append erkss
value d
baz v
vchi q
ific ation
im g
rks ait
m vert
moveir eeonst
Ġ2 80
im gu
pairikc iens
erk ns
tr iee
hi g
result iss
13 80
ul ll
g mac
un do
j rs
scr ub
12 86
12 77
iteratorii eppei
many ve
12 63
node ide
znsolse y
xwindow s
x p
pairikssieee ixers
g tree
total damage
ai py
aap q
sd w
ou th
mem ber
erkss jeert
insert en
ar b
14 37
fp ga
i col
15 15
ss sset
12 66
write back
ai pcm
16 18
find erks
spl ay
13 05
8 000
is o
13 47
tp m
endep ss
28 00
pairix ieee
pr file
11 92
co ding
ar c
node ins
15 39
Ġ2 72
sett ing
13 42
moveir jeonst
13 60
15 37
ar p
st all
phy dev
132 3
rel se
unu sed
d dee
a ut
bit pack
15 26
index type
sector s
bnode tree
pm add
pn fs
mapiss xst
x e
kc st
cee evpt
scsd s
vectoriesai eeed
he st
di m
14 35
24 27
13 58
v host
ul d
graph ite
b ev
pairikx ieec
arg ument
rn d
scss dss
m nt
ig c
13 59
pairikcc elb
v ort
132 7
pc r
fs m
iteratorii ep
mp z
sub st
map im
sc st
ej st
flt max
dbl max
h fs
ssp mi
l eevt
dat al
pairiiiee eqerks
s rb
cx g
g treenode
14 44
u dev
lessicesaicee est
12 61
p al
gpu vert
13 79
pm d
14 36
h f
min us
co da
el ns
infint s
list isssaissee
vort ex
r mi
18 80
dem ux
dfs i
Ġ2 12
iter ative
shi eld
s un
type object
13 67
element in
de nst
Ġ2 15
xm l
pl erks
vectorin sain
Ġi ter
14 57
code s
zstne in
pers istent
u vector
12 52
117 9
ai cen
attribu tes
vectorijsaij eeixem
fix up
forwardi meot
internalmmap vector
a ch
cl oc
iee es
12 78
128 7
12 98
ee ms
c ai
br ight
pairidde aseos
forward ieeot
15 28
nipxm xeet
15 32
rev ision
future iss
maybestack array
14 80
pairikl iest
man age
biginteger d
mxs inj
16 25
nodeiss eeot
siz eem
h ot
quantu minfo
copyip xs
m f
summ ary
d get
min ator
pairii ce
ur al
a om
string s
partition ip
26 09
14 64
22 25
back erkc
min o
Ġ 133
less iee
14 09
copyip kst
znsirser j
w ol
pivot ip
re as
14 89
vectoricsaiceeee pc
point ins
ov err
ds u
m ev
xx eebt
fil ename
bb reg
t solver
pairikj cee
t z
st pc
qed f
pairin ne
w ap
sa f
pivot ipxn
partition ipxn
vectorilsail eeet
pairiee ee
id eee
oad dr
ip e
select ipxn
insert eoi
ke v
14 67
first ipxn
132 2
backij r
un prepare
mv s
Ġ20 97152
opt probe
iss ue
in pcb
l z
y m
e ul
16 28
vectoriisaiiee iee
forwardir ceot
y eec
13 48
12 95
vf io
vectori hsaih
14 34
vectoriisaiieeee sa
130 8
Ġ16 1
ip xs
15 30
hu ge
vectorisssaissee est
top o
pk ix
12 97
ip o
15 57
et s
im saim
tupleijo ssee
nodeij ieeepst
pairiix esais
x f
dc b
g host
pairill ee
coales ce
res ol
17 60
zst mii
28 35
cy ph
mov w
0 121
sfii fii
bright ness
m hi
Ġ2 59
ssee ns
15 38
swap icst
ee sh
13 78
13 95
r iest
enump roperty
z fc
Ġ} ]*
pairidd eeot
q m
13 99
yy evt
stpc py
first ip
128 9
la zy
lo a
it t
17 18
eevrs bit
traitsicesaic eevrsbit
ro ugh
>> ::
ai d
15 45
ent s
destroyip yyevt
Ġ33 92
p vt
l u
select ip
valuee ps
par m
copyip pst
is r
13 89
bit group
sa v
enumproperty item
Ġtail recurse
200 1
eecl ev
select ion
ixx ees
av g
ip mi
ix saix
14 21
initializeem rkx
prev ious
threa de
h m
iteratoriss eneerks
scalequ antumto
aa a
pairiiiee nst
14 46
ec c
66 51
pairii iel
get lin
pairikssx eee
memcpy pvpkvm
Ġ7 68
vectoridsaid eeet
coor ds
s add
w s
fail s
c ul
algorith m
iteratorisse bec
14 88
pairikssb eec
mat che
ilsail eesais
0 123
a norm
pr ag
( (
aip lm
hashii elb
toii elb
23 41
pol ine
s addr
14 99
"* >*
ret poline
14 59
iiie iec
forwardirk meot
vectoriisaiieeee levrt
16 20
23 40
sin ce
mod ify
pkt s
scal ed
130 2
pairikciee deev
18 40
14 45
di mm
12 62
rv u
Ġ167772 16
Ġ2 000
lin es
de compress
ad apt
bgpd stroke
nu rb
check ss
n fa
12 53
Ġcmp xchg
12 94
Ġ1 98
alloc nodeis
toii emlb
allocnodeis ains
17 22
0 125
category ist
13 40
09 999
instruction s
Ġ4 000
ss id
dm ab
v y
13 75
12 65
rx e
baseiy st
16 87
big unsigned
Ġ20 1
cle ii
node n
av f
ijo x
iteratorixrxpx ec
14 55
t od
75 0000
ixx ns
Ġ* ${
13 57
12 365
vectoridsaidee ed
cell sais
parti cle
16 30
pl ug
iterator ilst
iteratorip leet
pairik mm
ep ys
Ġ@__ _
der ived
vectorimsaim eeees
12 72
132 5
m loop
76 15
14 00
Ġ2 19
15 29
75 00
lib mv
Ġ "*
ff t
pos ix
data os
14 49
qu ant
constructiy jrk
t k
read v
y u
Ġ2 18
fs i
recover y
constructiyjrk y
Ġ8 64
p lm
lo t
2 175
00000000 1
f ee
vectorimsaim eec
Ġ1 87
ot x
Ġ3 0000
m ail
base ilst
nodeij ieeevpst
watch ing
Ġ36 5
17 26
Ġf ree
inform ation
Ġ17 2
vec mat
15 55
nodee s
0 122
15 0000
14 86
Ġ838 86
ee as
13 68
iiie ssee
traitsis ain
100000 7
tupleijo xeec
16 24
check ui
check uc
5535 00
15 36
fill in
party sais
gs o
ex pi
12 96
bigint eonst
nodeiy ee
f ro
re start
ju dge
eras epst
toiie clerkis
g hook
po ssais
h table
13 97
pairikii eed
constructissjrk sseevpt
ejo xeec
re mainder
functor erst
15 05
capab ility
ex st
iiee pst
mo s
ssc sd
f ec
13 90
nodecl iieepst
allocatorile d
Ġ13 42
config ure
baseij saij
Ġ1 499
ai mc
eep cl
getlin eepcl
14 47
typ ed
sig ma
slot infostr
i avf
ag ain
pairikxx eedeev
ext ure
prag ma
stat eest
a mount
14 70
p ss
distance ipkst
i oaddr
vectorimsaim eeeplel
aimc en
cl ai
iel d
register ed
spar se
cam era
ix ns
14 77
h ift
Ġ4 194
f en
pairiyy esais
usb hs
13 04
iiiess esais
i ma
13 56
solv ee
s fl
vector itsait
ev f
pairiky iest
1469 12365
in exact
18 19
list en
async solution
strip e
pre calc
cxxneipk ssst
ph ase
aux ij
allow ed
pairikcieee ixeoc
no m
now n
15 14
l itb
t dpfs
15 49
pairiky cesais
td pf
op a
p erse
an rm
rint fp
ry th
bo se
ver bose
inplace i
16 26
j c
iteratoricrcp ce
x gene
list ice
pixel s
16 34
sqrt ixen
is ac
le dtcl
pairik di
ipo ib
ifin dex
15 50
mm evt
u char
Ġ1 42
14 11
17 47
e ffect
Ġ node
bas erks
13 70
node info
13 87
qu antum
800000000 00000000000
mar ker
w i
18 24
13 41
par a
kt ime
c ma
vectorijsaij eeee
pairikiieee sais
iocb q
14 74
parse context
epoch ev
16 29
scsd isc
13 06
7 134
22 86
14 60
eeeixe oi
destroyip y
ixe i
pairikicee ot
pairic cesais
ea ch
baseip ledtcl
15 59
vectorilsail eeemmev
serial ised
b fs
neigh bor
Ġ2 10
q com
spec ific
ixx eeee
bpose channel
34 23
eeeixe oc
Ġ5368709 12
moveirpf b
mail box
aipk ipiiet
16 35
iterclip sss
j bd
Ġ new
71 64
500 10
point ed
categoryipk ienst
13 88
ib dev
13 64
iterator cl
destroyip levt
destroyip leevt
baseeee est
0 127
ix s
struct s
ad f
18 79
sl f
m isc
check er
ceeev dpot
index valuepair
b py
r oad
u a
p ag
4 0000000
pol ar
le st
ssee pst
v q
base ifsaif
17 46
12 93
digit al
Ġ268 435
Ġ1 97
destroyip mmevt
g op
calc ulate
16 58
13 65
tra c
vectoricsaicee eplel
in line
rk isp
pairir iiest
nc y
pl us
19 20
c ar
gpi od
Ġ2 44
ap er
constructicj ceeevpt
itercl i
13 98
pro j
Ġ15 1
allocator ided
fin i
sen ate
ass er
14 06
g date
14 56
draw info
deeev rs
dequeiisaiiee d
hd sp
Ġ1 95
valclip xxeebt
tcl sr
cyph er
16 13
aux ijrk
tupleij i
Ġ2 45
m ant
17 23
vectoriisaiieee clerks
lessile sail
pairiiie met
pairiiie meet
pairiiie jeevpt
cons ole
str syl
15 44
drop ped
infint d
u data
pairikss besais
reas on
off s
row max
2 199
asser tion
nodeil ee
ps mouse
ill b
pairikssiee deev
particl es
siz es
bt f
cnt s
7 146
z m
24 25
scsd sc
gener ate
fc p
b pos
or dered
16 77
ee ps
dp a
yst em
qed i
17 27
ld q
pairikiiee neerks
Ġ1 91
pairii desais
ir d
sais a
lessime saist
e oc
miss ing
146912365 17
poll rec
16 32
d g
cxxeqipk ist
cal end
percent age
nodeclirk sseepst
14 68
o o
ii rip
pairixx eet
prfile desc
res a
qu at
ptr ins
b le
1 1000
17 32
i h
pkc m
ip i
h rt
nodeijrkssee epst
constructiljrkl eeevrs
json p
scss dssc
nod ers
pairik li
pairii best
base ixxns
xkb fff
str ateg
16 23
perse gtree
15 40
ed id
15 56
iteratorip kest
destroyil eevrs
ide nst
r trs
ind ices
p sr
14 13
0 124
swap idenst
18 22
cro ss
deallocateep jm
ik xs
15 47
15 67
eval u
listixsaixee d
greater iie
y ield
cipher text
14 87
14 08
ex change
28 58
4 100
Ġ33 554432
15 58
15 86
sge mm
ip ieet
ed ac
vectoribsaib eeeot
15 80
bf ad
aip iien
12 92
vectoriesai eeeec
buf s
ar ith
quot a
trouble sort
15 33
vec sais
ieee ixeos
18 28
c px
Ġ get
no ctor
126 30
internalmmapvector noctor
deps graph
n lp
ijoiej lm
ijoiej eeest
ex port
v addr
iteripfbiiee cl
cloc ks
pairixx ej
6 000
21 64
r ic
dep ende
coll ision
znsaiy ed
finder kc
ssee brkns
vectoricsaicee ept
sl fd
xy z
18 16
ut ex
vectorilsail eesais
slot s
flow i
17 28
pairi idee
access ip
w dt
15 89
destroyip m
17 24
kc sseebrkns
x eee
roll ing
irs o
13 82
greater iv
baseip jet
s fld
eeee eevt
xxx u
deleter ee
b nt
strlen first
ta ken
re qu
13 63
pairikll ee
cac hier
iterator ide
15 09
14 75
2 162
qt nf
a ac
ed itb
destroyip devt
destroyipd eevt
or char
key map
rece ive
13 72
part s
b q
en ic
e ast
Ġ1 85
auto v
14 07
13 43
loa ded
15 68
iteratoripk jst
iterator ixem
ss ds
15 10
iss ns
r en
iteratoriiee nst
st s
dequeiisaiiee ec
d oc
to ile
14 48
13 83
point eot
v en
13 76
do bject
14 96
sc dc
znsaiy ec
25 18
id er
widget info
infin tst
26 53
forwardi yeot
page fault
fre open
nodeijrk sseeevpst
comp sais
18 20
ej iee
d ual
17 37
sseeev dpot
2 102
ix el
destroy im
scsd is
bigint eec
16 37
nl msg
iiieiee ec
vf n
baseimsaim eed
erk y
pairikssx elb
13 53
virt queue
tupleij ieest
ejoiee rnst
s outh
edg eevent
Ġ1342 177
gpu obj
pairixx eeed
15 48
pairii riest
sen ator
15 08
Ġ2 39
fmt w
sm um
16 97
tupleijiiee sais
ls m
g mutex
is null
el ayer
m le
iiiee ns
14 10
pairikcieee ixers
baseip kcst
Ġ20 2
dmab uf
0 130
s ii
allocat ion
xx xx
nodee ot
ct lr
13 74
13 93
14 58
tupleij iicee
18 26
dequeiisaiiee c
14 50
g row
x widgetinfo
ss enst
fin t
15 07
Ġ} ],
editb one
17 45
17 20
17 35
comp ose
iiee rksait
( $
ee a
depende ncy
2 163
15 62
240 12630
iteratorixem mev
24012630 263
b med
typee st
ro le
Ġ2 36
node list
val eet
b ur
fl g
u red
28 84
pair sais
w as
y v
cp sw
hrt imer
1860 60
node d
15 69
shift ed
13 85
16 36
iterator ime
copyipk ipieet
log y
a ev
95 34
vectorixsaixeeee sb
to ijest
my struct
24012630263 186060
list ixe
iono bject
23 99
12 91
18 27
iiiee bec
14 43
baseiysaiy eed
k vec
z h
17 30
res id
rc min
tupleijoc eesb
znsai eed
s ll
b rot
epkc pcet
15 06
14 66
14 85
std ata
normal v
16 64
dtr syl
18 35
16 33
match in
13 92
max ev
formul a
swap ixx
swapixx enst
se p
15 21
150 3
18 32
b map
div is
sb d
ik icee
nam ed
st k
usb net
17 17
14 31
25 13
16 50
ij ielb
eo ijeert
moveirp xeonst
er ss
h bucket
dis pat
cl is
cpu freq
Ġ8589934 584
e iee
13 84
clerk ls
lessiye saiy
t multis
ic ient
rep e
tmultis olver
14 98
19 32
pairik css
iteripfbssssee eevt
ext er
iiee st
pf v
union find
multi map
Ġ1 94
vectorixsaixee ms
d ro
m ileept
swap ipxenst
cxxmiipc sseens
th rough
18 25
19 24
put exture
process or
oc rdma
tst amp
backerk l
mc p
z u
140 3
14 05
insert ipst
ay out
vm bus
iteratoripj es
16 38
17 25
vectoriysaiy eec
inter v
en coding
d ac
u sub
tr ot
o vl
Ġ *>
Ġ17 0
be at
f lex
static v
16 90
18 18
23 15
errno c
dm x
z lo
bt tv
400 1
17 39
fil p
vm ci
cm ds
cp lx
pairikssiee clerks
14 63
gener ator
vectorijsaij eed
pairikll elb
vectoriisaiiee js
forwardio ceot
5555 5555
Ġ268435 456
zlo me
nodeii epst
has hile
ead y
loop ipst
runt imev
bb pkc
vectorilsailee eeet
Ġ3 12
comp r
15 84
15 46
18 29
0 128
impl function
verify implfunction
bbpkc iib
verifyimplfunction bbpkciib
am t
free n
vectoriisaiiee ens
sf ifi
19 25
vectorixsaixeeee eplel
0 129
map s
14 42
14 41
ii le
Ġ2 17
ij lm
valik x
cs struct
16 384
rect sais
memp s
eq ue
p io
iisaiiee brkst
af ter
str ide
code d
neigh bo
maximumweightedmatching iile
b relse
nv bios
g putexture
ks z
cxxmiip mst
ext ended
pairikx iens
s ound
re add
bu dget
15 90
19 38
view layer
eeee eplel
14 62
25 20
p addr
cond thread
pairiss ies
resultiss eens
Ġ15 4
vectorisssaisseeee lns
listiisaiiee c
tin y
pairisssse sais
begin eert
13 96
iiee rs
lessicesaic eeee
base ice
pairiiiee ept
p ull
14 84
Ġ15 3
Ġ2 22
17 34
2 205
iteratoriy ec
15 11
gcd iiet
m deform
Ġ1000000000 000000000
sur ve
x r
vectoriesai eees
gt t
msg s
testcas esais
pack age
pair st
point es
Ġ1 81
wm event
ixe ox
}, {
bas erkss
threa ded
15 42
ip ks
sh uf
dt v
pairiee eee
Ġ17 3
nc i
st eady
end eert
o stringstreamicst
p pos
Ġ15 8
compar ator
13 71
iiiee eee
eeee pf
06 2500
937 500
bigint lterks
58 7500
pairid ieee
15 97
26 11
fab ric
stat ee
13 51
reg a
zer os
t ex
ixxex ee
19 21
calend ar
ee rst
ss ub
draw ing
mir ror
gmarkup parsecontext
big dec
topo logy
Ġ1 82
vectorijsaij eeees
is w
dow ns
re gt
67 13
v dec
vectorijsaij eeeplel
18 23
vectoriisaiieeee ot
Ġ2 592
h if
irk sspmi
sto irksspmi
par ms
13 54
17 29
vectoriisaiiee met
vectoriisaiiee meet
vectoriisaiiee jeevpt
loop back
p acked
Ġ16 5
z ip
x pc
robo ts
Ġ cpumask
mt ochar
antu mtochar
context s
time zon
if e
erasee rki
cas o
u ill
me mpt
orchar d
t as
cxxneip kcsseebrkns
reg h
Ġ15 9
pairikicee edtclsr
replace ment
di gest
t subst
memp a
memp h
14 78
sp k
pc pip
aip ds
i ot
l q
u mem
14 51
cl on
18 00
ix gb
13 91
19 19
15 60
mx aapq
max c
sr and
bur st
i rec
Ġ16 2
15 12
ik x
16 39
15 78
pairikc bee
14 95
pairik jj
pairikiieee ixeoi
p sp
nodeix ers
vectoriysaiy eeeppev
ii j
nipdm det
Ġ100 1
to m
iteratorixrxpx e
constructissj sseeevpt
rot ation
19 35
vectoridsaideeeep det
shr ink
moveirpf bst
14 53
b ers
ad de
14 76
e ss
iteratori clb
17 49
14 97
18 30
lessime saim
val ikc
code jam
neighbo ur
ej pnst
rc max
in i
25 19
8 250
tr k
15 98
lm an
bel lman
co up
17 44
part id
chan ctx
qe de
0 126
ar ct
construct ilj
complex ieesais
iteratoripkc sse
pairiex est
sd fl
traitsic el
i isse
13 61
bellman for
ik ss
sign sais
13 81
zns ain
pairikiiee ppev
pairikssiee eqerks
w eb
c vote
18 37
distribution ime
descr iption
10 100
16 56
ju g
cl est
pairinne sais
g pollrec
n fails
cxxeqip ssst
cro s
d frame
21 12
fiel ds
h it
li ve
vectorijsaij eeec
expr ia
16 71
pairikmc eee
22 80
r g
v or
17 19
9 170
16 88
sf dl
wa ff
s mul
25 47
k n
ld vt
deque icsaic
pie c
spec ial
25 35
check v
prep ared
ld w
x elb
ali ve
backeo ss
end ist
ed a
q j
ad min
init sc
iteratoripcss eeee
error v
16 57
b one
19 27
Ġ15 5
vectoricsaicee evt
r map
15 70
r dt
id t
Ġ16 9
Ġ36 6
l kb
cal cs
scan fpkcz
pairiix es
ll c
14 65
back end
cxxeqip kst
oc c
17 36
Ġ6 36
jrk m
constructim jrkm
drawing wand
isw rot
iiiee rs
iteratoripkc ssee
sd lf
sld f
nodeiy eee
znsai piec
memcmp pkvs
ignor e
c ab
u rem
dp det
allocatorip iec
p ic
construct idj
pairikcc eeee
14 90
16 81
numb ero
semaphore info
mis dn
begin ist
allocatorip ied
cor ner
unicode set
g ing
sie ve
19 68
15 79
18 86
b loc
15 99
iteratorip ls
functionifb ii
iiiee ed
reference d
19 00
15 04
cp kcz
in es
iteripfb ii
tupleijiiiee e
co ef
16 69
s fp
iteratoripk xs
pairikxxee clerks
xen bus
18 64
f j
15 13
e clist
u control
mem block
bon d
Ġ tree
vectoricsaic eeeot
process lib
tiny processlib
dla mch
14 54
ll ns
vectorilsaileeee llns
k ung
Ġ2 58
foop and
kung foopand
un ip
18 34
stat ion
2 101
19 36
face t
eeees f
q item
suc cess
vectorisssaisseeee eebrt
us ll
2 203
Ġde v
19 22
toixe saixee
15 96
pairi xst
plan es
19 28
iee rs
d an
backij ceeevdpot
node idee
bigint ec
140 2
inserter kss
n sec
pairikss ied
m ideept
checks d
iiieiee ed
** **
Ġ30 4
t or
medi ate
sg n
iteratorip z
pf c
sla mch
ad cq
state id
c pt
19 29
re map
18 38
face sais
zsteq ist
resource info
ne ural
19 37
traitsiceec vbev
16 07
14 73
frame info
n at
14 94
26 84
baseip pxet
el st
16 807
chec ke
destroyil eevpt
maxflow dinic
17 57
h fc
64 60
bip sss
ra mp
g key
Ġ alt
initializeipk ieevt
i an
Ġ1000 1
band width
k settings
Ġ655 37
comp uter
a app
pairix cest
vectoridsaidee eppev
mp ort
nu ma
no trot
saidee t
u lo
tp s
Ġ46 60
Ġ release
17 14
zge mm
13 94
Ġ16 6
urn aa
iiiee aseos
cor rect
Ġ16 3
c if
13 73
backward ipst
n q
tr im
checks i
21 32
vo ice
15 31
waff le
lessicesaicee s
cge mm
eev pst
16 10
15 51
prim ary
18 17
check ssc
smum gr
un ix
iteratorile c
16 79
typ esais
sto ai
15 54
pc dp
checks is
checksc si
tupleijoxee sb
16 08
cn tr
point n
f write
ct pop
construct ij
gvarianttype info
ifstream icst
Ġ1 93
sp rintfp
67 93
deleter ev
f curve
13 66
pairikicee ppev
vectorijsaij eeeebrkns
l err
bvh tree
pairixx ens
forwardir deot
break pad
min x
ple t
16 85
divis or
constructilj l
deque ixsaix
18 99
rw sem
gkey file
w pan
Ġ2 51
rm q
tupleijxxxee sais
sprintfp cpkcz
2 103
15 65
index es
sr v
as est
pc fp
ac cept
Ġ92233720368547 757
614 89
g ot
if ied
19 26
vectorifsaif ee
15 92
sc mi
ixx eb
cl amp
Ġ1 83
u cs
p key
g i
destroy ipn
lib ipw
16 70
ho ge
g au
node ic
dat o
63 64
15 95
10 1000
ind io
complexide s
coeff icient
str ong
pairik n
18 47
solvev enk
vectoribsaib eeevpt
16 12
checksc is
19 34
do tc
iy saiy
pv im
en g
400 5
mult icast
all o
mip ieept
clai m
pp k
fat al
certc ertificatestr
15 61
v ga
16 31
14 83
backwardip pis
bip ieept
m sp
vectoribsaibee eevt
bigint cst
2 186
vectoriisaiieeee ens
tage saic
0 134
r cond
150 2
164 8
se ge
lessiee sai
15 43
var s
input stream
18 49
solve ie
16 09
traitsicee d
Ġ83886 08
updat eens
mp ol
Ġ2 34
memset pvim
14 61
bmed it
cl ev
ceeev n
nodeil eee
pairix ieaseos
count iln
iiiee es
quar a
mac sec
2 115
g fp
h uff
]* ),
71 10
destroyip eeevt
multip leentry
punto s
pairic iee
15 93
15 85
Ġ11 585
14 04
our cel
Ġ17 1
greater ii
mid point
ed ata
Ġ20 5
baseip eet
vectorisssaissee s
cpu s
v sc
19 18
Ġ6 23
rs c
2 147
helper iist
33 34
h wr
0000000000 08
pairikssb eeee
fillip iievt
sc or
Ġ8 00
pairiiiee ernst
point et
p es
sortip ln
16 21
22 20
vectoriisaiieeee d
cl nt
16 55
20 57
check i
input s
syn th
as oc
19 40
v nt
transl ate
cler x
chun ks
al e
znsolse j
of s
il enst
136 22
identityixe clerx
s vd
15 66
max d
job z
insertij rkc
allocator ij
24 29
swap ilenst
160 2
masks el
ss q
vectoridsaidee eeet
quad rat
expr list
15 76
ixx eelb
ca ke
ant i
fl uid
Ġ2 23
im eerksait
ai a
error ii
tupleij iiii
integr ity
18 36
sa ms
128 455
Ġ2 49
sl ab
Ġ17 8
29 42
Ġ17 9
16 67
and le
16 59
16 78
Ġ17 7
sams ung
eed it
eees g
pairikxiee ee
691 128455
surve y
r as
tr eg
tr ieest
Ġ864 691128455
base d
61489 14691236517
al c
18 45
Ġ2 96
m saicee
16 05
pairikx ssee
tr imev
hash tab
vectorixsaixeee s
iteratorix erblb
referenceis a
irq s
o mp
Ġ864691128455 1352
iiiee eec
16 60
pairill eee
pairi ke
insertijrkc eeevn
w k
vectoriisaiiee enst
Ġ2 37
ded tcl
Ġ8646911284551352 320
mem base
x py
pairiyy est
allocatoriy ec
h ex
ish tp
17 00
ex lb
Ġ1 498
deallocateep em
pq i
17 38
mapim cst
14 92
15 94
ap a
baseip pcet
exp and
18 57
16 04
bt coexist
17 48
vectoriesai eeec
solution sais
pairikxcee d
vectorisssaisseeee evt
lessile clerkls
x log
17 33
def s
g on
m est
17 56
gpuvert buf
imsaim eesais
Ġ1 497
eeeee brkst
pair issst
mple x
Ġ ve
gu id
imp oss
shr unk
p ing
edg eee
zo mplex
el ink
if a
then tic
k ind
sqrt e
tmp value
Ġ2 13
Ġ2 47
ax is
17 21
greaterix esais
ss ed
Ġ2 92
pairiiiee clers
400 921
ven us
17 40
164 2
forwardio xeot
17 59
sat ur
as aia
500 5
b eeec
iteripf is
Ġ16 71
checks cd
iirip iebrkst
pairiky ceec
pairie iee
pairikiiee ot
15 41
f db
value c
eras eerks
px a
Ġ17 5
0 140
2 125
e w
c state
qu irks
Ġ2 46
17 55
int v
pairiss iee
17 76
14 01
lo quat
irk xns
pairid dec
ikicee rs
lat ency
Ġ2 86
it v
cxxneip yst
tree link
rf kill
hashile st
pairikicee mmev
hashix ecl
hashixecl ex
th rot
option al
" (
to list
edg ee
cxxneip dst
mle i
hwr m
el en
21 13
membuf iye
trc mod
ed ma
vectorixsaixee ept
"*)* *,
sr cu
l eeevn
17 67
deque ue
trans mit
tupleijxx xx
th ird
forwardirk deot
col max
capab ilities
22 21
ij p
future issesais
18 39
19 30
pairiiie jeert
16 7772
15 01
lp c
checks ld
z tr
17 66
se cs
ma z
config uration
io map
c iph
16 89
may be
sec key
mapix bst
x kc
znsirser e
v iv
test its
< >,
ic it
ssm pns
rc ar
compare ilb
i ptr
stis b
g array
t ie
n av
new last
mod ulo
iteratoripcss eeec
call frameinfo
9999 9999
pairijj esais
change s
v n
j an
384 6793
13622 3846793
136223846793 005
b elb
sub scr
pairikxxee eqerks
0 133
t eam
inserter kc
ssee ot
u min
15 77
particles ystem
nip y
n lm
eee clerks
ee eeeot
q c
er nt
iiie cest
Ġ167772 15
less il
me chan
h old
y es
16 06
che trf
19 47
im pns
emrk ss
15 53
heapip ssn
inc x
pairin nest
u ci
vectoriesaieeee deev
isdigit tmp
f ll
17 77
ho o
pairikc cec
ep ort
k om
Ġ weak
15 87
18 48
17 64
resa mpler
17 58
less erks
18 89
pairikxiee ed
l ies
Ġ20 7
2 126
comple ted
bignum sais
dev freq
macroblock d
baseifsaif ee
ke k
iti ve
satur ate
tupleij ol
pat hs
sig ne
dup lex
on a
it est
15 75
gue st
cxg bi
reverse ip
node t
ii eeevdpot
_ **
23 885
u add
return address
lan e
15 72
14 72
pairikx beee
2 201
dis pc
append image
17 50
14 52
sais b
color space
han nel
insertij ceeevn
16 99
17 69
27 55
1000 50
insertij r
poly gon
pairi j
264 5
g ss
pairixxem s
vectoriisaiiee eeeot
18 90
Ġ2 53
need s
23 42
164 1
pairikciee clerks
ind x
vectorimsaim eeeppev
17 16
19 49
w est
clone imageinfo
0 137
Ġ17 4
l vl
as p
selftest l
mechan ism
19 66
sf i
ut s
us leep
test it
tr iest
pairikssbee ed
8 0000000
fil led
pairiee eeonst
n im
pr ops
17 43
are st
compose d
d id
nssc km
15 73
str dup
24 26
tree ieest
vectoribsaibee jrks
cook ies
amp du
requ i
17 86
downs hift
19 55
iterator idst
iteratorip deet
baseimsaim eec
wa com
lessisse sai
bl kc
18 33
cdf context
f al
15 74
vectoriisaiieeee st
d copy
18 21
Ġbt sq
pairixx ers
es d
p iii
19 33
75 230
18 70
eth er
pairikyy est
node illb
greater idee
pub lic
move sais
compress ed
0 135
gam ma
h ar
tree nodesais
15 52
16 11
pun kt
s ic
ev er
iteratoriie s
dsp oint
kom eda
ation s
mapic bst
g push
28 41
auxijrk ieeevdpot
25 0000
forwardir leot
membuf ile
bgp dspoint
g ioc
19 64
21 16
vectoriisaiieeee edeev
Ġ32 9
164 0
instance str
18 88
copyip p
overr ide
Ġ{ }
19 44
baseip lst
iterclip ls
> ]*
ic m
imposs ible
21 10
baseip dedtcl
pairixxe aserks
6460 75230
el ot
sub system
init uc
gioc hannel
k ick
ee eqerks
oc elot
iteratorice mmev
me tr
inser terks
18 96
maximum flow
b vec
u converter
19 23
gpush ader
ur i
Ġ20 3
0 139
allocator ipx
identitycl ir
Ġ nand
tp f
format s
e y
x v
16 96
id jrk
construct idjrk
net xen
iiieiee deev
Ġ4194 304
z rs
ppt able
c sytrf
x enst
basei pn
19 17
greaterix eeclins
sw ait
arg p
** *,
14 81
Ġ2 35
decode d
0 131
an ager
Ġ2 38
impl ins
26 55
dev num
Ġ1671 1680
str ll
for k
u error
al arm
frame fmt
appendimage tolist
vo p
diag no
16 68
pt t
nodeim lb
n bytes
t sc
800000000 000000
pairixx exst
identity i
ime zone
Ġ{} **
sr am
100 500
ofstream icst
2 176
shad ing
jug gl
d isse
partid o
14 93
ch ang
ch nl
manager inst
log ging
so il
grap hs
xl gmac
16 51
pr lock
ated ata
c vt
m cs
15 71
r endev
gp ub
com bin
2 134
16 54
15 81
pairidd ees
g lock
nodeij r
i stringstreamicst
te std
biginteger st
categoryerks a
r ht
ens ured
znsai eec
d j
f q
tc ase
le ad
16 53
23 16
chk elst
support v
19 67
string info
congru ence
u cll
factor y
z alloc
ieee ixers
st ype
pairikll eee
74 38
b sg
17 70
eee bec
tab la
candidate s
16 84
17 97
pairiiie jrks
164 9
blkc g
be t
scr atch
y eeeot
r lp
tree info
list ide
iiie ie
pairikcc eeed
ire ction
enum ber
iteripfbxx eeeevt
atter y
i u
21 17
2 122
is ub
17 09
mo b
dv erks
su ms
viv id
a j
zlome k
strateg y
pairiisse d
ve ulve
command s
or s
Ġ39 6
lo gin
m cu
19 50
vectorixsaix eeeot
ss se
sub string
vectorisssaisseee miel
tar jan
ve l
backwardip pst
bgpd frame
scalequ antumtochar
00 02
pairiiie cst
pairikli elb
pairikd dest
b attery
17 11
nc ase
15 82
hash st
f otg
160 3
27 28
qu irk
add rs
2 129
c ant
sho uld
wal ker
16 75
if r
s count
Ġ20 6
il le
char ger
clerk ys
444 80
Ġ11529215046068469 76
im eens
iiiiiiiiiiiiiiii iiiiiiiiiiiiiiii
17 80
baseipk xet
quadrat ic
vectoriisaiieeee ed
st sais
14 91
pairiky cens
ph andle
ixe j
26 96
nod eeec
2 206
19 45
2 114
nodeii epks
lessieesai eee
17 68
17 13
place holder
6 0000000
Ġ1342177 28
Ġ2 43
lr a
less idee
0 145
2 119
max wrk
cub eb
19 57
checks f
product s
0 136
164 7
gp a
lw k
ps i
cxxneipk ist
pairikl ceec
us i
iee eesais
h b
cl oth
12 698
18 13
28 64
164 3
gener ation
result iv
et ch
threade veulve
assignem rki
sil k
u code
py ram
id p
18 50
pixel index
re loc
person s
le f
mq d
t ec
pr st
130 43
pt c
one g
pairid ieaseos
det ach
k thread
im mediate
i cmp
k eep
bmedit mesh
eeeis b
check ii
seg st
phys ical
cu ad
vectorijsaij eec
y uv
17 79
Ġ4 20
bgp data
ii ept
17 15
se cu
iee eps
go al
Ġ4 0000
vectoriisaiieeee deev
107 37418
2 128
region s
Ġ2 21
valipfb st
pairidd eed
508 48
2 124
hs a
bgpd layer
activ ate
ek ic
getik icee
19 59
Ġ20 9
format locale
unip hier
Ġs cal
writ ten
Ġ2 14
dir ent
ctxt data
sp ot
b nrm
stream ing
ad sp
18 59
16 66
646075230 3423
18 55
cxxmiip jst
minim erkt
data eonst
2404 352
2884 50848
disse ctor
288450848 2404352
init us
tupleij ris
pl u
lar gest
baseiysaiy eec
19 95
a er
15 91
aux ipkis
bvector st
image command
w cn
ul p
19 58
25 36
aut oneg
id property
addressof iiept
mapic p
bl ks
19 48
enet c
18 09
pairik js
min y
vh ub
eeeixe os
j ii
19 46
hashtable imst
compare in
_( {
lessicesaic eeec
ex pf
2 118
Ġ99 99
q td
kst ep
ver ifier
my class
minimum epst
18 46
18 67
pr clist
num sais
itercl issns
b point
maximum epst
ss esais
Ġ1000000000 0
ss eeec
2 130
w x
sub v
22 34
Ġ4 48
pairill eec
18 87
mm al
prclist str
17 89
test ve
pairiki besais
uerror code
us ers
pairikl iee
leve ls
Ġ2 33
f eed
ef a
tagesaic eees
ill m
inplace in
d mi
pairiiie bst
88 21
ad a
znsaij ed
dequeicsaic eee
18 75
tupleijrkl eeeot
e jj
iiii ii
diagno st
bigint mlei
back ing
damage ss
mat ure
or b
f y
v bi
Ġ4 99
pm c
447 34
711 12
cred its
fc port
0 138
Ġ6 63
qed r
16 86
ne arest
anim data
msaicee ens
l eec
nv dimm
2 123
ref s
b dc
iee eelb
str es
em eet
18 78
identity ieest
59 240
1000 100
16 98
14 71
frag s
gpub atch
20 28
point d
hig hest
18 31
1000 04
checks cs
checks ci
s ex
s ome
pairiicee c
constructiljrkl eeevpt
us l
aux ijs
wil c
ip roc
18 68
059 98
iteripfbr st
insert eox
c metal
1564 2858
12698 44480
15642858 88
f ops
ssee bt
cc b
un iv
17 08
Ġ28 80
dens elayer
f man
Ġ33 6
irection al
p dv
rang ee
16 52
valipfb s
iteratoripkcss eeesais
aipy s
22 00
tc am
ss es
mar ked
st st
ge d
23 77
solve st
zsteq iiiebrkst
2 127
bl it
1583 13
es ize
phy link
detailne ist
no der
jj evt
stat est
copyip ms
z sytrf
174 34
h ul
vectoricsaicee st
iteratoripcss ec
Ġ2 11
fin is
dm ar
nodeim ee
24 10
iy eept
6148914691236517 205
447 59240
820 2884508482404352
1099 05998
1844 44734
6364 136223846793005
13043 109905998
44759240 704
184444734 44759240704
13043109905998 158313
ns c
18 58
origin al
bigint plerks
iteratoriple c
rule s
sys ctl
t ub
2 133
24 18
r ename
video buf
pg d
valik ce
2 120
19 70
re tries
bot tom
zhe trf
solve b
zsteq in
v blank
bid irectional
calc ul
modint ilj
constructiijr ieeevrs
17 75
less iieeeevt
iteratorice pst
m gs
vectorixsaixee evt
bigint mierks
node ip
spac elink
sculpt session
cxxneip mst
auth or
19 86
method s
j y
dis connect
pairikxx eeeot
tt dpfs
tt dpf
map ij
itercl ipkis
buffer isse
possib ilit
d scal
16 74
19 99
tub ao
u context
sp dif
t fraction
pairix ieec
eeed tcldtfp
16 94
pairikii eees
ar a
19 41
it es
lat ion
28 75
demod ulator
get pixelalpha
q xl
et nav
pairikssb eeec
etnav iv
h fa
17 65
17 88
rang ell
ssc al
ep c
nu mo
face s
at io
pairikxiee ec
kungfoopand a
or ph
ch a
block sais
err max
party s
19 09
22 15
28 74
iteratoris scst
l is
Ġ2 70
ap v
destroyip jjevt
iss lb
,= *
17 96
mask spl
e ctor
string x
component s
un link
17 10
n it
pairiiiee neerks
possibilit ie
log type
aligne dest
18 69
Ġ2 66
v node
pairikciee eqerks
irkc ns
en cap
pc x
lessix ee
pairic ies
it nim
base sc
2 108
n ents
pairim mes
cl ec
20 34
map a
priv atedata
22 55
dee evpt
f nic
__ _
2 174
ptr rgb
bswap q
c star
no ise
u uid
0 147
19 84
17 42
wm anager
2 121
ro an
18 77
19 89
m ci
164 4
pairikssiee eot
gener al
18 12
20 49
play back
23 38
su mer
un ref
lwk opt
vm cb
tx power
k y
tupleij lll
2 10000
23 19
cee ed
0 144
c ff
inst all
ac gv
infin tc
dd c
uil ayout
z p
anal og
iteratoril rlp
tun e
sd s
20 24
sh are
23 04
sr p
comb ine
ij ns
esw itch
16 65
19 98
164 6
accessip z
con sumer
pairikib eec
19 10
gr een
2 104
m ss
1479 27
16 73
ref resh
u object
ai o
18 08
lon gnum
gam eport
to iye
0 10000
d z
lon gest
pair iff
list elem
Ġ40 2653
user def
pairikciee esais
tt on
ed n
cxxltip lst
g gc
pairikiiee edtclsr
pairikc beee
Ġ15 37
tupleijo sseeeot
tupleijiiiee ee
23 44
bignu ms
se ct
baseil n
19 56
_( [
22 17
maximum eps
minimum eps
147927 17434
le ment
chunk link
l eev
23 98
2 135
tr b
18 73
wm window
delete ist
Ġ11529215046068469 74
e map
sink i
230 376
t vector
si ve
230376 1517
best y
normal ize
insert is
27 43
emplace ij
control s
z gv
iteratorix eppei
3333 3333
mul v
0 146
ran gep
tupleijd prt
2 105
google codejam
lessicesaic eee
ourcel oc
17 31
hash node
itercl il
solvee ve
equ iv
z ong
al ter
rece ived
banim listelem
m ader
pairikss ceee
valik ieeet
mader a
bss id
vectorixsaixeeeee brkst
pairii xee
2 173
mp tcp
hi sto
il sailee
nodee lb
rad ix
lin ux
Ġ922337203685477580 4
select ed
l ag
v ict
bu tton
2 111
m inc
18 14
l ut
ab ility
nc si
iteripfbrk is
mpol y
22 13
saiy eet
22 72
34 60
iy lm
220 587
Ġ2880 220587
tool settings
g us
13 1072
half pyram
coup le
Ġ2 74
tupleijxx xxx
7 601
19 80
Ġfree ze
6 0000
14 82
desc s
lb s
function s
ge tr
xkb ffe
m tr
z copy
ant s
v dc
ixxe iesais
pair ieee
ident ifier
iss eeot
rpc rdma
clust ers
iteripfbiiee clins
min cost
ixx eeec
pairiiiel s
ee eps
nodeij xeeepst
bin clos
v pi
recur sive
al rm
ee ernst
19 54
g checksum
char matcher
category ipienst
j est
pla int
s ad
17 90
au thentic
19 69
26 97
ixx est
checks cf
checks cld
destroyid eevrs
qu ick
Ġ402653 184
v ases
mac b
horse st
19 60
backij ris
backij sseeevdpot
l ab
16 01
cook iesais
25 26
Ġ4 80
23 64
che d
eeee ssec
war p
iteratorice ppev
18 15
aa aa
fall back
> ],
in fl
iteratorissrssp ssec
manage d
18 06
po z
ept ev
pairikiiee mmev
cons ume
2 131
ht tp
nodeij e
0 141
16 83
bas eneerks
pairikss celb
niplm let
nodeic ers
18 94
f utex
par all
sol veev
dequeixsaix eee
0 142
23 78
b err
39 18
x array
p ins
iiieiee clerks
znsaij ec
vectorixsaixeee onst
iiii xx
nodeij xeeevpst
magick cli
ar iz
Ġ18 12433253
huff man
ariz ona
a res
nv ram
iteratorisse deev
ee eev
210 52
pairiice aseos
26 22
dec m
45 49
pairikcc eeec
zd apv
constructissj r
pairii xest
mapii xst
2303761517 117
vict im
end thread
fs notify
iteratoriiep iet
cl t
fin decm
ul ong
m ind
nip mm
encrypt ed
sound touch
b constraint
i ic
sh m
164 5
ciph ers
q id
ix eepst
rt s
pairixxee neerks
nodecl ixeepst
x id
ad m
fr am
hd l
greaterixe saixee
al tern
tree iest
17 78
25 16
multip lic
Ġ8 000
Ġ214748364 8
2 141
ep js
best x
rational st
functionif v
pairikmc elb
29 73
a ctor
set image
q element
eeev rt
zsteq iiripiebrkst
sub s
timezon er
greater il
sm sc
rele as
pairiiss ee
issais eesais
kev ent
w dev
table s
17 04
g ran
>> >>>::_
z g
ee enst
rt attr
lin est
16 82
tupleij eeee
cub ic
block context
event st
checke m
ref era
17 98
matr ox
24 28
ior emap
sis usb
tupleij eeeee
pos st
18 07
forwardir meot
e pn
s copy
16 92
my map
checks cc
22 32
exec ute
xwindow info
r hy
is eed
ac ci
sw it
pairikxcee ot
pairic ces
vec it
*)* *,
nssckm d
d pr
19 78
mic a
ffff ffff
16 91
init ui
stack icst
checks cl
checks cll
z dotc
18 54
pre di
la mb
ijocej lm
ijocej eeest
4 0000
r pm
less ieesais
destroyiy eevrs
movie clip
25 79
destroyip j
Ġ15 36
use c
diagnost ic
17 05
test impl
24 19
valikce clins
iteratorip ees
327 63
vdd c
vx lan
18 65
pairiiieee clins
q sort
iee eee
ej p
re composed
dt ile
Ġ13 7438
30 37
cx gb
gr ctx
cas eno
tupleijiiee st
19 13
88 88
pairikl cesais
w yn
if st
17 06
flow edge
pairix cesais
17 83
2 198
toicesaicee sais
)** *
mes on
tok ens
18 66
Ġ2 69
25 80
ixx ec
22 30
22 36
lp p
e iesais
term ios
p du
matche s
Ġ137438 9534
lp f
cc v
cc dc
snap shot
ex cl
lamb da
x resourceinfo
30 46
18 76
tupleijrk yeeeot
cycl ic
9 00000
17 07
175 29
nodeisse pst
f attr
18 85
g scanner
t nr
pairik ls
tupleijiiiiee st
ik iieers
027 64
18 53
k nown
vectoriisaiieeed tcldtfp
s nic
od ds
memory buffer
17 51
lessiye clerkys
ej ii
wa its
pairixxe met
pairixxem eet
pairixxej eevpt
iiieiee eqerks
toice saic
multiplic ation
a cr
18 74
vec s
plaint ext
ss elb
extension s
c rb
vectorixsaixeeeee sa
eeee z
biiee onst
aipcm cet
kc hip
roc kchip
16 95
net lbl
stack entry
cl ks
roc ker
mdeform vert
max n
ens ure
dma engine
tie ij
univ erse
Ġ20 47
Ġ32 8
insertij sseeevn
Ġ2 77
Ġ35 2
17 61
17 85
pairii cec
tupleij ceest
ejrk lee
ejocee rnst
timezoner ule
2 137
c copy
id a
bloc ke
g nt
20 47
pairikxb elb
v ring
20 32
Ġ57 6460752303423
728 09
bellmanfor d
li minator
foo ii
ure liminator
Ġ65 280
sch ureliminator
iteratoripk sss
nex th
24 20
moveirpf biieeonst
operator esais
fal con
18 84
vectoriisaiiee ist
complex ix
18 05
ep fb
cho ose
ps n
2286 72809
228672809 129
ssy trf
zl s
counter ki
iteripfbiiee ens
con quer
19 52
hs w
19 31
to l
22 29
yy y
iiiec eee
on acci
k hz
dsa f
e ij
point esais
job v
2 139
2 157
18 43
mapi issst
0 143
16 76
action s
e ulve
19 14
greater iieec
ice sais
38 17
tr iesais
od m
pairidx esais
parent s
p int
t atom
89 408
pairic xesais
655 38
moveirp sseonst
stu d
iteratoric erblb
18 97
iteratoripkcss eppev
erk llb
object id
hash ensc
hashing ensc
policy ensc
swapip ssenst
bigint eg
co p
dp aa
vectorisssaisseeee sseebt
200 3
bi as
rational s
e dev
gr w
19 97
Ġ2 41
array ist
to s
19 77
Ġ error
session str
k ee
vectorisssaisseeeep sssset
det ai
m ore
set error
vot es
solv ing
sw iz
multiset ist
forwardi jeot
s mac
iteratorisse pst
distribution ixe
xh lpp
p bl
ache d
q at
s ev
report list
iiiiiiii i
st ick
ro un
per c
iteratorii eet
aa qq
init i
constructiyjrky eeevrs
w mm
pairi ls
200 2
iteripfbiieecl ipis
iteratoripkcss edeev
Ġs et
ij celb
Ġ32 4
vectoriysaiy eeet
exponent ial
eoc jeert
bl f
mip kst
Ġ2 42
tr ail
ji an
17 41
map epp
18 10
22 18
iteripfb ddee
ab i
ker n
greateriiee clins
0 149
200 01
tupleij dddee
20000 1
e aseos
g z
g lx
pairikss xeec
Ġ2 89
23 63
request ed
pai re
sb i
23 47
transl ator
17529 02764
pf b
d vo
ev ens
ag c
ag ent
ldwrk u
s vm
pairic cee
26 10
cc k
aip ms
rx lb
Ġ2 67
opt abs
eeeesseesais g
2 145
17 62
function rna
334 89408
fib onacci
nodeim eee
sym keystr
17 73
ix cee
1752902764 108
cap able
sel ector
finis hed
z swap
guarded allocator
19 88
l ers
vectorixsaixee eees
initializeem rk
bt aligne
btaligne dobject
dec im
pairikl ceeee
pointer erkst
bl ue
dp ll
iiss eesais
015 5
in ux
Ġ2 78
23 39
23 45
reg j
partition ipst
en tr
l arg
p df
sp eex
167772 16
Ġ1537 228672809129
ev http
19 79
Ġ32 513
Ġ69 1752902764108
sta mp
int s
20 21
015 8
memp j
2 109
17 53
back log
attach ment
as er
Ġin it
pairik ms
regi str
2 144
dma c
memp i
Ġ1048 575
destroy ij
48 50
Ġ288 2303761517117
s on
nodeiy lb
str ass
pairik idest
24 56
ra me
lessissesaissee est
sig ns
18 11
26 57
memory p
t testcase
dm z
20 17
assign ment
strass ens
dir s
2 202
n nb
init ev
forwardirk jeot
pairik mst
bases f
so lo
reg base
y res
pairixiee ot
swapp ed
25 55
264 6
destroy i
t j
spl ice
array illm
ns comp
deeev n
d pc
17 87
2 142
b locked
n k
fl en
point est
1048 576
cd rom
pivot ipst
st mt
17 54
iteratorip ds
coded inputstream
h um
x j
a km
port id
open subdiv
c met
m eec
asc ii
19 43
Ġ4 40
dm d
y p
16 93
24 22
dat ab
bin base
sl ar
problem sais
getik x
vert ices
deque ilsailee
vectorilsail ees
60 70
1234 56
32 16
br st
add v
un less
hash er
ther m
iteratoricrcp cec
2 165
hashiy est
19 90
chi st
baseijsaij eed
27 81
destroyip p
pairiiiee est
23 33
sol d
pairiee eec
mob ile
2 140
20 99
20 68
m ce
z node
fl av
17 95
flow graph
g iv
Ġ4 16
fs crypt
e ig
j fs
x res
iiiee eed
dv s
hwm on
info st
sel inux
vectorisssaisseeeep sset
vectorisssaisseeeep sseet
pairikxcee ppev
pairir xs
22 23
17 63
Ġ691752902764108 1856
b di
ss css
solv erkst
curve mapping
binary heap
dl ar
j w
x calloc
ic ceest
tw l
blk no
detail s
cr a
rect st
ng ev
tmultisolver i
7 000
cmp st
ss wap
vectoricsaicee evpt
seq no
ts ourceloc
18 41
b key
iiiee eevt
initialize ipks
numer ic
o op
19 15
pbvh node
pairil iest
09 00
20 16
pairikx iec
zstlt in
18 93
ver y
19 75
rs b
li ma
baseiesai eeed
ad t
infint sais
iteratorisse mmev
iteratorime c
16 62
17 94
ixxe bee
pairikiss elb
n cr
sp rd
pairikj celb
z le
node id
gas ket
stack i
q pn
for each
v path
vectoridsaid eeemmev
pairikcx eec
moveirp ceonst
ma de
Ġ2 76
ht ab
Ġ14 28
nodeij lb
bint s
25 68
16 63
queue issst
vectoricsaicee eevt
molecule st
alter a
18 83
19 96
l cm
wr ong
backward ist
saim eet
ee k
23 34
015 7
pairikssb ens
set pixelalpha
lessiiee onst
w ifi
18 42
210 53
shot s
p ick
18 95
40 30
erky lb
cr aid
015 3
sw allow
u mp
mole cul
program s
18 98
for war
ss fd
Ġ2 79
pairikc cesais
imp ort
16 72
first ipst
pt cach
dm ub
ptcach eedit
co mpl
strto l
20 15
pm ic
sw a
pcx hr
Ġ1537228672809129 301
ing enic
pr intr
27 56
toisse sais
pm craid
inc rev
pairik ip
complex iee
crtc s
request s
ejo ssee
destroyid eevpt
select ipst
nip cmet
nipcm eet
org an
cho co
h st
bracketmatcher ist
18 52
20 33
23 10
cd c
greaterix eec
u io
Ġ2 73
2 177
sp f
aipdm den
ixgb evf
x rx
ii li
Ġ4 2949
vectoricsaiceeeepc cet
backe od
visit able
pairikj ceee
hashingens b
hashens b
policyens b
anymatcher ist
base issais
be iscsi
2 136
pairikiiee ptev
eoss lb
g y
ii evrt
pairiiiee mmev
20 27
e ff
pro f
hashi dens
ldwrk r
s ix
19 16
0 154
0 148
ir y
ejrk yee
2 168
os en
pairie ies
un e
back up
epp xs
pv grw
30 10
le s
bit mask
c eeeot
Ġ 397
mica mino
b en
u d
23 11
hor iz
buil t
19 76
ptr it
mo oth
Ġ12 34
c qp
pairixx eps
region view
pairikxcee mmev
small er
rf comm
19 65
py et
17 71
he ck
config fs
sing leentry
17 52
pairiky ceeee
modul us
an tst
25 74
ap ple
ikx ceers
orb ell
ml erks
dem organ
18 91
20 23
23 79
greaterix eecl
pairill eeonst
dat an
link s
eee brt
do orbell
19 07
19 94
Ġ12 336
rectangle info
base se
20 25
iie s
18 51
19 74
activ ity
2 146
nodeiss ers
rx nfc
dd dd
min ev
bound ary
tx n
iysaiy eesais
il v
dev info
manager i
carr ier
2 143
015 6
2 188
o xy
he c
ztv n
mask bitem
y e
lo st
io va
delete i
ipkc enst
iteratoripcsseeee bt
histo gram
var pool
18 03
baseipk cet
20 14
22 27
t lb
16 61
22 19
kernel info
i attr
17 92
26 34
check x
ld h
strong ly
2 159
c fs
element sais
heapip ssl
heapipssl ssn
met ap
cord on
s ell
pairiee eeot
oxy gen
erkss st
tc i
my set
19 04
w ss
6 507
e iii
29 83
pairii besais
015 1
vectorilsaileeee plet
convex hull
advance ist
Ġ2 65
22 14
o hci
pairikib eeed
w t
ho stdata
epk dpdet
2 138
Ġ >,
Ġ2 99
dev s
halfpyram id
e beot
2 107
q ry
lo se
19 05
summ ed
parall el
ip vs
iiie ceec
constant s
or ange
pairikiss ee
con ju
Ġs q
22 31
ff d
22 28
29 50
zstlt ist
pairie ieeonst
v il
lessiiesaiiee ec
Ġ12 593
22 35
pairik dd
pop ulate
iiii iii
vectorilsailee est
17 81
iteratoris ser
identitycl irk
to ix
ph dr
ask i
Ġ1000000000 000000
st b
Ġsq lite
iiieee clerks
vmx net
18 61
mut e
e int
26 20
c cet
vectoriisaiieeee eplel
biginteger c
plu gin
r ime
ld ns
nf aist
3 129
s ata
ir ss
22 44
25 54
fv ve
m ig
ab se
dro b
aip kst
ixxex esais
vectoridsaideeee ldns
conju re
22 26
cc u
category ipkst
dge mm
no ut
io a
movietracking track
orange fs
al th
19 42
iteri zn
gop h
ex fat
io vec
dfs iii
ni u
v ee
hashtable ijst
0 150
iiie ielb
destroyiy eevpt
p ager
ee l
18 62
18 04
19 12
ejxx xee
requi red
dsy trf
rangep kc
d or
de fine
real b
2 106
comp act
h mc
00 03
rk b
x eevrt
init s
now ev
molecule s
backerk y
constructiy jy
Ġ576460752303423 487
w g
19 72
20 40
insert ist
hot plug
expi res
lo o
20 26
clerk st
pairid ieec
19 08
hand lers
Ġ &
sd u
lessiiesaiiee st
148 0000000
hum an
20 11
ende pc
19 85
iiiee edeev
ca val
17 03
vectori asaia
comp ut
sol ut
Ġ922337203685477580 3
vectoricsaiceeeepc eet
a ver
17 338
Ġns z
swap ipcenst
lessije saist
19 63
geometry info
s mt
reg view
vor bis
asp eed
forwar ded
he alth
18 72
co ol
19 87
agg reg
buffer ice
at oi
19 03
23 65
cew ith
fill st
20 30
25 17
goption group
Ġ7 80
up d
us nic
detai le
s lim
vectoriisaiieeee ins
ej iieec
sol vers
nf it
drw shading
drwshading group
cl ength
29 34
iteratoriy st
iteratoripy eet
20 31
br r
19 53
range mm
q d
hashtab leev
m log
18 02
vectoricsaic eees
inf os
2 148
pairiisse c
diag pkcz
17 84
op l
max v
y a
str chr
do s
ns i
26 21
af fin
b screen
68 00
v dpa
20 13
vectoricsaiceeee enst
k bd
20 63
Ġ36 8
toiiesaiiee elb
seg m
ek ii
f min
div dc
max ieerkt
fl tr
m ist
ii rst
log magic
pairille c
logmagic kevent
if tr
copyip kc
27 44
27 82
tim ev
j a
500 02
vectoriisaiieeee clerks
dc bx
20 64
25 25
22 49
lda f
pairiss ied
fall through
25 53
232 8
stop ped
vectorixsaixeeee levrt
x lb
232 5
23 05
number sais
box q
han tro
fp ut
24 24
Ġ2 61
25 27
co sl
getik iiee
ej ieec
ixx eeeonst
my et
to iss
27 42
ixem lb
caval o
e crypt
num ar
aipcm ccet
mincost flow
built ins
ecrypt fs
t gp
blit ter
iteratorisser blb
bas erkc
point iest
of rame
ijox ejeeest
30 40
cor r
ryth me
lhs v
as us
ext con
ijox ejlm
u df
Ġ4 50
te onst
c count
23 14
232 7
co her
pairikycee ed
erasee rkc
pairikib eeee
goph ers
in vert
Ġ4 96
74 18
28 65
pairix iec
de compos
ep pcs
22 33
gp ack
un der
dis ks
stateseq ist
vectoriesaieeee plel
bignum d
y edtcl
swap erss
kick start
dr am
nodeemrk ssm
Ġ1374389534 08
c it
26 23
set ijst
backijr ieeevdpot
in validate
str t
misdn channel
my path
ende st
f err
iterator imst
iteratorip meet
Ġ4 08
19 83
div sc
construct in
to ixemlb
di ction
Ġ2 90
constructiijr ieeevpt
n ls
baseip yedtcl
vdbe op
re order
init ssc
hashe pkvm
tupleijx eest
eque d
hashepkvm m
g k
er i
17 01
j rx
swap isaiieevrt
pairikxcee edtclsr
ejoxee rnst
2 150
23 46
cm boxq
altern ative
lpf cmboxq
assigne mrk
small est
good s
hdsp m
v me
ie js
d inode
22 10
ran dev
bigint dverks
solve d
ssf ii
iteratorip ys
greater iiesais
f arm
pp p
web p
w fx
el oc
20 29
dequeis ssaiss
0 174
co pied
cpow f
cpow l
79 15
vectorixsaixeeee eebt
cu dbg
div ider
19 61
26 98
rct f
or ds
pairix cee
306 368
de struct
17 74
iteratorip dec
29 27
Ġ16 383
f da
sw p
writ ea
d prt
pu d
log message
st able
q pair
ve i
add q
20 35
22 37
Ġ...) **
start ed
ij xelb
baseip dst
eox jeert
nodeemrk im
0 171
to ixesais
22 24
rqst p
17 91
pr ism
al p
iee nst
eeee nst
znsai px
imag b
cxx l
diction ary
2 151
pro vid
Ġ4 25
epks c
call s
iv al
23 35
67 12
hashiss elb
dam ag
lessiyesaiy eed
toiss elb
17 82
tp ort
kst at
vectorixsaixeeee xet
100000 10
eval ue
nodeis b
z ml
use cs
gvariant serialised
v ram
insertij ris
bn ad
s info
t cm
allocatoriy ed
resol ve
smac k
22 16
que u
lc ns
23 18
rs lt
pairiky iee
pre s
200 9
0 182
abs ev
toile saist
3 124
trunc ate
Ġ2 84
iteratorip de
out f
0 167
2 160
n ers
arith met
typ est
heapip ln
r ig
lat t
bigint iee
cu m
ef ae
Ġ2 63
typeeos b
c chke
z chke
pairixx elb
pairikciee eot
r pvgrw
Ġ4 04
edg eest
ev ac
wm keymap
reuse or
iteripfbr sss
f ig
18 81
toiiesaiiee d
gdate time
164 34
vectoriysaiy ees
b ch
d fa
10 0000000
23 30
set able
pairiklcee ed
o id
jrk j
private keystr
vectorimsaim eesais
manager erst
17 72
015 9
min ieerkt
d h
44 44
edg ees
destroy erst
bip art
0 160
de no
insertijrk leeevn
iiieiee ot
922337203685477580 4
em rkc
tpl g
emrkc rks
hash isseclerkss
us ive
iteratori pnst
clon eerst
constructij jrkj
18 63
20 80
data e
sav age
vectoridsaidee ept
f und
ns p
c pos
t si
exit i
si mulate
lm c
sin l
15 166
vectoriysaiy eeeeet
j mj
gen et
49 44
har dir
c swap
position s
low est
detaile q
p glist
vectorimsaim eeet
* >,
an ch
destroyim eevrs
resultiv eens
Ġ >
700 7
tupleijiiee s
add ing
se trst
d pos
aer ix
p aper
hashix elb
toix elb
2 169
t arg
point ili
sk y
strn len
i ex
pair hashns
bo o
bee s
eeept ev
tree s
35 97
cai xa
sr iov
toisse mlb
26 19
Ġ arch
toixe clerkxs
m sk
Ġf ail
29 33
identity isse
eos f
cmd q
swiz zle
29 28
xcalloc ator
re load
bee ed
pairix ssest
29 84
zls rs
g st
ejiiiee rknst
exter nal
i warp
pairikss bec
Ġ9 007
sq rtl
ch s
destroyipy eevt
destroyipy evt
f ul
equal ilb
toisse clerksss
r me
mant a
fin de
pre ss
19 71
chunk sais
listixsaixee c
j l
ee r
as edn
reference aserks
r ay
20 97
24 33
24 49
ip p
am ental
fund amental
functionif st
2 189
3 100
at us
17 93
55 0000
c sais
t oc
vector s
ff set
min wrk
pairidiee ot
fundamental s
hel p
24012630263186060 46
cx t
tinterm typed
x px
coher ent
Ġ( *)(
28 76
69 60
gra de
vectorijsaij eeeppev
smi app
pn um
18 71
init a
bl ink
pairiiss eee
k calloc
200 7
re claim
17 02
extent s
19 62
blender rna
ites ait
640 64
med tcl
20 38
eeeee cl
gpu framebuffer
backwardip p
92233720368547757 98
t ape
19 11
28 10
112 345
015 2
19 82
assignem rks
tupleijrkl eec
44 67
b mp
ep la
vectoridsaidee ms
ee rnst
counter kss
pairiklle sais
irk ssns
listen er
noder epla
cewith multipleentry
noderepla cewithmultipleentry
traits i
90 52
Ġ4294967 280
cl m
co w
o vf
45 65
st p
il erkt
mm mm
12 345
00 04
hw dev
ush ort
init sf
p se
cl en
bd addr
barrier j
d dst
24 41
pv rdma
r h
btalignedobject array
ch osen
metap age
il s
37 09
2 154
big intr
ixxe iee
arithmet ic
normal izer
constructimjrkm eeevrs
r val
iteratorip iest
very long
bu flen
33333333 3334
vectoriisaiiee rs
wk alrm
ro se
bar ii
v sock
32 00
er at
pr m
pc nt
de a
con cat
20 42
solut ionobject
66 597
ixxex eee
init scs
lb a
copyipk xpxet
22 60
mt x
backij iieeevdpot
d chk
b es
tc pm
nipcm ceet
ep oint
1000 11
sol n
f ar
y c
iteripfbii eeeet
pairikxx eed
answ ers
19 73
24 11
id erks
20 37
len st
au di
232 9
membuf ime
alt instr
alt instructions
pushe oi
baseipk dst
spl us
io im
by pass
p list
27 29
zl trk
vectorilsail eeeelns
eeeee sa
colum ns
affin ity
h ort
ref p
23 37
valikx eclins
1799 813
eeeepf bs
0 163
lp s
m ies
tupleij ss
1000 13
dd v
Ġ2882303761517117 43
k str
22 120
30 64064
35 1416
85 29
pk xrx
nssc ms
6070 3064064
351416 60703064064
m iyeept
t nl
baseipp sset
25 10
26 35
eed tcl
list iderks
iteratoripcss eee
212 30
vectorimsaim ees
sd vo
vectoriisaiiee lb
get proc
bigint ceee
212 31
_ *,
Ġ16 77
pairikiss eee
j t
er p
hand sha
per form
215 87
lessicesaicee ed
iiieee brkst
max val
switch dev
i last
ip ssee
22 121
26 56
cr op
ipssee rkns
baseip medtcl
zstlt iisaiieebrkst
pairikcx elb
copyip sss
type info
ax i
l id
constructidj deeevrs
0 161
en dent
232 4
Ġ36 0
bcm genet
iteripfb iieec
214 09
217 65
erce pt
22 298
22 654
free list
aiplm len
getproc address
2 156
r od
glx getprocaddress
glxgetprocaddress arb
20 86
fraction sais
allocatorij ec
iteratorix lb
r cd
w nd
io ff
scal er
0 207
k iocb
44 15
rec ip
close blob
Ġ59 1
pairikssx esais
22 299
22 477
tt l
parse d
jo int
219 42
constructiljl eeevrs
7 197
ll i
215 86
which bitem
pc c
blk g
decompos ition
ab m
20 50
lessix eeeevt
vectorilsail eeeeeebrt
ejrk leec
232 6
ixxex est
Ġ225 1799813
m br
au int
less itesait
30 24
oper an
grap hi
t ap
bu int
226 55
20 12
insert eoss
predi ctor
Ġ" #
iteratorix ep
217 64
ef v
biginte clerks
resol ution
vis or
0 165
pairix ceeot
ain v
2 207
c un
19 06
multiset ixst
2684 35
Ġ2 75
22 476
equalserk ssmpns
hf splus
count in
1111 15166
111115166 50
ce clec
Ġ2 87
saixee onst
moveir saixeeonst
hashi ceclec
pairikcx eeed
nodeiy edpot
dup lic
destroyipm eevt
destroyipm evt
Ġ() **)
gf ar
sh ape
30000 5
lbl k
x lib
ir m
bind ing
cxxmiipk xst
dispat chist
q mi
s chk
ul ie
free bl
k probe
do v
get next
219 43
token stream
imple ment
cordon ne
c chk
z chk
xx lb
pred iz
q str
complex it
iteratorissrssp sse
x chk
23 61
duration it
coordinate s
178 2225
232 3
list isse
eb st
loop ist
22 59
as y
th an
an f
28 32
214 08
tim eval
idx d
18 92
199 2547
colle ct
j ps
mode set
sx gbe
anch or
b pp
g sequence
em s
mon tage
20 41
22 51
47 20
2 204
c int
h ang
48 77
pairiss xesais
re label
mp eg
irow s
an ss
do ub
19 51
01 64
pairikcx eeee
tod o
t sk
pair ing
Ġ89 35141660703064064
sp q
ho ur
bigint iesais
z un
ip xee
stroke cache
at ing
bf i
flow er
issss eest
wmgizmo group
find erkx
ikc s
1992547 409
u mi
sub set
24 34
j d
ar k
val cl
squ ares
ai mi
typee eed
24 57
log ref
graph node
ainv nm
2 152
d ont
de pot
22 11
22 58
24 15
vectorixsaixee eevt
w ave
22 39
406 144
identity iye
byte sp
equalserk impns
d lc
iee ns
pst ate
eras eest
pairikiceee ixeoi
Ġ329 406144
juggl er
Ġ329406144 17338
un shifted
b ileept
h pd
ex cel
ld vl
proble ms
Ġ32940614417338 4850
ixx esais
horse s
collation iterator
h k
ter min
pp d
vectoriysaiy eeemmev
toissesaissee d
typeeeed pos
db ack
cas en
lessiiesaiiee eee
eeeee sc
mess ag
vectoriesaieeeee s
construct ie
22 40
down ev
q w
b action
sp ect
lv ds
in order
22 66
initializeem rkc
integer iterator
acqu i
prop val
pairikssxee ed
proj ect
cool ing
ipxee rkns
v as
x pr
sc nt
c abs
pairiee ec
x z
vectorixsaixeeee st
a mov
pairikix elb
c max
n link
24 05
result pc
u info
vectoriisaiiee ii
d node
implis a
saf excel
c fl
index buf
100000 6
valcl ipst
co u
input v
k gd
cd v
poly nom
timev ar
tr d
access inst
travers al
0 169
as i
22 38
iex es
25 34
su p
out p
bl ur
pairiddee brkst
Ġ2251799813 685
22 12
Ġ8 191
pairi b
scc b
0 173
constr ain
23 00
tr kst
iss ie
object sin
vfs mount
objectsin mode
23 31
232 2
Ġ99 8
id ist
m arg
p hs
iteratorip ms
20 60
es cap
110 620
align ment
cl ar
ir xxlb
index ed
io unmap
ch n
out w
allocator ieec
fm tp
chec ked
baseim st
sameis b
ee ep
28 11
prime factor
vectoricsaic eeemmev
vid ioc
tupleijd pnst
sc u
distanceipk xenst
reverseip ievt
polynom ial
nor th
24 03
cj ieeet
22 46
nodeile dpot
nstarray header
l mmio
ip ack
set idst
port al
argument pkc
mapij cst
a ec
p py
59 40
cxxneip jst
g m
dev type
ij oss
2 149
p itch
29 57
lessilesail eed
110620 16384
t ick
ac x
handsha ke
25 29
null s
at temp
ssee st
tupleijiiiee c
pointer link
collection pointerlink
v sync
ns b
eev rst
1000 20
page map
prev iew
w ptr
susp ended
pairiy iest
vectoritsait ee
Ġ57 6
lessil eec
e bigint
z lt
fu int
2 208
greateriie saiiee
dtile context
Ġ9007 1992547409
18 82
im saimee
ldv r
ii ce
pt ee
m add
par ity
jj s
insn pk
case i
swit hs
2 158
g w
ad ma
wind o
video mode
pairixx eeeeot
pairixxee nst
h pfs
str buffer
en queue
gt imezone
io at
nv mem
brot li
it st
x get
ge o
mic ro
d fl
erk d
vectoridsaidee evt
horse sais
22 45
vectorixsaixee evpt
tra cer
chec kc
hea vy
Ġ12 00
push relabel
fs g
baseipk det
20 51
bm bt
20 54
27 83
fluid domain
eeee irt
distributioniie clist
mem stick
mag az
magaz ine
pairidd eevt
u resource
24 45
pairikicee neerks
delete inst
Ġ30 72
pairikd dee
provid er
dep endent
tw od
da x
molecule sais
8 187
28 20
decim al
g x
j z
iw req
mo ls
Ġ5 20
helper ixst
extra parts
mapis scst
if addr
a vo
hashtable i
slow path
ip op
po intr
sw ord
attribu t
24 12
moveirpf brkst
g endev
x ec
tr ident
vectorixsaixee elb
lessicesaicee st
pairidde n
24 17
cook iest
b logic
m mp
x ed
mc di
baseijsaij eec
gran t
cy apa
Ġ15 099
banim context
cl es
xx s
base ixe
ir ange
Ġ...) *,
ctrl request
20 43
25 32
sa mpler
common flags
tupleijo sseec
31 32
vectoridsaidee st
host ap
2 153
262 144
Ġ34 4
iteratorisse ppev
nipssm sset
e ist
fluiddomain settings
init sd
nexth op
dr ain
gd th
24 50
writer eg
d det
ins ide
19 93
allocatorip ce
rs a
nt c
67 10
lessixe saix
vt ab
pee k
cj i
ee ers
not e
Ġ16 00
as in
un ary
24 35
ij saij
psr ai
zrs rs
db c
sa w
neg ative
ejo sseec
tree iie
char string
tupleijrk yeec
particl edata
Ġ167 119
c poss
n z
24 32
vectorimsaim eeeeet
distance ipienst
bigint eeeot
ior eq
if c
vectorixsaixeeee c
pairixiee s
p eak
20 82
24 43
valarray idee
20 91
ep fs
state struct
decrypt ed
35 90
232 0
l k
25 28
pref etch
55 555
2 170
2 161
p layer
aipssm sssset
ad vert
23 17
pairikssx eeee
vectorijsaij ees
g queue
max j
per ms
ejrk yeec
pv s
solution s
v fe
nla strip
hier arch
f ers
5899 90
tupleijossee sd
placeholder ili
k o
y eeevn
28 49
lessiiesaiiee eec
vert ical
bigint lb
multip li
pack ss
se st
to i
22 57
29 35
frame address
q n
20 44
pairiicee s
2 155
s mmu
sd sc
pairikss ssest
cxxmiip kst
open image
0 177
e ve
erk l
baseiesai eeec
aiplm let
t type
25 56
p ty
re la
iteratoripcss eees
basei hsaih
2 179
100 20
clerk ms
mip sss
22 43
24 37
tc s
or k
Ġ2 000000000
qu jian
cred it
constructiyjrky eeevpt
0 179
2 196
sw b
device ilj
bigint ceec
g evf
25 65
datas ource
hcl gevf
latt ice
23 32
ap pl
handle d
18 000000000000000
22 41
lt c
chine se
mole swiths
windo wmanager
do mino
67 15
av i
allocatoripx e
pairieee aseos
report er
moveir nst
req s
rn dis
232 1
pairiky ceeec
p on
24 30
27 27
multi res
xcallocator e
26 27
evalu ate
ex c
sh cd
2 167
o class
lo ss
28 36
Ġ5 28
identitycl irieeot
g async
sh mem
mem cg
re j
od p
arr a
18 01
addressof isaist
ej t
optim ize
six ty
s pre
ec ache
max num
1000 7
ib lm
baseii lb
opp onent
openimage io
token str
mal idp
2 171
iiie ssest
future isse
e clerks
vectorixsaixeee sais
dev fn
pc pipds
basee qerks
24 31
equal in
dframe context
ar s
g db
0 162
bigint ili
typeerks c
chan def
exp on
vectoriesaieeee ep
gasync queue
scs ii
2 180
ep es
25 38
identity ile
vectoriisaiieeeee brkst
cul ar
destroyim eevpt
c bf
Ġ4294967 264
nodecl ir
) -
mpt sas
transition info
zd v
integer modulo
f ed
vectoriisaiieeee eqerks
lor g
iterclil ns
23 36
neg ate
d um
r proc
z f
impl ipkis
ipk ieebt
lc ipkis
drv info
throt t
Ġ20 16
pairik ds
24 21
max p
pg io
nodeip kcis
n ix
zl ar
dele g
four i
9 000
** )**
20 45
fil ters
m erks
22 71
stat u
ixxee bec
mant is
0 168
m cc
1000 2
object s
linkedlist element
tupleijxxxxx eest
str ict
iee rt
27 22
Ġ5 000
num c
ima gep
identityclir sseeot
m sb
or i
solve x
g data
20 52
baz i
count c
key len
ipk xs
implement ation
0 187
c interval
w min
dynamic paint
zgv z
wo wlan
e of
20 39
200 8
ti an
)- (
constructix jrx
22 50
pc pipfs
greaterix eeonst
pairikl ceeec
3 120
4 160
m en
xx e
tmp l
19 92
19 01
dec ision
vectoriesaieeeee brkns
rs v
rep lay
e mac
s pair
f cx
22 56
baseip cst
b pkt
Ġ30 1
h j
22 98
constructidjrk deeevrs
7418 000000001
th in
mgs l
moveirpf brk
baseissais ee
e ffff
m secs
q rt
frace onst
max packet
vectorilsail eeeeevt
attr ib
ibu t
functionif biiee
b db
c pc
on en
epkc st
prim elist
99999999 99
ben ch
is cs
kv free
dt ast
pairic cest
n bl
ix rxlb
rk ips
24 55
lap ic
p ict
w rb
st one
cmp eeevt
20 53
lessix ens
her mes
p ctl
calloc n
greateriiee onst
debug level
tx fm
erasee rs
str st
200 4
search er
0 205
lo li
bb y
24012630263186060 80
fcx p
j first
impl ist
pairixiee d
via fb
p store
p eonst
ep f
traits ixs
805 306368
strcat pcpkc
b ist
vectoridsaid eeeot
advance ipk
e ader
67 17
the me
toiye saist
hs i
stat eee
coll ator
) \
ch oc
25 21
get wordem
memory pv
ke p
22 61
lessix eeonst
td ls
st ol
un z
20 59
interrupt ible
a de
20 46
ma ins
55 90
image s
22 88
26 92
fraction s
updat ed
rat st
cl r
write blob
solve iii
jo bu
p ur
trans fers
un fold
sp os
ij eept
s it
tr ial
cl ink
set jmp
idd lb
h air
at y
pairikib ens
d dev
mod s
powii xen
pcpkc m
part ies
dl acpy
0 166
cc nt
solv eers
indexerk ssm
iscs it
backe ol
s mooth
w ater
ay s
6 10000
pos val
ps y
testv au
19 91
biginteg ers
vectoriisaiiee eees
pv j
vari ance
ass q
isse saist
m xx
sb p
nodee ept
iteratorii rkips
uint st
eig en
o a
22 63
flag parser
zt ist
sixty four
value p
print ii
g net
Ġ2 83
vectorisssaissee eeec
regex translator
datasource surface
ab b
Ġ2 97
vis ual
bigintd vei
Ġ r
kv aser
0 172
Ġ >::_
24 16
ut ext
di an
qual ification
& ),
au g
Ġ& &),
h mac
ct s
24 42
accumul ate
sanitizer l
iiie ieeeot
p ont
q group
mo tion
pairill eeot
hoo ks
bigint ngev
webrtc isac
Ġ2 0000
22 62
Ġ50 4
trienode sais
24 36
26 33
min n
writ ep
adapt or
cab sf
int val
ing ress
vectori pn
22 42
23 43
zl acpy
075 000
de al
el est
cxxeqip cst
w sm
nd lp
iteratorice ppei
2 181
ar am
Ġ2 85
lang st
2 197
x as
pairik idee
bigint ed
gpu node
nl h
prim enum
ball s
getikx cee
u swb
u ibut
25 30
bit field
pp l
i ers
pse u
i reader
27 45
cxxmiip est
j ch
test num
complex ixesais
go gophers
lin ev
nipssm sseet
gogophers olver
i clb
00 05
frac c
marg in
2 172
a mple
sl acpy
moveisai xeevrt
emrkss rks
nscomp tr
19 81
22 69
25 75
04 67
inc a
wor ld
vectoriysaiy eesais
cxxeqip lst
dinic iie
de nom
11 111
Ġ6 270
pairiky cec
s char
dec rement
m rt
check pkc
82 11
duplic ate
str l
typ ep
hw dep
Ġ18 4549
vv eet
utput stream
p mul
back trace
iteratorix eenst
rec ipe
pairikib eeec
20 56
multip lies
c vector
pairikl cens
run list
pairikssx eeec
uf shcd
99 812
metr ic
dec context
riv a
str g
ser dev
fda a
ct ime
div id
vectorixsaixeeeex evt
sp rom
wor kv
22 77
39 45
ile sais
memp age
f rs
18 271
lessiiesaiiee elb
common v
hdr c
pairikcss est
l ate
vis ion
syn clink
ide coder
bt vector
pairikm ceec
in epoint
fo ut
swap isai
derived mesh
gpencil settings
brush gpencilsettings
in cl
hash erns
Ġ4 84
fa ke
maskspl inepoint
Ġ30 5
dan cer
2 195
f dv
move st
impl i
iiii pcs
7197 99812
k set
22 65
vectorixsaixeeee eevt
kt or
ixxex eec
synclink mp
k ip
cl acpy
sc he
mon key
urb s
m ca
23 68
Ġ rtl
Ġ2 82
get ikc
distribution ide
s ics
nodeiy eec
xml treeinfo
testd v
xpx pkxrx
0 176
20 75
me as
set ixns
39 67
z eq
Ġ1677 6960
d ccp
25 40
Ġ4 32
aip js
km st
lp let
29 12
num tests
wm windowmanager
s impl
at ep
bm elem
vectori z
init sld
22 52
Ġ4 24
row major
rowmajor strg
s dr
22 75
rot ated
ia o
dpr kt
s nr
nan check
compat ible
r fc
boun ds
attribute str
x ue
is ar
213 89
radeon fb
2 190
p info
uc si
0 175
c able
y max
solv erks
2 166
d sc
20 72
antst ack
c ad
v j
iter ation
su ma
time zone
dex p
am vdec
valikc eens
objectsinmode params
ic p
di j
mul q
sw ith
m fd
sl aset
dl aset
array iylm
de si
cashier eonst
r table
u hci
23 06
nic vf
22 90
00000000 000000
atom st
ext end
500 1
036 7
releas eev
tupleijeeeee sais
23 09
gl q
checkpkc iiiipcs
Ġ1 472
20 55
match is
btrfs ic
Ġ112 589990
packss dw
m edge
test i
solveers irso
g set
22 47
0 204
vectoriisaiiee ps
78 8529
lle t
s isc
Ġ2 93
list iee
iteratoripcss eec
toiiesaiiee sais
pairisss sed
0 186
k as
r j
se par
nodeis a
pairikix ee
valipf brk
iteratoripkcssee saist
0 203
is ave
point evt
200 6
prob ability
wmm sg
o y
at i
ssc anf
constraint s
pty s
file func
2 193
Ġ2 94
vectorixsaixee aserks
rotat ex
u vd
non immediate
tupleijiiiee ec
polar ity
lorg qr
c sc
p iv
20 90
ff fc
read blo
forwardir eeot
115 1880
valik cec
29 72
fc v
we ktor
t jjs
iterator iye
ii clb
max r
eem eet
fb v
eeeesseesais h
6507 50
f ma
q f
20 85
bignum c
pairijj est
8 152
a ans
22 97
initializeem rkss
2 191
25 31
link data
vis ible
indexerk im
Ġ 376
ic elb
Ġ6 00
iiiee evt
nodeiy eed
ve s
Ġ2 71
bnode link
os l
data str
stack ixst
person e
fa cest
hor s
Ġ999999 999
1151880 758
dest in
pairikciee d
kickstart solver
mp u
ll ist
25 39
list ix
mask index
vl v
mix art
50 50
exist s
qualification round
788529 153
8 350
g ve
25 81
sol vec
cashier e
shoot s
all one
reuseor allocnode
2 183
u sc
23 13
inf oframe
time o
od c
vectoricsaicee est
text line
net ns
tupleijjjj eest
2 182
d pn
l stres
ixx eec
glyph table
24 23
pairikxxee ppev
Ġp age
of dm
sk matrix
wa iter
pairiiiel n
io mem
repe at
1151880758 558
m loo
node ln
27 30
mv umi
24 54
mp met
iee ept
gt est
flag layer
bm flaglayer
22 54
0 188
op f
to gg
ix ilb
b eeeest
deleter eeec
tr es
ir o
20 65
hw tstamp
rec ords
Ġ39 2
run v
f iii
le b
20 96
rs rc
unk nown
l met
cmp lx
22 76
25 50
pairii y
sig set
deno minator
zrsrs ir
d on
35 33
vectorissais ee
ijsaij eesais
lessiiesaiiee e
messag el
ss ii
fin dp
ol ar
im b
iop ort
0 208
pos y
work space
u event
stream s
20 62
sy sclk
vectorissais eed
0 170
co sf
ej pst
019 8
lan es
jr ii
fmin ff
0 184
3 328
22 91
Ġ3 16
def rna
fw d
nam elen
greaterixe clerkxs
lessiyesaiy eec
q mp
23 49
bit rate
ixx eeeot
exter n
Ġ5 44
wr app
nip lmet
cache files
niplm eet
cir cular
2 184
al x
ab v
nu l
to ime
em ux
00000000000 49
Ġscal equ
h va
3 126
pos x
ff v
obj agg
sq r
saij eet
sur f
28 37
Ġ12 288
input sais
nodese p
pairikdi est
ip ipk
point nd
27 41
flo ppy
20 69
block nr
ry py
iiie beee
ag no
26 39
strl cpy
node iee
22 95
ly ns
Ġ64 0
vectoriysaiyeeee lyns
iiiec elb
0 200
49 65
pairikciee neerks
sft kobject
d port
k ieebt
25 23
sl gt
solution st
nss crypto
pal mas
ipipk ir
fo od
c num
u string
ar ame
22 84
bigint n
xee sais
shift amt
Ġ23058430092136939 50
charge s
nodeil eec
cl og
ad is
rb sp
Ġ2 95
baseip yst
ik sss
409 7
no deref
last s
23 58
00000000000 47
nodesepp xs
23 02
ide sais
moveirp deonst
dframe header
flow ic
color map
g ma
g sm
25 15
point enst
dump pvj
Ġ119 3046
clocks ource
19 02
file info
j ir
swapip denst
sys call
bigintc eeee
pairikxieee ixers
pairikxb eec
linest yle
tnr dmd
23 03
25 22
sr ing
wl c
mapil ist
e z
32 25
cr l
valuee rs
chip set
ta ke
i min
20 83
26 18
data flow
to idest
position sais
last c
Ġ3 10
00000000 01
pairikxxeee ixeox
Ġ184549 375
ar ist
long unsigned
view context
Ġ* >>,
s list
x image
iterator iieot
2 0000000
mp p
base inst
inc r
ej eeee
work ers
bm c
pairisssse st
3 103
3 130
g bytes
20 95
w her
section s
ever green
s db
22 89
31 17
complex ieest
Ġ7 4565
pairikxx eeptev
un icast
24 38
cc a
pairikx sseee
fi re
hardir qs
sr clist
usb vision
greaterix eeens
tod os
tas ks
montage info
min heap
nodeice pst
Ġ2 98
23 73
swap isaist
sm k
sis i
testvas d
79 70
moveir sai
zl ib
inst anti
02 12
d max
xen vif
er rout
vector str
vectorilsail eeemiel
ont al
le ap
reg val
mode info
ik xx
mapix ssst
vectorisssaisseeee enst
particle settings
w on
), %
cu int
to o
iix e
__ )
at o
28 30
omap fb
20 87
g q
22 67
gen map
m odr
x sk
00 06
iteratorip ieees
24 14
27 36
policy ins
sav ing
ul er
element st
vp d
node mask
25 24
info eest
pairikc b
vectoribsaib eees
pairixxee eqerks
pairik jst
27 67
queue icst
date time
pairikcc eedeev
in esais
20 78
26 12
inv erse
v res
st ub
road sign
operatoresais b
0 185
d cf
m wl
s inf
vectorisssaissee ed
p double
50 48
pairikxx eeneerks
clerk y
p ul
pairixxee clers
sec mod
deeev dpot
biginteger sais
st uff
ii eevt
Ġ36 00
baseij st
embede ixej
p ec
55 23
ca f
punt sais
vectorijsaij eeet
zstlt ix
de lim
22 78
24 47
25 42
29 48
insert est
pairikxx eeot
write blo
counter kc
3 123
v ht
complex sais
info eert
access ipkst
valik ieens
sad b
29 58
point mies
edt cldtfp
aipdm det
sp a
20 74
Ġ10 813
main v
nst substring
ke s
cc id
lw min
listix erks
el evrt
cmp xchg
vectoriisaiiee eevrt
Ġ4 64
1000 3
lessilesail eec
bar mature
ino co
Ġ copy
root ed
sn ines
rule base
enk ul
iteratorissrssp ss
compiler ist
ll sec
f mod
cl p
ss sa
35 99
pairiss iec
Ġ999999 9999
32 33
Ġ10 99
v codec
or inoco
sp o
22 70
vectorilsail eest
** )*,
vectoriisaiiee ieee
tx req
pairikssiee ppev
2 178
j eec
34 88
dr ops
h mm
r id
300 5
desi red
hig hw
iiiixx iix
"* >
20 77
counter ks
no warn
30 20
point ixe
ex ch
db igint
wnd w
22 48
23 59
pairikssiee d
pairikl cec
ceee ixers
019 7
integer range
prop ag
z a
pairis sb
tt sp
lessime clerkms
tri angle
linkedlist info
d xs
d met
20 66
24 39
par device
spar setable
Ġ167119 35
k fifo
deleter eev
nodeil eed
fput c
xx cjieeet
Ġ- ((
iiieiee onst
stoai xxcjieeet
014 118
264 8
ejiiiee c
togg le
u pts
pro gra
ic ns
sai g
inc y
26 29
valik iec
Ġ75 497
brot l
f av
re lation
pairikcx eeec
toiiesaiiee c
r ptr
sc isi
pairikl iesais
2 194
iiiee eeot
pairikcc ens
way s
014118 3460
net a
eeeee onst
regex mas
g bl
26 37
ens b
pairikciee ppev
5 100
ip sss
vectoricsaicee jrks
q spi
vectori is
23 60
queue idst
setter iv
cmp kc
22 68
29 74
Ġpo int
transdata container
i be
20 84
200 05
amd tp
ipkc eevt
data ee
019 6
number with
2 209
22 53
23 74
gen wqe
backerk m
cb arg
cy ttsp
tm r
id c
23 82
vectoriisaiieeee kieebt
cache dp
25 43
25 05
inter n
pairic ieee
mv neta
25 33
vectoriisaiieeeee bt
dq a
scalequantumto any
dvo bj
op al
current damage
interr upts
1095 67
f eonst
ic ks
not ification
40 28
hw irq
factor pair
cl a
mp s
20 93
deleter eec
ccg elem
gpi oc
highw ays
20 97152
magick wand
nssc ertificatestr
22 64
27 26
get i
nod eevt
Ġ10813 44
d in
20 71
iteratoriiripie mmev
iterator ijst
eeesais a
iteratoripj eet
zon es
trail ing
20 61
20 89
yy stype
pix fmt
Ġ15099 4944
m saic
lessiy eec
possibilitie ssais
larg er
ee rknst
er ature
20 79
20 76
eev n
ij b
event sais
ord ers
20000 05
cbf n
mtr r
l ack
sub type
28 34
deque ip
qu are
cf i
cash st
pairin n
23 94
nip emeet
formatlocale file
fmtp kcz
xget bv
28 50
pack uswb
bac ks
iteratoripk n
gl coex
bon ding
memorypv pcm
gpioc hip
head s
ang ram
horiz ontal
0 178
2 192
super block
pairikll eec
freebl vectorstr
a hci
m rq
p met
sort ing
aco se
typee rkns
26 31
fr ic
sortip dn
pairiex esais
e iest
w st
z s
infl ate
22 96
26 32
Ġ6 61
000 1000
469 23
tupleijxxx ees
pairiiiee brks
are ast
trac ing
znsaipx ed
c db
Ġ3 80
Ġ5 42
cmd line
operator type
dispatch in
iteripfbddee eevt
26 24
10737418 24
Ġ75497 4720
ip port
Ġ2 500
pairik yst
ver b
pairiiss eeonst
t ea
20 88
24 59
idde s
indextype ijns
strnlen pkcm
23 83
rk sss
list icsaicee
hea ps
del iver
isss se
3 122
q st
ai pn
ma ch
22 82
38 10
work bench
mc am
lessimesaim eed
pseu do
de alloc
ile vrt
400 18000000000000000
nss itemstr
auxij rks
20 94
dev map
bb v
su ite
b k
k strto
l value
20 81
vectoriisaiiee asest
bar pi
mpl s
res ync
22 168
u sr
vectoriisaiiee ieec
Ġ2 81
24 40
cam if
ll ll
ll ln
24 48
3 118
d ic
sl ide
zst gt
heapip llln
ignor eev
son y
sftkobject str
c ass
tree ip
work ing
r ac
lo ll
27 21
idde brkst
output s
mx y
iot lb
er xlb
38 32
lessii eevt
str ft
** )*
23 48
3 115
w it
iteratoripy ec
lessiiee clins
00000000000 46
zstlt iist
hd lc
hs ync
24 67
pk ns
f ive
p od
25 12
20 67
pairi icen
24 07
setter ist
Ġs kb
23 51
vec in
c ali
p em
n j
el oop
23 54
pairiicee d
endpoint address
fen w
constructimjrkm eeevpt
compare sais
multipli er
e bee
st er
Ġi s
24 08
tupleij pfss
Ġ5 10
va f
adapt ive
tupleijpfss ios
sor trst
constructim jm
23 57
dee p
down load
cor ners
inj ect
22 83
bucket sais
Ġ28 14792717434
32 32
im ep
testvas ld
0001000 100010
6 642
22 94
24 13
s mem
22 73
327 67
dequeixsaixee d
pairikix eee
lead ing
dequeisssaiss eee
24 53
kc ipher
bit flag
erasee rkss
0141183460 46923
st ee
ul ated
pr logmodule
backerk d
prlogmodule info
pairikl ieee
vectorifsaif eeeens
iteripfbii eeeeonst
t ast
23 86
lesside saist
shuffle in
ejr iee
engin es
toisse sai
24 60
35 20
nip dmet
nipdm eet
cxg bit
0 209
cmp l
Ġ2814792717434 89
l h
029 9
iteratoriiripi eplel
w y
31 16
clerk l
channel statistics
cfl ayer
identityile clerkl
23 81
global debuglevel
iteratoriiee evt
Ġ4 56
modint ili
numer ator
scalequantumto short
opa que
broken worker
le v
bby te
z pl
array ijlm
26 25
24 44
r u
23 01
25 37
8 169
if type
eeee sais
ring param
fenw ick
l addr
in um
drw pass
senator s
f io
iiie beec
sig info
agg r
datal en
cl aset
zl aset
c pl
d trace
pt eonst
key swith
iteratoripy e
huffman code
c mac
24 51
vectorijsaij eesais
tupleijiiiee eonst
Ġ1 474
20 58
vectorisssaissee elb
Ġ30 3
sco ped
aq c
nipmm met
lo ded
est im
Ġ2 91
22 93
26 16
ijrk ieeeps
th readd
fb con
length s
fj es
copyipkc pcet
identityiye clerky
g sc
k reg
id body
mx c
cell content
iiiiiiiiiiiiiiiiiiiiiiiiiiiiiiii iiiiiiiiiiiiiiiiiiiiiiiiiiiiiiii
l ac
08 28
ad p
ip sec
Ġ1 473
ix es
29 25
per net
re x
forward in
subdev s
nex us
biginteger ili
co d
ab caf
le ak
base isslb
shi p
f scanf
mo bj
23 12
pairikmc eeee
a fe
s debug
ix lb
li work
lc n
valid ation
calc v
cent ers
o no
pair ip
25 49
25 66
forward ip
1151880758558 72
ns im
pairill eed
25 02
27 32
cxxltip dst
pat ter
bookmark metadata
section sais
cach ing
20 98
24 61
4 136
26 93
ib s
sl ascl
dl ascl
23 56
fro st
w en
pri mos
c sk
cl z
27 24
max s
sc mobj
pairikxxee mmev
24 83
31 10
00000000000 48
Ġ done
24 88
bigint g
stmmac enet
state ment
cf v
pairie ieee
secu re
ekic ernst
ekic erknst
getikicee rt
getikicee rkt
3 127
Ġ3 34
sc en
def str
pairikssiee neerks
distance ipkcenst
onen and
l de
sub rtx
25 87
29 32
invo kee
pairikssb eeeixers
iteratoriy rypy
m eeevn
24 01
mo dep
30 30
primenum bers
Ġ67 108
p xs
Ġ1 471
23 85
es c
epks b
f gets
r ns
20 70
pairik mi
gpu attachment
reak iterator
audi op
0 180
c sa
block st
nodeij ee
swapip sss
pan frost
vectoriisaiieeeee sa
complexidee onst
v mov
ee eevpt
23 62
decl ar
dec ipher
tim eline
pairikm cesais
Ġ json
ix msaiceeens
mt ime
version s
vectorifsaif eeixem
de gr
23 52
Ġ12 80
warn p
elim iter
to eri
tup st
23 72
cur x
57 0000
coord sais
traitsip ie
flav or
24 06
25 41
ct rs
ch u
sd d
we i
ic sk
un aligned
cu rb
two set
multip ly
scanner base
m enu
24 69
ds x
ejee rt
b disp
move set
typee sa
fr eed
w ii
el ev
aip mmm
session contextstr
sftk sessioncontextstr
ea v
deque ilsail
vec ins
vectorixsaixee x
iteratori icst
k w
sys data
pairidiee s
znsaip ced
173 1687
hashim est
greateridee eevt
3037 1588
014118346046923 1731687
0141183460469231731687 30371588
allocator is
css et
rng sais
u div
str count
24 82
iteratoril eeot
Ġ exit
test va
closure param
b sais
"* ))
ro b
l ft
vo latile
26 28
sk d
}"( <
baseip csset
0 181
b no
nu mp
iee eeee
set iins
interval e
response s
cam er
0 183
w n
idee ot
insert emrkss
hal t
sw qe
vectoriisaiieeee neerks
moveir saissee
foop is
moveirsaissee onst
iteratorice s
certc ert
trac ker
public keystr
0 206
ne ar
long l
iiiee eppev
toissesaissee c
lcd c
authentic pixels
in file
23 71
27 48
Ġ3 11
baseip bet
invokee rkst
tr io
30 22
cur s
41 17
cd clk
pairiee ees
l eebt
27 64
27 20
cif sf
a po
m eeeot
ss di
ss sdsc
arg list
Ġ30 8
lin esais
parser struct
sscsd s
sscss dss
b lt
27 31
vp if
hierarch ical
vectoricsaiceee brkst
divid ers
destin ation
6 365
ns proxy
25 45
27 34
1000 06
li a
color s
df sp
rout ing
a fa
x info
Ġ jmp
ch cr
23 90
cee d
segment ed
unit test
att ached
cifsf yi
0 194
ep kcz
baseipk lst
exec ution
forwardio sseot
cff ts
02 10
ret m
valarrayide ixem
25 01
26 80
comm ent
c map
do utputstream
code doutputstream
.__ _
ir ins
pad s
power xx
registr y
Ġ112589990 68
v bus
23 66
max l
ft di
100000 2
vectorimsaimeeee pmet
rig idbody
s dot
co bal
traits iis
integer i
advance ip
8 188
str str
ir ijs
vectorixsaixeeee edtcl
constructiljl eeevpt
25 60
pairiiss eeot
3 128
le ast
cobal t
c node
pf e
3 125
at c
prim itive
computer checker
d rb
dis nan
numbero f
d sd
head room
res y
ej rxs
seq count
264 4
a hw
d min
hw info
pie ce
log modul
bf v
rx d
character iterator
tic ket
5940 379
x gc
23 67
pairikss cesais
eeeee bt
166 64
hashic elb
df se
w ell
st eed
lr c
iteratorips st
vectoricsaiceeee ees
3 136
d swap
00 11
hw sim
410 57
is zero
23 95
iteripfbr is
6666 6666
ed v
isse d
node ideee
mo vs
reg no
zstlt iddebrkst
sig action
px mt
magick string
che mth
bitgroup ilj
chemth an
0 195
d dot
n mi
w pa
znsolse f
binclos ist
complex ixest
pairix ssesais
3 140
s me
op us
init ss
sig hand
pairiss ieee
initialize ist
initi ator
j ieeet
ero fs
vectoriesai eeeed
number st
barrier e
16 394
29 45
reg exp
019 1
rational sais
baseihsaih ee
c sd
22 92
constructidj deeevpt
3 133
a mage
mp c
to icelb
24 58
access in
vectorilsaileeee leebt
ryth m
ar en
24 93
pas id
uresource bundle
g ar
g over
23 89
25 11
29 29
pc ee
uint d
gover nor
3 114
a ke
pairi lst
24 99
view port
q ps
er ef
sh group
pk g
pairimm ee
27 98
swap ieenst
testvas cs
brotl idecoder
q rf
ho w
gpu indexbuf
b endpointaddress
t il
sign st
pixel format
alt setting
nodesep pcs
er v
20 73
27 25
Ġ32 5
a ast
less if
22 87
23 53
Ġ8 50
read issie
matche d
statu ssec
Ġ3 30
chan list
iteratoriirip ien
greateriie clerkis
p or
ad vers
sub j
min v
dbg fs
testvas cd
r ops
al k
ii z
zl acgv
211 86
02 19
tinterm block
12 0000
tupleijrk meeeot
short s
sch olar
tor ture
elev ator
cxxmiipk ssst
p ex
ind ic
Ġ4 72
vectoricsaiceeee evt
, {
un bind
result i
wor ks
frac ee
pur ge
ai pp
mul ation
pairille aseos
29 85
300 1
pairidd eept
aver age
8 000000000000
m ga
o on
sc aset
forwardir yeot
pp a
irx eeot
f it
j edtcl
l eeevdpot
n th
24 92
baseip jedtcl
019 9
pairiky ielb
pairikcc eeeixeoc
vectoricsaiceee onst
0 192
pairik il
sr pt
az x
pas st
orph an
ss ln
00 90
ne tport
26 69
Ġ6 56
rect s
conf irm
blob info
cccc cccc
ball oon
formatlocale string
std o
eeee eppev
gin fo
ej ol
ms dos
ok en
nssckfw instancestr
m ft
iteratorip mec
eev rkt
qu ality
nodeii epkst
ien k
cach elimiter
spect r
h cb
28 29
nd up
00000000000 30
36 34
215 88
stand ing
h cut
lessiiesaiiee ed
pairiki bec
uchar h
adde nd
ulong m
sell er
schar a
tree inst
hs o
eeee edtcl
ips o
goption entry
repe ated
ee rk
24 87
219 44
226 56
014118346046923173168730371588 41057
23 93
dev id
list str
Ġ10 40
r di
26 38
022 4
process ed
class ify
Ġ( (
2222 2222
ushort t
cmpkc pk
strft imep
strftimep cmpkcpk
sf ence
wl core
accu m
f k
cl ause
bas erkx
23 69
eeee pst
pairii des
kc s
saicee onst
oct ets
at k
ix ec
point ieest
session id
loopip ssln
chain ed
insertip ssn
detailne iilb
iteratorilrlp le
t sf
z i
ct emp
tree in
24 91
vc n
bnode type
pairikll eeed
mol sais
le ds
30 94
br ute
Ġ10 20
lib yu
libyu vl
32 24
ch ans
init scd
init scf
init scld
27 35
kc m
264 0
22 478
40 24
al ready
24 81
fr acl
my str
ixxex eeee
Ġ-(( (
it ies
string trie
Ġ2 684
25 44
cir cle
throt l
stringtrie builder
d chke
push erkx
eeeee s
213 88
eb v
sch ke
bu dd
device d
cache info
perform ance
ai c
allocator ife
20 92
out i
217 92
sis nan
un available
22 122
23 70
27 97
ster eo
abs info
bytes ink
t xt
mult erks
cpuid le
bla des
access i
3 121
pairix ssee
Ġ99 2
swa pr
ad al
ir ipienst
Ġ3 32
tupleij zn
bookmark item
zstmii iripienst
decrement pkst
l eee
ar get
di ce
28 23
hp sa
fee dback
est except
dec ref
210 54
pairiee eed
fet estexcept
ass fail
point iesais
pairix dest
214 10
o fld
p en
q dev
st mp
rs vd
membuf ide
kd tree
stdo main
oc sp
ii eeevn
inode s
red uction
mole c
3709 55
iteratoripcsseec enst
b ag
d cc
d fv
l dev
p index
u de
iteratorip me
24 90
Ġ10 61
Ġ30 6
cashier ee
ba ke
5 000000
m all
s ers
cl acgv
ff ic
pairixx els
met als
dv c
bigint aseos
gc m
event fd
bar p
decl p
vectoriesaieeee t
deleter eee
10000000 1
b cc
l key
n hi
con ex
ion s
vec i
out standing
usb dev
th at
22 398
24 72
89 16664
nodeijrk l
pairiiss eec
0110 8916664
ul ar
22 300
022 3
vb ios
ss df
moveir saiceeonst
access iz
c is
26 30
mc b
25 46
27 54
215 90
ve d
25 76
mul l
sw ab
free ze
264 3
zstltix iebrkst
b eest
v display
base operation
22 397
file data
epp sss
zsteq iisaiieebrkst
Ġ33 5
toice mlb
674 407
futureiss ers
brotlidecoder statestruct
con vol
ident ify
block ing
8 589934
traitsisai fee
ill eest
217 66
lessije saij
f ol
35 24
51 1627
iiss eest
3597 38
3 134
ind s
22 196
ot i
33 32
get image
pairil iesais
_ ::
25 14
glo g
88 00
four cc
2 1281
base itsait
28 24
list s
50000 5
sensor s
hop mask
ub igint
tu rb
vectoriisaiiee eppei
xee pt
col ssq
ram rod
aram s
last v
22 79
pairikx besais
ju gg
inter pret
shu zu
0 189
b mo
c sy
24 46
29 39
infint iest
nodee eee
user data
674407 370955
val st
array iblm
lp rops
24 65
traitsisai pcee
wait ing
bn ds
iteripfbrk sssa
d pi
eev eet
24 78
228 80
man if
iiieiee ppev
hul ls
t iff
bt broad
lessiiesaiiee eeee
tupleijjjj dddee
iteratoride c
lcm xx
iftr t
default s
212 32
ipc n
tupleijiiiiee s
pairiiiee evrt
213 87
d int
o vs
z b
de fin
00 07
02 20
gr ay
mdio bus
00 08
22 802
trigger ilb
oc io
tra de
sp context
22 801
ps kb
js m
go v
a head
d ds
d uint
e uint
in buf
22 99
ib dst
hashi best
solver fvve
iteripfbrk isa
strncpy pcpkcm
eee sa
rs xx
log f
cb s
55555555 55555
linestyle modifier
k arp
he m
22 195
31 13
59 11
temp erature
interval ee
fib node
m ipk
27 52
34 20
buffer ixe
ant en
c fun
32 21
23 50
bigint eee
nodee evt
pf m
wr qu
cnt c
217 91
mq r
30000 9
through put
finde pkcm
3 141
se treg
23 004
28 28
pool allocator
cer nst
people sais
pairikds st
un reg
24 84
partition ist
215 89
bg mac
z sy
02 13
219 94
pd det
Ġ( $
max b
comb la
pul se
28 17
28 21
li wmin
dq l
arrayi clm
hort pixel
f absd
k gdb
25 69
vm alloc
back track
my cmp
valipf brkst
metr ics
3 143
eeee deev
pairikss ceec
219 93
vectorisssaisseeee sb
tr ust
stor y
23 003
riv al
pairii bee
31 12
dis joint
allocatorij ed
2 14748
f ip
tr ieee
1000 08
i fork
select ist
pairikxiee deev
dn a
29 13
person ee
nodeim edpot
pairikmm est
do mains
bo ost
ort ed
30 33
pivot ist
scaset est
00 10
first ist
22 85
eeee levrt
key block
eg ress
enu mer
ab si
ul i
22 599
ac ct
02 18
foop i
tupleijeeee est
3 131
j rxs
mo no
30 45
226 00
nodeice pks
doc ase
g an
g bookmark
ad pt
bigint ps
ill sail
211 85
gbookmark file
he t
24 77
25 57
28 19
cur y
destroyij eevrs
l range
24 68
24 63
08 99
pairix desais
tupleijiiiee eot
m ijeept
27 19
Ġ11 52
pg table
toice clerkcs
val clist
res ched
27 23
map ip
fast path
rime s
cali br
node insert
ipipkir irs
as rc
27 40
rn bd
us x
r ock
u probe
tr ic
eeee sseee
deleter eenst
executor in
gmarkup parser
insertijr ieeevn
29 47
tupleijiicee sais
nodeinsert multipleentry
t dm
25 51
34 21
check pk
pairikcx ec
iteripf i
cam el
init scc
30 25
io bject
zge mv
gop her
b order
24 70
29 36
27 39
pc f
ixx eens
a fb
ch ains
Ġ4 98
ls k
cmd buf
pairikl ssest
h en
ma nu
of dpa
fa f
rkx ps
camel lia
r se
32 50
vectorisssaisseeee eebt
splay treeinfo
ir l
min index
fa str
datal ayer
call backs
node converter
block count
pix elb
p jm
y r
23 92
23 91
te k
pairikc pn
0 211
g thread
Ġ30 2
32 37
Ġ7 20
02 17
object str
iee deev
27 13
compare prime
010 598
power xxx
query sais
traitsic ele
hy pot
010598 16394
k db
p eb
t am
el an
os b
tupleij iss
out l
win ner
23 76
insert eoc
iiiec eeee
v g
lin er
jii eeevrs
f dt
g saig
ul iie
vectori gsaig
init scl
init sci
init scll
testvas f
testvas cl
testvas cc
testvas ci
testvas cf
testvas cll
testvas cld
ite me
cge mv
ww n
a av
b un
s cond
v da
66 52
nodee ed
bases g
flex cop
l erks
24 95
pt es
ser des
cnt x
nipy myet
lessissesai sseeee
no ds
min ilerkt
iiee sais
destroyipj eevt
destroyipj evt
5 640
buf size
eeeee mmev
pip es
cxxltip cst
v ref
26 14
xee ed
pairiss ieeot
jmj et
23 88
ssee sais
update ins
short alloc
constructiyjy eeevrs
w eek
de init
00 966
25 84
28 26
80 10
fr a
greaterix eeeet
fif os
resid ual
moleswiths um
slo p
vectorisssaissee eee
vt bl
32 05
max a
vectorixsaixee aseos
pairid st
pairikmcee ed
28 18
Ġ32 2
lessissesaissee sais
chain saw
prefix tree
26 17
hashtable illsail
(@ _
location epkc
hashtableillsail enst
h pt
z yn
22 81
24 80
26 26
27 90
hashtable im
ft c
msaim enst
hashtableim msaimenst
am l
00000000 0000000000
ixxe best
b nd
Ġ50 5
copyipk dpdet
z r
ee lement
iterator iiest
pro x
02 15
iteratoriy eeot
ecl iins
problems olver
xpxpkxrx rs
c av
r data
ref mvs
info ees
prev rec
iph dr
t info
ec v
iiee rknst
tr ow
moveir feonst
iteratoriiep ieet
g al
x in
bound box
gp ios
expect ation
wol f
ee ert
on ec
bucket and
pairix ie
199 36
vectoridsaideeee pddet
pixelb lack
budd y
b eeeelb
ic ce
tu sb
eeee pxmt
232 000
gro u
pairikdi elb
ptrrgb compact
snines quare
3 119
str ndup
le ase
th ash
024 0
backij deeevdpot
vc ut
prod s
5590 387
3 111
24 62
26 60
wait queue
vectorisssaisseee onst
di lj
27 16
em eelb
nodee px
pers ist
hh hh
dij kstr
32 20
pairik issesais
forwardir jeot
mm ing
pairikm h
zero es
end points
27 18
null b
b dv
pair irk
typeeos c
queue ip
fil elist
treelink nodesais
29 23
pairikssiee mmev
a ffs
cev ees
gr ad
060 300
bucketand iterator
n bd
eeee est
pc ache
ac p
iiie beeee
target s
Ġ68 5
lg dt
q ca
de lb
lp t
25 48
nod eeesais
added g
27 33
ver ity
pairiky ieee
pairie ieaseos
effff fe
c diagpkcz
eeee eebt
dis cover
00000000000 37
pairikj cesais
bgpd curve
lessii ens
constructidjrk deeevpt
ijb lsk
u ac
at ers
ss si
hi story
ec st
bvh node
c flag
de b
pt ec
vectoriisaiieeee z
dc v
pan ic
tupleijossee sb
er retm
ul ation
ff ec
set pixelindex
ll cp
point ps
seckey publickeystr
i end
n pages
30 50
28 25
setteriv v
tra ffic
load er
23 07
map ibdst
kep eet
ar ds
23 96
po m
fs map
car l
escap e
0 235
u sp
check point
elf reader
Ġ replacement
con gest
100000 9
ikss ieers
appl ic
ke sais
less inesais
30 29
ho bject
200 100
uniform buf
pairikcc eeeixers
util s
no op
23 55
00000000000 32
cb v
resizeem rki
vectoriysaiyeeee pyet
n ve
ns st
res x
24 71
point eevt
edg eec
write b
xx xxx
entry esais
ne tup
ib ss
non const
distanceipk denst
upt od
an e
ip km
29 40
pc a
merge d
0 288
iteratorip js
26 36
baseipk ssst
iix lb
chr on
is valid
move stat
26 71
ixx eers
nc ases
my ri
Ġ214748364 5
eeeeecl irk
d qu
gnu s
helper ii
skip ped
cy gnus
ar fs
Ġ5 37
h state
j n
27 37
ac m
long long
iteratoripcss eeet
Ġ 337
32 23
ac n
tm io
ejxx ee
e kc
g pollfd
32 96
at to
an c
prim enumber
786 09
goption context
d ln
sanit ize
cxxltip yst
pict ure
23 84
rv in
greateriv eeeevt
accumulate in
3 142
in tra
id ns
vectorixsaixeeee eppev
order st
pairikssb eedeev
dai s
pairidiee d
resid ue
bigintr merks
f ev
n ative
u u
tree path
ptr array
comp q
52 0000
vectorijsaij eeeeet
r key
it ed
db reakiterator
symbol s
complexidee c
v pe
ee iiii
28 51
swap expectation
hel l
vp be
Ġ99 637
Ġ655 28
ccg vert
swapexpectation rat
b aud
27 17
28 22
05 47
da xpy
uptod ate
z x
in eq
id ilb
qu icks
pref er
listisssaissee est
destruct or
modr k
27 61
valikc eeenst
double d
25 78
eej eevpt
cn ty
u cc
26 81
swap im
vert s
Ġ524 289
thrott le
ag i
per ation
vectorimsaim eeemmev
constant iili
bla ke
1438 3590
78609 22880
14383590 7860922880
x eevt
thread sais
insertij deeevn
div modrk
28 31
pairikciee ot
354 55
sz t
znssas ec
testcas est
3 137
d rks
ec sais
erk mlb
ejrk mee
zsteq ixxebrkst
pairiky best
epk lplet
pairim iest
arf g
loll ipop
i con
32 34
pf vf
400 020
pag elist
iproc al
25 09
29 24
token izer
eque st
rej ect
s ack
vectoriisaiieeee ppev
reg match
iteratoriy eneerks
arrayi elm
id ien
erkss mm
custom datalayer
en em
me an
24 02
26 54
35 01
dr xj
cas ev
pairikccee clerks
lessimesaim eec
32 17
29 22
arg b
iiiee ept
32 27
ar mature
pairiiiee eeeonst
4877 89
at iono
24 09
vectorixsaixee jrks
79 2568
dr xk
reg dv
pairixiee brkst
792568 487789
g uc
inter actor
js object
greater icee
movietracking marker
in variant
mo j
28 70
34 24
rt d
itercl ik
identityclirk ieeot
constructijjrkj eeevrs
le sais
cr ash
sa xpy
lessix eevt
ms gpack
mt t
Ġ99 999
swapim enst
j sub
m eevrt
entry st
ul ist
traitsisai pxee
ipc sais
iii ex
baseiie c
clon ed
ilv eerkt
drb g
5940379 279
8589934 592
3 148
f swab
h display
p xx
end ian
30 38
rt t
default test
bt shared
num cases
iiieiee d
nodeoperation input
32 29
28 48
vectorilsail eeed
iteratoripcss eeebrkst
pairikxb eeee
indexerk imm
arame ters
u h
pairik cl
25 58
cal e
ui widget
dire ctor
3 000000001
c pr
ee iii
er e
Ġb i
lessixesaixee est
my pair
nodeim eec
do it
30 41
cur seg
cach eentry
period ic
j in
00 09
24 75
Ġ4 88
rk impns
ha ha
helperii ins
n rt
z en
task file
n ct
init si
init scsi
init sis
init scis
ix er
24 79
29 26
30 34
28 14792717434
put pkc
pairikll ens
zm irk
792568487789 19936
Ġbi gnum
2814792717434 90
l node
v pfe
31 64
019 3
sm bd
iteripfbrk sss
ghash iterator
iisse s
4 114
j last
m ai
25 07
baseip mst
bb p
cash sais
pairiic eeec
c ans
c mm
i ext
gcd rk
pg off
ntest s
concat en
spre ad
32 28
id eevt
iv ity
ow n
7 603
b ing
m me
32 30
cas esais
bn l
m bo
u o
star ty
db i
Ġ18 44
Ġ90 79256848778919936
eeas ij
g gtt
t ochar
iter ate
if req
28 40
ser ies
bigint eqerks
02 14
wait q
sof ar
declar ation
s io
is l
24 97
29 30
27 15
27 49
30 21
max data
77 318
sss ic
boun ce
rulebase dbreakiterator
i count
l ie
Ġ7 2057
0 201
Ġ 100001
26 67
30 39
sched uler
strncmp pkcs
ieeeesais a
p ld
as q
11 585
28 33
point ieesais
inter pol
pairisss ses
compress or
de termin
vectoriisaiiee ieeee
sk ge
bl ack
ssf ifi
pairikssbee clerks
vectoridsaideeeep deet
mapepp xm
strongly connected
4 352
sp eak
pairixxej rks
b ens
k ol
p vert
32 48
22 74
ip ist
tail erks
25 73
Ġ34 359738
cq hci
iw s
pairisss sec
ee met
mp ll
sub flow
019 0
child info
pairidd eeevt
pairikxxeeed tclsr
a en
id iebrkst
ve t
iteripf iiieeeevt
pairikssx ec
aipdm ddet
ren esas
cachelimiter handle
mo te
fp ci
index erkssmm
34 26
rk ssmpns
complex ideee
helper issssns
lessixesaixee sais
mr p
worker data
atio nu
bipart ite
b cast
x event
dn str
con sum
tra in
edge ij
br a
zl a
gl cpp
baseisse c
3 325
25 08
default v
bignu me
prod uc
tests v
syn chron
p clk
30 19
tupleij mmmm
solution candidate
27 60
216 34
scr ipt
b ub
Ġ11 14
exp loded
lc jieeet
stoail lcjieeet
greateriiee cl
ev eet
24 52
nodee est
frac in
geome tric
iteratorij ec
f ss
n bb
second s
js v
iteratoripcssee lcns
Ġ196 608
str ie
ir ilb
ge s
ref dst
25 52
0 227
c ks
pre alloc
29 38
sc a
tail room
27 84
min s
get c
dc bnl
Ġ34 00
undo step
traits iilm
40 19
sink ipv
spin mutex
fm dev
ro uter
30 31
che s
op mode
less im
loop s
pro jp
Ġ8 40
100 50
ds qr
vectoridsaidee enst
24 117
30 35
neighbor s
3 306
tra v
41 13
tupleij m
fac ade
Ġ67108 863
speak up
s gt
24 96
ish u
date s
rp msg
Ġ2684 35455
anten na
allocator ieed
26 13
69 4467
codee rkss
694467 381
26 82
p ls
Ġf ence
point iee
valu ev
ixx eeaseos
ender data
mapiy ist
slab info
g fn
r fp
r mode
pkc i
a des
sub surf
inter p
host name
delete in
vectorijsaijeeee pj
e clip
ro xy
sample s
r op
it hi
23 80
ac v
identity ime
flag handler
vectorixsaixee eeemmev
test count
rr or
mu u
al ua
26 70
28 16
ps data
eed conex
thr eedconex
threedconex hull
26 65
point ers
destroyip eevt
bigint evt
clerk ds
opt len
pause param
net vsc
debug f
iiiess eee
32 26
pr sais
r info
v ce
pc ib
pairikc m
tool s
tg psdata
f dir
g ptrarray
sub parser
memory info
insertijrk yeeevn
toiiesaiiee ee
toiiesaiiee esais
25 64
27 14
00000000000 34
compressed list
aug ment
23 87
nodeijrk y
four th
rolling hash
al ert
ll y
Ġ8 444
unt ilin
bound erks
ikxx eers
3 321
cur sum
Ġ3 14
emrk drks
win ning
m dp
z mm
Ġ trie
Ġ30 7
advers ary
3 102
a fv
32 46
27 62
27 96
static spinmutex
vectorijsaij eeemmev
dim ension
readd ir
gnt tab
cavalo sais
w buf
node oper
end pt
ui block
datas et
subdiv ccg
pctl dev
nodeoper ationo
ag f
02 0000000001
2 000000
c grp
z zl
pn et
index erkc
30 28
us ion
]] ]]]*
handler if
weight st
cho ices
which wordem
gpencil modifierdata
m met
mem bers
)* *,
du ty
inf op
subscr iption
g pr
39 50
ill y
3 145
i mos
eeee mrt
erks b
ej x
215 23
ust om
scss d
distributionime clist
50 221
mdeform weight
docase ve
nodeoperationo utput
n do
p len
v clk
he s
30 36
0000000000 149
cert ificate
b size
v ii
sk blitter
ifi ers
pairikll eeee
hp et
id ia
fin fo
25 67
Ġ3 17
pairix ieevt
nv idia
people st
tsolver esais
268435 456
stronglyconnected components
9 187
at est
sp mi
il t
su fix
mb ol
statee pk
multiplies st
Ġ ..
pr thread
29 19
35 39
nodee ln
iteratoripcss eeedeev
vectoridsaidee evpt
prot ect
0 254
a kcipher
f close
Ġ10 88
00000000000 39
e ie
Ġ 383
32 36
ss eevrt
ed lb
29 60
eth nl
mr vl
Ġ144 115188075855872
see k
itercl icns
aip es
party eonst
1010 86
ii msaiceeens
29 17
dequeixsaixee c
operan de
k termios
n max
db v
gf method
igb vf
x norm
tr ied
id ir
Ġ4 39
projp aint
m ieeept
lp ath
eee ul
Ġ3 15
ixx eees
gr and
pri mo
hul lst
3 139
ge ter
23 08
map iddst
022 5
iiieiee s
Ġ5368709 11
h cuts
ll n
23 75
intel fb
pairiss ieeonst
r zalloc
op y
copy magickstring
24 74
26 59
length epkc
pairiicee brkst
l end
ls ia
over lap
rec alc
synchron ize
el in
ev ees
37 22
lock res
toicesaicee d
Ġscal ar
27 58
ap b
iss iee
dge mv
iteratorix rkxps
zstlt idiebrkst
cash erst
m vl
sie vev
toi besais
b av
j ns
v map
28 14
poll ing
mem arena
et te
sr l
swap iy
mal e
j eeeot
40 78
1000 4
state icee
mer g
some thing
3 146
25 63
Ġ4 2950
cal ib
nodeisse pkst
bc v
pref s
trienod eesais
to ije
gfmethod str
l wrk
32 35
identity ide
ib ler
tx d
Ġ30 9
28 02
pairix dee
213 14
close st
datum st
32 39
ee erk
true size
per ag
forwardirk p
022 9
leve le
pairikxiee clerks
0 202
29 18
abort ed
ij t
eth hdr
b mi
vectoriisaiieeee onst
key code
aux ipk
nd is
vectoridsaidee eevt
364 7
pairixxee mmev
bytes used
md ay
899 4
gal ax
3 138
f se
call er
rect ang
cashier ec
ranget sais
sp aw
segment e
blk if
findp ath
d dp
g ating
no od
27 46
00000000000 38
mu table
Ġ542 101086
e fuse
policy imeens
lessix eeclins
]] ]]],
can fd
20000 2
ztr sm
ctrs m
3 135
40 26
sc p
read iievrt
30 11
34 45
34 56
sc md
tag rkt
pl it
e ucl
id ad
gen pd
pm bus
version ejj
ct tz
mp id
27 57
my rs
n hc
15 137
25 72
map issssst
06 24
wh at
theta min
w ep
in l
ev mcs
Ġ12 345
cases olver
round item
hs r
29 31
bc n
pairill ees
v max
ers is
rela xed
f lp
f dp
case id
pdev info
to ver
21 124
40 40
equal iiee
trans for
vktr sais
iteratorixrxpx es
frs material
b ue
sp oint
Ġ4 95
02 16
copyip cs
sge mv
vectorihsaih ee
c gu
str ee
ec iprocal
1024 00
backij leeevdpot
ercept ibler
ationu nit
erceptibler eciprocal
3 144
3 149
g static
p et
str nc
remove d
ac f
Ġ34 0
valik sse
pairikyceee ixers
overr un
functionifbiiee ed
j inc
24 94
30 27
cr st
33 39
tupleij r
nodee pc
ixx eeeee
ym fpci
gau ss
mig rate
audiop ipe
d as
at iix
en se
26 91
eeees g
pairimm eee
pointr s
atiix p
28 42
pairid iec
264 1
s rn
as ym
min val
unt il
numberwith factors
t ele
fin di
35 87
Ġ3 13
erk j
pow idien
mx ser
asy f
chemthan ve
27 50
Ġ7 65
mar ks
cel lst
p input
en vp
comp eeevt
fp u
29 14
sm d
nodeij eee
tupleiji ic
strnc at
m dc
pairid ien
258 21
binary search
pairikd iee
25 59
100 1000
sign bit
rational in
q opt
Ġ 394
vectorisssaiss eeeesa
tiee sais
concaten ate
25 77
25 82
28 38
cee sais
378 1523
pairikm iee
multip le
Ġ8444 3781523
Ġ84443781523 0467
p dc
ed bm
07 00
lib yuv
bnode stack
valipfb rks
p eo
co lo
tp ii
ixxe ies
mapiy yst
constructij jj
ithi mm
3 147
m h
v db
key pair
ioc pf
s gs
mp q
ub idi
node ps
28 45
gt k
output sais
ik ii
pairidd eedeev
iterclip ds
Ġ1000 5
expi red
fro zen
seckey privatekeystr
destroyij eevpt
r it
Ġ 100005
my rb
vert buf
nssckfw tokenstr
valiksse clins
c phy
k bot
y mbol
rx on
lang sais
toiiesaiiee est
iteratorixep xet
ar ker
24 64
87 12
fs ync
ssl buffer
d dr
rb uf
30 18
print fp
sb a
lessicesaicee ept
vectorixsaixeeeex ns
entr opy
wit ho
n en
vector ipcsais
lessii eed
spaw n
32 41
ic ase
stream buf
get pixelindex
row equ
seq lock
fw if
Ġ844437815230467 0000
re direct
io apic
pairie best
equaliiee bpkt
3 153
o saist
t mo
ev c
se onst
24 66
ts o
greateriiee ens
iteripfbssssee clins
d size
g ers
Ġ20 97
rat ios
t et
ar ound
bo b
35 32
37 00
gvariant builder
isprime i
rfc sr
Ġ11258999068 426
h oc
m ite
trans mutation
g n
26 64
bm operator
318 04
cycl ades
instanti ate
v pt
ii de
34 00
Ġ5 13
partition s
vectoridsaidee ps
open cl
iteratorisse ppei
bignumber st
x ees
34 0000000
rhs v
siz ee
force d
solverfvve ps
m sdu
24 98
35 36
Ġ32 1
out buf
pairikssx ens
v enc
iz eev
27 11
27 66
get ii
iiee s
promise iv
auto mat
gpuvert format
m ust
r ap
29 67
punt st
b num
add ii
Ġ6 641
pairikss ssee
Ġ66 51
pairiiieept ev
moveisai meevrt
vectoridsaidee eeec
bla h
traitsicel ec
0 237
re cs
mul s
we igh
rsp q
xb ff
zml rk
32 14
28 44
map per
writ es
scor es
d vector
30 88
44 305
264 7
edg eeee
zlsrs ork
co le
24 73
pt op
mesh topology
25 96
80 44
ixx eeed
400 4
pairiky belb
Ġ55 2
eex cept
ekii ernst
32 60
ro x
list ime
typeers a
av c
pairiddee ppev
wyn ik
f max
g ang
siz ej
022 2
path sais
bul ge
nsst oken
c msg
add er
24 86
24 89
29 63
28 66
edge half
lt n
atch ing
tupleij iiss
pairikib eeeixers
f ds
Ġ50 2
wh ite
f msg
p and
Ġ5 0000
264 9
ekii erknst
add s
27 69
33 16
ac b
list ic
are as
stack depot
cache p
getikiiee rt
swapiy enst
e op
32 22
ret e
mpl ing
25 83
scal ing
vectoridsaidee jrks
022 1
nvme fc
pairiic eevt
greaterixeecl ipxs
manageri zn
8 254
d tp
Ġp adding
to lower
vectoriisaiiee bst
impl icit
27 63
glo b
la ptop
uve lement
messagel ite
quicks ort
d ct
f efae
dev conf
fl age
tupleij pnst
supp lies
en h
28 43
def e
nodeim eed
32 38
iv st
ns ize
pairik b
intr usive
vc uts
4 353
cee epst
bigint ept
ipcee pt
getikiiee rkt
d data
r cf
64 32
ss a
Ġ8 79
itercl iy
Ġ18 79
p edge
in val
count e
neg oti
back gro
pow ers
Ġ33 3967
allocatorip sse
interse ct
Ġ333967 5911
al ps
ub uf
mul i
data ref
backeo e
o bt
x pixelinfo
25 62
destroy image
rx f
vectoribsaib eeeonst
Ġ80 4
pairikcx eeeixeoc
kvm m
beee ixeos
gsource private
cyclic string
bytesp kvmm
adal ine
24 85
022 8
vectoridsaid eeeeeebrt
pass ed
coll is
s va
v eeps
33 554432
bigint as
iiie ces
valik y
at ime
37 47
hashij est
b iceept
device c
boun ded
proble mst
Ġ10737418 23
m rks
if ail
ea p
convol ve
baseitsait ee
f rst
u prv
get v
tx pwr
hdr len
(@ __
mapep pcm
content s
auxij ieeevdpot
6365 44305
3 101
Ġ 381
pair ns
ip ut
28 05
80 76
back ref
ls n
fil t
functionifbii eeeeevt
intern val
3 106
32 42
no free
27 12
high bd
dmx dev
h qd
is ainst
34 25
38 56
tupleij iist
00000000000 40
aggreg ate
pairikmi elb
28 39
function ality
c ptr
ii rkst
start block
che st
delete ia
identity e
ejiiiee rnst
iee eens
char set
com ing
he art
30 54
log i
eg g
zstne ist
pairikxbee ed
4 152
end ing
inter lace
dele ted
alt mode
pairikmc eeec
ccg subsurf
3 168
eee sf
pairik ch
26 02
27 47
pc eet
insert empkc
00000000000 33
020 100
rotate z
0 297
add i
sai eeet
Ġ3 19
cre ds
cal g
expr p
progra mming
t ds
26 15
210 65
nbl st
z znst
to v
me ter
mul x
iteripf ist
4 194
d cm
x gmac
29 37
27 70
max count
Ġ10 32
pairikc beec
vectoridsaid eeeelns
0000000000 147
pairic ce
cp dma
maskspl ine
i ol
ee eevrs
str i
bub ble
8 180
sub a
pc id
mask layer
pixel packet
511627 776
str ea
ic clb
21 123
max row
264 2
Ġ409 7
0 294
where term
vectoriesaieeeeep eet
ipst ats
0000000000 148
mem chr
eg ister
adj list
iteratoril eneerks
k im
s int
point eept
fill ipst
iiie cec
216 93
hid pp
rang eee
pairing heaps
k lp
p sa
se co
25 71
42 17
tupleij ll
106 127
pairix ien
Ġ80 8
pairic ieec
pairikcc eed
ejr ieec
3 107
n bt
v co
vectoriisaiiee bee
26 88
dat at
polic er
sec item
cb q
blk addr
a ul
sp s
ie bt
25 88
iy y
part no
cxxneip est
pairikcx esais
ptre ixej
bellmanfor di
t dma
render result
slice d
pon to
3 196
e ight
k j
ip ci
inc i
constructie jee
collis ionobject
w bc
25 86
58 64
Ġ17 92
ba k
dtcl sr
product computer
tupleijii eee
pairikix esais
inner productcomputer
d lt
l dexp
26 51
30 32
60 40
ds um
pow xx
valikx eeet
tree nodest
pairik lb
25 06
29 59
m ing
sp c
25 85
iiiee eeqerks
vectoricsaiceeee eebt
j eeevn
pairikli ens
mloo ptri
33 35
writ esize
traitsicel ed
3 324
25 03
pr monitor
26 50
28 46
mod xx
Ġ40 80
rm h
m hz
28 27
point ebrkst
ho wm
eec vbev
iy saiyee
211 93
1500 0
person ec
go ii
tr as
27 59
34 34
vectorixsaixee lm
insertij leeevn
root s
backwardip sss
pairikssbee eqerks
clz ma
3 326
32 43
ad o
vectoriesaieeee ppev
malloc n
charmatcher ist
d sb
j ie
re lat
add able
max index
cd ce
codee rki
var y
em in
referenceis c
Ġ3 64
usb ip
epk mpmet
miss ion
v rst
er ange
ij li
global s
vectorifsaif eee
nit rox
p ce
in pu
ig ma
27 72
clerk js
corr upt
aipmmm en
3 150
27 71
rt cp
dl id
collator spec
f im
k q
t scal
30 43
pairikicee ptev
25 92
vm id
Ġ5 23
fc d
rf reg
tr ec
switch tec
erasee mm
hal btc
pairikyy ee
nipdm deet
se ive
27 08
adjust ment
218 84
sv j
mu ic
ifr u
degr ee
32 19
Ġ4 59
nss arena
899 7
nodeijrkssee eps
kstat fs
ur u
28 93
punto ssais
o j
is land
ret it
ip ii
cur p
77 77
main en
zd scal
control block
ek ist
getik ist
loaded module
angram s
me shr
34 40
list p
Ġ10 28
ssl sessionid
lic z
analog ix
sslsessionid str
0 239
25 89
css cal
28 55
28 52
out liner
storag elist
witho ut
pr fb
3 152
ee js
29 66
sc iss
eb rks
cal css
fd mi
vectorifsaif eed
ico ls
iiiess ers
listis ssaiss
twod ee
32 47
ct pl
ns id
pairikssb ed
constructissjr sseeevrs
m epfs
re connect
ke w
25 04
26 52
33 38
ca j
k r
con transmutation
for b
un wind
Ġ2 14748
26 61
char t
log levele
024 4
iice brkst
meshr enderdata
v free
28 15
db s
pairikiss eec
cole qu
3 108
ad hoc
class es
array ijli
29 20
30 17
bt collisionobject
eb edpot
pairikm hest
resh ape
ji ang
u j
y l
24 76
29 46
dr iv
ej pn
foo j
sm score
xbf c
b sdf
lm ns
pairiii erks
lap b
hy per
vectorimsaimeeee lmns
director y
Ġ3 18
211 88
210 80
lazy logmodule
c buf
str m
str etch
tree element
iee eeec
21 173
35 30
61 10
aip kx
gpu material
222 64
query i
flo a
aipkx pxxet
b ideept
30 26
po utput
su shu
change set
tv norm
pairikj ceec
Ġ2251799813685 247
deleg ation
c endev
stream info
pt eot
29 44
30 55
ps ock
hel pers
idde desais
pairikciee mmev
stall s
heart beat
0 238
q cq
26 03
segment ee
vectoridsaid eeeonst
ik nst
magic ptr
3 109
r len
32 31
cast ins
me try
30 47
pos c
Ġ10 25
sq re
ttt sais
ch map
typ header
29 21
220 74
functionif m
stmp e
x illy
call v
base mat
35 64
max damage
fb c
usb atm
basemat hobject
2 1303
an cee
idd ata
read blob
ib port
aip em
iicee eevpt
iicee eevrs
quant ization
ejrklee rnst
Ġ1844 674407370955
f sais
n gene
x pt
ct lblk
sp ll
ur s
ph as
86 20
215 04
pa ar
xbf e
encode d
bellmanfordi xe
mo tu
ol ds
22 454
min st
queue ilst
849 018
x be
iterator mmev
22 453
34 50
47 67
per ror
eeed tclsr
228 34
a jj
h yst
sub tree
sub eq
29 55
35 27
none struct
testv ass
pairikxiee eqerks
moveisai sseevrt
ejiee eonst
iiiixx i
e ies
w ins
32 44
ide t
key ring
Ġ10 00000000000
am ixer
nr u
config s
render er
0 233
27 10
mod xxx
210 83
greater ice
220 73
3 322
k wqe
u ms
Ġ 333
table i
218 83
xbf efae
t ip
lo la
30 77
ij i
prime i
dm cu
logmodul eens
9 504
c co
in coming
29 10
ec m
pairic iec
complexide c
ikc ieers
triee lb
il da
position st
nodeijrk ieeeps
sm art
216 94
zstne iiiebrkst
used primes
greaterix eeeeonst
xb nd
detaileq ist
writeblob string
erv ice
vector inst
212 96
pairikxceee ixeox
tupleijiiiee es
categoryipk xenst
greateril eeeevt
r midi
ve cc
co spi
di e
iie saist
ij jsaij
hashtable ijjsaij
ib qp
au i
Ġ35 7
pairikll eeec
want ed
vectorinsain ee
congest ion
hashtableijjsaij enst
32 52
ad st
un pin
se ar
26 74
29 41
29 54
28 86
ctr mm
yy stackentry
216 05
ztr mm
zyn qmp
galax y
b tp
ag ick
22 643
22 644
28 47
eem rki
214 13
364 8
cons st
t ong
25 98
26 86
stis c
basein sain
uint s
longint st
rap l
3 169
nu me
25 61
25 90
30 23
Ġ9 76
213 13
228 33
nest egg
l se
il en
Ġ2 147
35 42
vectorisssaiss eeeec
fw s
writep age
5590387 37
s ns
25 95
min p
Ġ10 56
02 32
my hash
valipfb iiee
quot ient
cw nd
erat ost
2 1503
Ġ 592
el esais
25 70
29 62
27 89
get lb
40 37
bf qq
treg isters
nodeid lb
toc heck
tr dma
en er
cont ig
comp s
max length
membuf ije
216 20
ring buffer
piv min
defin ition
re ase
nc a
334 7
y ns
ii ens
22 263
big nst
key ing
section reader
214 04
elf sectionreader
wol info
toime saist
n au
t ing
pc k
Ġ5 16
20000 10
mgs lpc
pairiff est
cl ou
33 18
pip fp
pal ette
initializeemrk d
3 156
3 171
i issest
as r
rs n
215 12
214 97
ich ar
pairikyy elb
Ġ90071992547409 92
advert is
3810 000000000000
eeeul mme
i zn
y ou
nd p
backerk j
sq e
Ġ28 48
216 33
go to
pairic ieeot
conversion l
Ġb int
37 20
Ġ8 59
bt mrvl
bound erki
cb cr
in a
33 31
ij rks
iiiee js
insertijrk deeevn
pkt gen
soft body
lot str
4 127
26 05
37 25
atch er
44 37
greater i
av frame
ssp sset
vdd ci
bnodesocket template
ee ie
if lag
ity pe
33 36
35 10
Ġ32 3
Ġ7 67
aip mm
3 323
l it
ib st
Ġ32 6
tieij iieest
assignemrk x
32 10
fp f
26 68
30 13
pos itive
pairiky xelb
ax p
permutation ip
Ġ comp
iteripf iiiee
tree it
Ġ56 0
pip dp
vectoridsaid eeemiel
quer yst
lessissesai ss
f usion
28 54
my c
ee jrks
fr on
zstlt iicebrkst
toixe saix
valipfb iieec
fl avo
hu getlb
Ġ10000000 01
r ho
r lc
stor der
27 85
35 48
nodeix epst
Ġ38 40
stru stdomain
reverseip cevt
erkl jeert
ns strustdomain
34 37
Ġ17 179
400 010
place ment
zip ped
tast e
n cm
it imer
Ġun lock
min stack
33 37
36 32
go ing
tupleijoiee sg
kd treenode
srn amt
8 193
ge stu
25 91
icee st
1000 8
field metadata
threadd ata
node input
list iisaiieesais
i pns
pr j
26 73
34 22
34 41
isse s
coales ced
pfb pk
cit iz
water mark
arist a
3 176
4 126
mp kc
end p
chi pp
166 57
tupleijrk meec
iteripfb cc
want z
aipy my
p idx
in use
33 30
tp a
bm attributes
eucl id
w begin
in w
ic ces
zm lst
in ct
cur max
Ġ6 80
valipfb iieeeevt
t q
v disk
do ff
26 01
Ġ4 44
rk sspmi
37 42
dr x
Ġ78 4
sys v
pairikxiee d
d mem
y x
not if
29 64
34 28
bu stype
Ġ40 22730752
iteratoripcss emiel
Ġ26 36928640
subscr ibe
eff ci
b box
26 00
022 6
multiset issst
ejxx xx
t if
w ac
17 283
edge base
vp dma
iteratorixrxpx edeev
w kill
ide c
min r
35 26
baseip plet
dp ms
final ize
pairikccee eqerks
iteratorissrssp sses
floa tregisters
3 342
32 15
ks wap
29 75
Ġ32 7
Ġ9 60
write w
card info
mid str
mov ee
Ġ400 020
auto fs
y min
on iq
35 66
ens oniq
second ary
xpr trdma
advertis ing
gestu re
min id
iisaiiee esais
bl q
zu o
0 236
p ma
all y
se calg
te ch
pkc p
brk t
access ible
scan fill
rec sais
erase block
pose s
interface s
resizeem b
shrink er
ioff st
aipymy en
ix rxpx
seg ee
sortip yn
3 105
pairixxe ist
gu ality
traitsic eeesais
sv ga
ijj eest
eeas iiieers
imagep arameters
chipp port
e ieee
allocator e
26 85
33 60
cur d
36 28
ap s
evt chn
su mo
Ġ34 08
4 124
c array
idee st
ice saist
34 79
36 30
by ten
prot ection
svd q
byten r
4 129
l sb
ex pos
iteratorip f
26 79
27 74
complex is
sq uar
iteratorisse s
gh d
juggl ers
c z
Ġb tr
27 79
fr c
partition sais
maybestack arrayi
Ġ92233720368547757 44
listic erks
e bitmap
ass igned
bo id
star get
crypt op
nodeiy eot
rhy me
constructixjrx eeevrs
_ ${
pairik h
ard v
ejrk meec
task data
iptr f
3 166
n gpio
Ġ refcount
32 11
ve ll
em ale
point ms
75 11
pairikxcee neerks
Ġ36 7
Ġ33 8
cycle collection
produc er
0 234
b eedeev
l tr
u cr
eee sh
vectorixsaixeee brkst
orith midstr
batch cache
projpaint state
secalg orithmidstr
) *),
c scal
s ap
ig t
dat ai
info esais
lessissesaissee s
solve iiii
vectoriesaieeee eet
f arch
at p
Ġb ig
ir i
bd spac
cifs fileinfo
trav erse
c zy
Ġ d
34 30
es h
500 50
mx i
compar eeeevt
v in
el xns
ab stol
ss ics
34 47
38 40
vectorixsaixeeee elxns
backeo y
zh en
eeeepf brks
transmit ter
blur operation
im mes
sum x
gen i
gcdxx rxs
wii mote
3 104
p lx
s ip
Ġ 704
ee iee
26 62
34 77
page vec
deev rt
cord sais
z scal
30 49
28 01
28 000000000000000
pairikicee clis
f open
be bob
bit stream
hashing imeens
special ization
attemp t
segmented vector
g state
32 45
sym link
beat en
is ert
var ithimm
getik xx
reserv ation
lw tunnel
allo cev
resultpc pf
resultpc pd
execution group
Ġ1061 109567
k rb
il x
27 65
sw id
pp i
clerk m
query ii
t an
en closure
pr d
29 43
28 12
28 53
59 93
ej xee
bound vert
color manage
fw tty
insertijrk meeevn
version num
ek xx
tupleijx iieest
8 788
cmp kcz
node in
int ers
ag ram
Ġ3 196
024 1
wa ker
in progress
lp i
36 25
hashtable idst
priv acy
process v
brcm nand
excl usive
wmgizmogroup type
x eeec
Ġ4 01
rt n
0000000000 159
Ġ34 6
bind ifst
p oc
32 62
ee si
in compat
pr une
table in
36 22
solution ve
vktr st
lessidee c
3 177
b cnt
x color
un ner
ue q
eeee clerks
iie brt
rt entry
sa mpling
Ġ214748364 4
3 327
c port
d scale
iterator iest
iteratorip eeet
eeee x
34 33
36 27
fw spec
tupleijoiee s
2427 52
calcul ated
Ġ ueq
29 15
29 78
28 61
hashtable iy
ysaiy enst
listiisaiiee est
content infostr
Ġ542101086 242752
hashtableiy ysaiyenst
d cmd
m fw
r dy
ve lo
int c
27 94
mod ll
am ent
pairidde js
pxm it
sftk db
vectorimsaimeeee pm
26 78
27 77
referenceis b
300 7
ecl i
nssckfw sessionstr
r ce
Ġf rac
array output
pairikxb eeec
iptr l
Ġ4 28
28 56
ixe oss
iiiee d
nodeisse pks
heapip dn
ifsaif eesais
identityime clerkm
eeee els
05 31
ha o
cler ss
coefficient s
f air
m allo
is ect
ev x
sh lp
curr ency
og g
ijoss ejeeest
32 18
sort er
wx fac
ijoss ejlm
advanceip ilevrt
cl el
string icst
30 84
34 29
znsolse b
110 0000
strip es
iteripf issss
initialize in
vectorifsaif eeedeev
fracl terks
4 134
l cnt
v printf
no of
un its
pad ded
dat ac
baseip eedtcl
forwardir a
dee bt
su ci
dav inci
1697 40
hen es
f stream
st t
00 12
ol di
29 68
spec ulated
reg cache
nodeij ssee
cxxeqip dst
wxfac elayer
u cast
x destroy
base ins
mul a
28 63
34 36
58 74
med sur
pointer ins
ik bd
048 192
endep l
distributionixe clist
far medsur
Ġscalequ antumto
eeeex rt
f nv
33 53
35 23
sum y
dma e
400 400
vertex sais
suffix es
shortalloc iylm
lessim eec
b set
c ung
x pxeet
z ung
ext s
ip ort
28 04
34 43
03 15
Ġ1000000000 00000000
copyipk xpxeet
ir clb
26 89
iie c
sftk attributestr
f ight
i qs
s ulll
ab ase
ss fl
ss sci
ss isc
ss fi
ss lf
ss dl
ss fld
ss sds
eeee sseeec
ij pfssiost
map slot
unc hec
tupleij znst
su cl
su il
su ill
su cs
su cll
ssc dc
sus i
sus l
sus ll
ssd fl
ssd lf
ssld f
ssl fd
modul ation
sscsd is
sscsd sc
sscsd isc
sscss dssc
ssfd l
ssfii fii
4 135
l elb
30 61
render data
expos ure
d org
s org
gpu uniformbuf
virt chnl
ssp sseet
cg x
Ġ10737418 16
g reg
Ġ end
26 58
40 53
vectoriisaiieeee edtcl
maybestackarrayi cli
x on
32 49
sub h
28 13
pairix sses
vectorijsaij eest
id amax
point idest
Ġ100000 1
vali kst
it d
node b
il eeot
pairiiie jrs
tupleij sseest
aux ipkst
162 169740
og gpack
vv v
Ġ8589934 592
bigdec ins
tupleijol eeeot
n type
p dd
ce p
ix ss
26 06
bu t
48 29
nodeile ot
fact s
35 25
36 39
57 78
put c
dt cldtfp
0000000000 010
ejossee rnst
lcn phy
nssarena str
f array
Ġ39 8
px d
Ġ214748364 1
ee bec
if est
27 68
34 32
io wait
Ġ34 8
pairikcx eeeixers
fabs ff
onec ell
automat on
d eevt
i window
clea rex
pairik eeest
max time
Ġ100 8
fil eloc
shi m
forb idden
cast ils
29 16
27 87
fs id
04 50
xm alloc
pairidiee brkst
4 123
o ve
24 120
26 66
ins ns
bigint ist
96 52
irso e
o wl
el ock
27 80
be fs
pst a
nodee ns
pairikc beeee
uint c
opt val
need pair
dtr sm
named group
greaterii eevt
constructiyjy eeevpt
eratost henes
r cnt
sp are
set st
34 27
Ġ6 1440
iteratoripj ec
oo o
0 253
an sb
29 51
33 17
33 19
38 64
40 38
max size
ej dpt
am ble
vectorisssaiss eeeot
nodeiiee ed
match ins
chro ma
pairic cec
Ġ60 8
0 267
4 133
Ġ 342
ptr era
ash fs
27 86
30 14
w mac
in list
ve loc
sp ring
impl in
55 29
67 75
pairikc belb
deallocateep sa
300 010
flo ore
tpl ijeeee
5 1000
f emale
34 38
buffer in
coll ada
vectorissais eec
3 155
str sm
27 05
40 64
max cnt
600 5
com bo
ek x
consum ed
x eeee
30 79
per ime
prim ex
sieve of
gau ssi
mallo calloc
a asais
as id
Ġ4 55
vectoriisaiieee bec
tc n
400 28000000000000000
proto cols
command option
wc id
27 73
28 71
get max
vectorisssaiss eees
ieee brkst
mallocalloc policy
4 120
17 502
ch tls
29 77
35 40
ij sselb
greater ile
dw mac
eoss jeert
layer collection
c us
Ġ at
mp du
is d
ce ile
33 85
constant union
vectoricsaiceeee lcns
doc g
ejrkyee rnst
tong a
ops lot
34 57
37 44
ej dddee
dt d
edg eeot
Ġ77 5
cam ss
pairikmc ens
64 64
el lb
bm opslot
pc st
baseip fet
lda fb
qi an
socke te
dyn str
m op
me ye
spl iceest
pairidx es
a read
d lb
k ms
test id
400 6
infin te
squ ashfs
lru vec
sgemm nn
r pi
cl ascl
pairii de
zl ascl
cf a
inv sais
ord in
sameis a
< _
mo gr
27 04
pairis sp
space clip
swapip ls
hashe s
mogr ify
d de
ma ks
baseip jst
79 16
name str
lang s
pw db
3599 627
v reg
ssee brt
rc ptr
pairikm cec
gb audio
pkv ee
iteratoripj e
xdestroy resourceinfo
ad fs
mp a
ge to
cr mf
prom isc
free pv
bytes ex
30 44
33 71
36 37
37 36
len a
helper issst
pairiee eebrkst
infin ity
027 4
toicesaicee elb
iiiess es
expi re
unchec ked
un signe
30 56
pu mp
aux in
extract ion
combin ation
3 305
f is
st c
al en
ar se
nodesepp sss
pairissss ee
iteratoripcsseee bt
food v
g cej
33 58
forward isainst
lydi ap
compil ationunit
gcej pk
m sc
tr eap
no do
28 60
100 111
znsai fed
41 32
fill rect
cpc ap
3 160
3 151
k ing
Ġ const
con sec
ip cs
28 59
dr wmanager
low pan
error c
028 9
pin ned
pairikdd eee
h ay
r z
Ġ chkxer
un ichar
gre al
357 37
product term
bracket s
erky jeert
0 273
17 551
34 55
are asais
Ġ7 70
pairid ie
1007 000
iteratorim eneerks
ar er
split info
28 09
37 38
lessiiesaiiee esais
34 54
37 17
Ġ5 09
ipkm enst
mp ist
sp sseebrt
334 4
tran sp
disc rete
zer op
pairiklle c
ssssee bt
ghook list
anrm to
pairike cest
veloc ity
b srq
o ce
u z
w cd
lp m
cr ush
34 18
90 55
b bt
b stres
x nrm
al gs
cmp inf
30 42
info eej
nod eeeot
bound ip
tim eentry
pl eebrt
tm f
xbf d
lj ns
vectorijsaijeeee ljns
named timeentry
jii eeevpt
a no
st g
if p
ff i
audio format
insertip ln
3 158
4 245
t max
cl ex
Ġ%__ _
eeee ss
ej pfssiost
forwardirk eeot
constructis a
match sais
evalu ator
identityisse clerss
aipmm met
3 185
b ath
Ġ5 14
02 64
iteratorix eet
024 8
zstlt ij
loopip lln
datal ist
partitionip ssn
pivotip ssn
firstip ssn
Ġ879 609
3 154
25 99
34 35
Ġ8 16
point it
sd c
use arch
364 6
vectoridsaideeee sb
29 90
27 92
sh dr
39 32
net addr
210 44
fmt desc
real tek
pairid ieevt
pairixxeee onst
ssl namedgroup
brotli encoder
sslnamedgroup defstr
4 131
c sp
f star
init ssp
28 94
88 51
eeev st
aux ist
eras esize
Ġol dnstr
ixxex es
qr tr
initsc p
Ġ100 5
pairiklceee ixers
collision algorithm
p dp
st itch
25 94
pr imest
30 48
Ġ4 33
35 50
bigint cec
Ġ7 00
pass list
selectip ssn
8 191
r limit
r aster
le tra
ip fb
ul s
27 53
27 76
30 15
cxxeqip yst
perime ter
0 257
3 181
3 345
ee oi
fs data
Ġ12 50
ld f
lessix eed
ms l
adjust ed
pow ero
valarray iiesais
matrix object
caj ero
0 286
pairixx ebst
210 81
valarray ided
cor ed
bg x
tic ks
d stream
int esais
arr s
context e
zsteq i
pairiee eevt
Ġ86 7
e max
r phy
32 66
tr iec
27 95
35 89
db free
party e
334 1
dfs iiii
isa max
ian calendar
enumer ation
5 341
try lock
33 14
io state
sg list
arrays v
Ġ72057 5940379279
d info
f ns
t mm
ers istent
29 52
swap ij
04 16
029 1
pairic ieeonst
iwl wifi
md sc
ixxe cesais
ioc fc
grad ient
collada fw
y b
nor e
16 557
un bound
30 16
sec ret
dfs rst
moveirpf brst
roc ks
greaterii eeeet
cant idad
phas ep
waker ef
m orph
le m
Ġ3 86
bit reader
Ġ10 16
cashier es
2019 504
ki instancestr
lu ma
nsscrypto kiinstancestr
2019504 35737
3 320
f ans
28 67
bigint eeot
test epkns
sock opt
crypt len
cj eeet
vectoridsaideeee deebt
3 197
p wc
t num
u table
ser ks
pairikx sseec
ali en
my vector
btp ersistent
btpersistent manif
85 22
xk bf
922337203685477580 7
tpl ij
t pt
Ġ1 492
Ġ4 00000
28 03
point ept
ej nst
Ġ9 00
Ġ67 2
Ġ230 4
pmul hu
k ll
Ġ next
ee ls
is srssp
rea dev
37 28
mod al
lessiiesaiiee aserks
Ġ9 80
file p
inter active
rectangle sais
iicee sais
direction s
propag ate
d psi
sub l
to ide
py err
pr g
35 22
35 695
us d
pi a
basei clb
vectoriysaiy eeeeeebrt
ple s
fd di
order sais
tupleijii eeee
lu dz
0 230
f chs
v logical
ref ill
iteratorip gst
mapp ings
aco sl
irx ns
rename token
iterclil pleebrt
32 68
Ġt h
is in
29 56
35 02
get string
bst w
ml me
patter ns
w ow
111 100
anim ate
qual ifier
3 173
ii r
ro am
eq e
inter pf
merge sort
cm ipci
334 0
chunk hdr
horseinfo st
dpc d
add op
me minfo
39 40
cap i
sci ana
flo od
znsaip ssed
hoo ke
setimage progress
fastr pc
c io
i res
str mm
36 23
37 26
38 41
028 7
Ġ33 1
regulator y
0 231
bee eee
ob js
mar vell
tupleijoiee se
complexidee d
quant ize
vectorijsaijeeeepj et
35 31
buffer pool
dtr mm
giv en
4 147
m sais
m ctrl
st ac
cee bt
gen range
aipy myet
spo of
sslbuffer str
9504 000000001
pn or
ct m
Ġ8 96
erks c
data et
107 16
chan spec
vf db
inqu iry
cellcontent sais
4 229
u ea
pop v
vectoriysaiy eeeelns
ow er
cost s
constructijjrkj eeevpt
spectr um
9187 201950435737
9187201950435737 472
3 163
p btcoexist
is ol
fc ases
rat s
w mem
32 55
27 93
36 33
36 87
pst at
Ġ7 2340
baseipk met
params str
some class
zong ler
constructie jrk
3 167
4 128
x u
32 51
Ġ4 587
34 19
be f
max burst
up load
category ipxenst
v imc
oc p
Ġ4 97
39 68
off line
Ġ10 26
flow table
Ġ90071992547409 91
3 157
d di
ev p
38 28
40 45
kt op
item ee
iel n
nsstrustdomain str
4 130
32 12
ar ms
entry elb
iz amax
26 90
80 42
map ilst
get num
virtual pixels
el qf
40 27
47 80
vectorisssaissee aserks
deallocateers a
scan ned
dp d
gr ab
v pu
32 40
35 35
info e
ca den
solution e
prep end
lon gnu
4 125
sp on
Ġ4 58
34 31
are ar
abb rev
j e
my tuple
4 122
Ġ 377
32 13
vectoriisaiiee cee
ep v
30 53
print ev
referenceis d
data ec
pairikss ceeee
258 40
pair hashst
ir ds
rs vp
28 57
bt t
87 0000
364 9
bigintg eerks
h ctx
30 66
us able
au ther
400 040
window s
pairim mec
Ġ8589934 588
repeated field
bigintas ex
Ġ17179 869
cored ump
p dma
v st
w f
32 61
at able
to f
40 21
icee rksait
info ee
Ġ35 5
auto i
meas ure
k id
rs d
27 91
27 01
30 52
set pixel
cas he
pairiss xest
mapiss i
trienode st
vdbe addop
3 162
4 281
m xt
27 78
Ġ4 12
Ġ4 47
print buffer
39 44
40 51
su mii
Ġ56 8
pip apo
rkc m
pairiss ieec
pg prot
nodeem rkcm
lessije clerkjs
he f
37 50
pu da
dv d
pairikycee deev
pairiix eee
ban ks
toicesaicee c
w ise
at eej
iee lb
1000 16
flow s
bignum est
Ġ34 16
deleteis d
eeeis g
iicee ernt
eeeessee ed
iteratorilrlp lec
4 121
4 145
h ad
add x
pt iest
read erkss
ft l
up call
adapter controlblock
damage s
dpn i
d ps
j rm
en i
ev ict
max ii
read able
dt micldtfp
flow label
pairid besais
group sais
basee erkns
cp g
copyipp xs
k uid
m evrt
mp isais
arr ange
29 11
45 31
Ġ50 8
iterclip kst
constructimjm eeevrs
Ġ1844674407370955 1615
clou d
0 258
t dp
ep os
lesside clerkds
greaterii eeeeonst
tcm u
k iss
35 44
dp ipe
pkt info
location s
tupleijiiiiee sais
tgp d
p erceptiblereciprocal
norm in
ptr iist
15 589
int ercept
Ġ1 488
ep d
pro gs
35 34
ho str
reg set
seq id
Ġ200 4
instance s
driv ers
j me
ee erki
is possible
ret len
to y
ur ee
27 51
char g
35 17
35 38
db m
pairikssiee esais
Ġ35 6
eeerki ot
3 329
b gl
c eeeest
n cols
in active
op usc
35 47
09 48
49 57
traitsicee eln
lr work
2949 9534
input edge
ca am
lc p
xc erknst
ek xcerknst
ldv sl
optim al
metal conversion
getikxcee rt
getikxcee rkt
mcb sp
ekx cernst
opusc ustom
3 183
w data
Ġ 372
co ins
pairill eevt
lan ge
k ar
u api
cmp e
iteratorip zn
36 76
deque ibsaibee
backe b
cntr l
registr ation
applic ation
hooke ps
cmp ii
34 14
35 46
baseip kmst
length ip
iteripfb ssss
fil er
mn gr
i od
s ms
move d
28 62
35 29
referenceis e
compare dist
size image
03 10
dc a
pairikyy eee
gene ve
4 140
nt ax
34 44
ac count
45 00
vectorisssaissee rs
am b
icu service
pairikcx eedeev
lessidesaidee d
ling er
p cl
z mi
32 73
sub pds
eeee eqerks
28 91
33 10
ssee onst
Ġ16 106127
pairikm ssest
nexus info
ee xt
26 95
33 54
cx usb
bigint mlerks
w at
28 89
34 66
33 65
40 62
iteratoripk p
ush u
iicee epst
iicee eevpst
font blf
iic eeeepst
ejeeee ernst
clzma enc
str a
struct combla
node ms
28 77
34 51
bigint ieee
Ġ10 47
211 87
024 9
edit mesh
pairikn iest
g si
p ev
32 70
tup s
33 51
38 21
deallocatee pfm
seg rs
inv ersion
compress ion
trouble sortrst
distributioniie c
Ġ11258999068426 24
sub list
il oc
mul dc
sw ing
pairixx eeptev
tupleij rxs
dr hd
Ġ6 1489
sy ntax
cas os
pairs st
punto st
charact ers
pairiy iesais
fire dtv
3 165
d cs
Ġ 388
as pm
ass o
normal i
ir ieeevdpot
sub reg
pairikcc eeot
iterclip ys
pairikj cens
foop v
zstm iist
compareprime sais
opencl device
myc derived
0 285
l itt
32 56
28 68
min num
flag ot
Ġ6 64
triple sais
tupleijiicee s
d len
ii p
vectoriisaiiee bees
36 80
Ġ8 20
bignu mes
real m
213 90
iteriz z
scr vert
Ġ68 8
descriptor s
kn if
bipart item
t dd
re voke
pro v
te ar
inter fac
curve map
d rot
g link
h dp
l io
r isc
y cle
39 17
spec ified
image inlist
147 497
157 174
vectoridsaid eees
pairiky bee
tupleijoiee sc
squ ared
kx eebt
Ġ245 76
tele metry
17283 8076
oce an
4 345
b cache
32 58
is ok
28 78
36 38
75 30
027 5
box ed
ftest cases
respon d
wlan device
4 161
r ii
re onst
ex pl
se tr
sp ur
ll work
xm pns
vectoribsaib eest
fn imeens
dispatch er
near by
4 142
d iee
e xxx
sub t
bo y
true type
57 58
60 50
znsirser f
assignable irx
ln a
20000 09
toissesaissee elb
encrypt ion
h its
tr atio
ii ien
and ard
sp p
34 52
35 54
37 39
sc py
col cnd
ceeev pst
mapim ist
n node
y dev
do i
Ġin fint
35 21
seq s
solvec as
v hci
w ho
32 81
con c
27 99
28 06
34 48
list ile
rks a
key config
baseipk yst
0 266
v ll
34 72
lessicesaicee evt
insn pp
vectoriysaiyeeee py
dynamicpaint surface
iszero ev
greaterice saicee
x cursor
32 90
ir tual
ide s
35 41
mem array
67 18
nodeii erks
saic elb
static i
dce ip
lru cache
initializeipk xeevt
scholar ship
gaussi an
ers i
dev attr
37 52
Ġ8 32
isse c
fw ctrl
coun ty
slave s
endep d
s ick
t tusb
ii l
sw ip
complex pis
Ġ10 50
pairikssiee ot
pairikl ieec
roun de
amov dqu
access ors
met ab
pairikciee edtclsr
n pcm
25 005
26 75
37 27
ans ion
pairikss lest
doublecomplex pis
helper icst
ctr ls
ijeeeeevrs a
subdevice s
nodeijr ieeevpst
f te
y cbcr
it asc
cmp ec
con g
Ġ4 85
33 92
sc m
dir sais
nip jmjet
sorted primes
iix eiee
tif m
litt le
32 54
do ut
35 49
list a
code point
dd cjeeet
ik ib
inserter kl
bla de
dispat che
stoai ddcjeeet
k ceot
p buf
ee pns
29 61
xfs stats
rational ixesais
lessif esai
xin xi
dispatche pii
e ieec
p adding
cmp saist
an not
26 87
35 45
50 500
]]* ),
Ġ5 376
sort pii
300 8
pairikib eedeev
pw wn
3 175
r igh
ai ii
if la
ns q
28 81
39 46
364 5
334 6
pool s
datas ets
pairiyy ee
cxxeqipk xst
b au
e u
g j
iee eqerks
ge th
tx rx
pairiss x
cy c
ni an
4 148
c anon
f lock
m yy
Ġ retry
ss sseec
37 34
67 106
left most
ite mp
mlx fw
400 29
pack ing
ixxe ieee
pairiklcee clerks
tgt port
5 140
u an
entry sais
pr z
29 65
28 85
get pixel
iisaiiee vrst
swap iisaiieevrst
cxxmii pn
runtime i
sdi m
iteripfbxx eecl
bfs ele
ioff g
glog domain
clearex cept
Ġ /
pc net
37 40
38 39
allocateers a
iiiee et
iiiee eeonst
158 31
task sais
vb g
testcase ve
compil able
pairiidee onst
b eed
x sc
con ns
ter y
ph r
39 26
nal isais
bigint ixei
der egister
hal fp
44 23
vectorisssaissee asest
swap count
rc b
pairimm eec
pairikxb ens
Ġ999999 99
numo f
itercliy ns
init p
ig rade
26 63
29 53
Ġ4 07
33 86
35 19
45 64
tupleij jj
sd m
mode m
msg q
024 7
insn p
Ġ655 34
detect ed
1671 1681
29499534 213
3 191
4 118
b z
33 50
40 32
Ġ3 136
hw q
vectoriysaiy eeeeec
exp ansion
sortip ssevt
iteratoriy edeev
5 351
add pds
int d
sub i
sais c
36 31
get magick
mod ified
valu eev
sg id
455 157174
gz file
kip ped
4 137
me g
min ist
read b
wr msr
pl eet
lessitesait ees
4 146
eee sb
35 51
cc sais
ni pn
ffe ctor
ess lb
b ic
pt ed
cur val
37 43
trip let
iiiee nst
364 2
foop c
m issed
27 88
pc d
39 397
45 50
bit rates
pairikss cens
ms nd
iteripfb ff
task parallel
Ġ33 9
divide nd
cai de
damag erkss
b count
g ive
add it
60 65
nodee nst
category ipkcenst
graph iie
524 288
pairim me
pairiklcee deev
c se
c idx
c info
p me
p llet
is ssaiss
is spsseebrt
ip vt
int st
set key
ixx exec
valarray is
writeblo bbyte
c spot
i buf
29 76
eeee qerks
mm s
prime tochar
ld isc
iiieiee neerks
resizeem rks
chun ke
3 172
k regbase
no mem
kc mpns
00000000000 45
0000000000 011
ts n
equalser kcmpns
dmar ing
i ans
l ro
v chan
35 28
point idesais
Ġ35 0
Ġ39 9
ptcacheedit key
effci ency
sieveof eratosthenes
r mem
base iz
lo pts
40 65
count a
vectoriisaiieeee rs
ps kipped
pkc pc
fr iend
test zero
nod eeeonst
fe clearexcept
pairikssb eeeot
wo lopts
pairiksscee ed
baseinsain ee
d channel
q we
Ġ 345
26 76
37 58
38 30
strto ul
cycl es
pushrelabel matching
r gr
32 78
ct an
tu r
fp sc
37 48
029 8
nss rwlock
gap s
ztv st
citiz en
2 1282
o om
32 63
un mask
25 93
27 00
30 73
37 31
gt im
ill ns
300 2
cro ft
hop croft
hostr cb
gtim eval
t mc
x rocks
z gt
it copy
re k
is geometry
pairi g
28 08
33 11
pairixx eln
js context
module s
lv ls
Ġ136 23
le tras
un bounded
38 25
test n
itercl idns
cre ated
foop ii
re mov
inc q
29 09
min str
itercl isspsseebrt
fn l
valclip sssseebt
bnrm to
Ġ42949 66
d ur
w v
re trans
dev res
read reg
device clev
ilin x
4 150
t on
t data
cl eps
rb tree
35 79
memmove pvpkvm
process ing
constructixjrx eeevpt
ee erkt
de activate
class compsais
33 56
70 10
iiie sseec
dens ity
wmkeymap item
ce dr
27 75
35 18
po storder
test bul
mt ip
operan des
cedr us
testbul kswap
0 295
b channel
l mac
hs h
36 26
iff st
Ġ6 25
log ger
idden st
334 9
pairiicee deev
nodeijr ieeepst
3 174
3 170
4 227
v eet
28 96
34 42
33 62
36 17
36 20
vectorisssaisseeee ssevt
nipy met
nipy meet
4 235
double v
37 41
be arer
56 59
swap iddenst
inv xx
order e
Ġ214748364 0
wrapp ers
c set
p lt
sub pfs
crit ical
39 25
39 34
57 70
Ġ5 15
num en
pairie ieec
relat ive
9 168
e count
s real
34 17
vectorixsaixeeee ee
166 67
pairidde ns
iiieiee mmev
tupleijiiiee ed
0000000000000000 3
b copy
ai i
ve st
le ct
ult ip
26 77
29 88
cm n
vectoriysaiy eeeeevt
024 5
bm sb
pk f
user buf
pairiiss ees
b srl
f op
w dd
ct p
Ġ1 324
pairik chest
29 81
34 46
36 24
count x
dat sais
pairikx bec
wor dst
ask ii
pairikm iest
frace c
t qp
ee mmev
str scpy
comp z
28 90
37 24
50 1000
lessicesaicee ms
Ġ35 84
lc k
tupleijxxxx xeesais
gnt dev
lessitesait ee
4 101
g swip
l dr
v data
x g
32 65
cl ips
ii eevn
ed c
ll d
30 72
38 36
40 25
47 26
60 30
Ġ10 65
isse dtcldtfp
uint ptr
pv calls
iteratorim eeot
b ii
c po
al n
node p
sub tract
35 37
38 29
44 30
100 71
vectorixsaixee edtcldtfp
pp m
vectorixsaixeeee kxeebt
av fs
quest ion
92233720368547757 43
zlt st
w led
or ient
node pv
aux iieevn
Ġ15 60
dd eec
cxxltip mst
exp d
module str
calc ii
836 27
4 139
a at
n cc
x dbc
str error
re max
33 57
41 16
moveir pn
pow xxx
client s
iiieiee rs
bignumber sais
syn co
gkeyfile group
25 97
26 08
40 33
vectoriisaiieeee eppev
eevrs a
pairic besais
Ġ jsonp
tr u
min ix
row cnd
g ps
x ilinx
32 07
ic cee
add a
ns cyclecollection
cc w
ill lb
imm ns
math tools
pairiyy es
b iyeept
co h
se id
mo lst
eee si
pairikx ieeeot
166 61
context state
greater iss
vectoribsaib eeet
0000000000 110
pairikl ceeeot
rational iest
order ing
edg eed
713 36
pairikycee clerks
intersection st
andard colormap
"* >,
30 64
37 37
Ġ10 22
vl ans
unicode args
framebuffer list
maxpacket size
9 881
32 72
32 84
iterator pp
11 803
Ġ1 168
ix ie
eee clins
29 03
const char
34 67
chec kst
input eest
copyip pcs
nla track
pairiisse aseos
crl str
b len
c ipso
x n
ii f
11 328
sa rea
test number
su cc
Ġ9 64
iteratorii edpot
sbit map
pairikycee d
bel ow
gau di
secmod modulestr
k f
32 82
def late
Ġ}> ]
pf bs
addressof iknst
216 79
dist inct
hid ma
toiiesaiiee ens
3333 333
ipvt ng
r uni
der ive
300 9
334 3
pg map
ztv nst
Ġ450 3599627
u scal
st f
ee bst
ic amax
29 80
86 37
mod f
78 80
arch nodes
027 9
eecl ers
900 3
iiiess ed
vectoriysaiyeeee y
3 182
t se
class comp
29 00
36 29
sh dma
key info
66 666
type desc
pairie ieeot
writ able
Ġ167772 160
issue d
ixxeb es
nssckmd instancestr
0 356
al sa
string epkc
copy inst
pr ze
29 71
zdv st
jrii eeevrs
f read
Ġ 389
re cst
le a
pairik clest
27 09
30 59
reg domain
valarray s
32 57
30 51
Ġ4 60
41 10
41 12
buf targ
011 855
104 104
rx est
regulator s
collation data
dead line
40029 000000000000000
4 141
4 234
p eot
hash elem
33 13
40 41
vectorisssaissee ept
027 8
vectorilsaileeee pllet
dq i
queu eelement
btbroad phasep
0 259
3 159
s ctx
u init
as ked
er ender
add pfs
fp s
36 00
37 29
pairikx sseeee
pairix iers
interval eonst
027 0
frace ot
92233720368547757 93
quantu mp
j h
32 59
is if
pair if
ma m
45 26
ej ll
024 3
bint sais
clai med
ato ms
nbt est
pn ext
eee isc
28 79
nodee pt
cpu hp
deleter eeot
eeeesseesais i
proj ection
nodeijssee epst
0 250
s ir
oc cur
node v
moveirpf br
ene w
augment ed
x min
get input
ib beest
026 8
Ġ80 5
gcd ll
internalmmapvectornoctor ice
tear down
4 149
8 802
a vtab
p vec
x mt
pre amble
pairiiiee ppei
sd a
487 79
nvm f
zpl rk
nearby int
Ġ 382
sro t
26 83
28 82
34 78
ieeev st
nip mmet
024 6
pairikj ceeee
robot sais
nipmm eet
i eps
z c
ap ei
41 64
52 12
func i
210 84
024 2
party ee
break iterator
identityclir ceeot
evac case
nsstoken str
" ]]]*
p it
v cap
ee enk
ol ic
26 07
Ġ4 41
38 24
Ġ39 0
nodeiy eeot
bytesp er
4 154
t int
v de
str ust
ep kepeet
33 55
39 15
fo ob
nodee brkst
bb evt
ave xpr
df x
source s
rectangle s
compos itor
sche ma
strea mp
b ne
h ld
x font
32 67
32 85
00 13
tup sais
Ġ4 05
36 21
50 10
46 61
Ġ6 16
tc phdr
iicee st
" ]]],
4 143
node output
iv sais
rk is
Ġ8 80
ft m
06 19
out s
300 6
output stream
fm r
walk info
fragment s
vmov ups
r pl
Ġ 385
re z
op j
ip uv
ash iftrt
vectoridsaid eeeeevt
vf madd
disp list
92233720368547 71336
92233720368547757 81
92233720368547757 84
fj oldi
Ġ92233720368547757 80
Ġ92233720368547757 78
3 161
ad i
are q
uff er
func v
foo st
vectorijsaij eej
Ġ33 5544
pg dat
tupleijiicee st
l ind
iee eec
pairi cl
bo h
set attr
xst andardcolormap
big ger
Ġ10 10
bl sb
phy info
irx ilb
viewlayer data
b rea
32 86
node lm
ix ee
28 97
bucket st
sum l
rec ent
solver d
cons ider
pairikssx eeeixers
Ġ11529215046068469 72
pairikcbee ed
schureliminator ili
tupleijdddee st
a ff
Ġ one
Ġ 379
32 99
ct info
id y
mp ath
fp os
55 497
eem rks
00000000000 17
ifin fo
analy sis
sparse set
3 194
m ma
v iz
var int
30 57
37 49
38 43
45 48
man h
greaterix eevt
broken info
submit ted
minstr el
en velo
cmp by
ast class
int iest
pairi aa
24 123
37 16
37 18
ssee d
42 32
77 693
check gs
nodeij sseeevpst
bigintc eeec
pairikiss ens
bigintcee ed
pairikjcee ed
expf unc
manageri znk
expl icit
a fp
sub x
38 51
wm keyconfig
Ġ50 33
tupleijlll eest
enh ance
convolve params
or es
ee llb
se ve
Ġ15 137
cnt e
stack ilst
gl ib
red uc
lp ss
set sais
34 39
38 50
Ġ8 194
sk ill
error i
round ing
t is
Ġ ^
32 01
no lock
ll dd
roll back
gp ind
col ate
kn ife
5 150
max t
69 94
364 3
iel s
334 8
tran sr
codec s
pairiic eeeonst
w maxpacketsize
re boot
to w
30 75
35 15
37 21
debug lsia
destroyis a
cle xx
cfp kt
atan iien
boo ks
l app
36 36
210 28
pairikiiee ppei
testcas ee
idi ag
6 231
f adt
i begin
35 84
point mierks
bee rs
cu rel
pairix ces
gp ct
pm tu
dig i
fillip bbevt
alphabet s
sdb str
al ways
el y
ar i
ex e
16 390
un load
ll x
sh iftr
po ut
check xe
imm vertex
dequeixsaixee ed
ox fw
lz ma
ejii iieerknst
elfreader impl
4 167
g or
p pc
32 74
ex po
an sc
17 01411834604692317316873037158841057
person eonst
dow nup
defaulttest io
greg or
4 103
u trie
__ .__
cashier ed
ln k
iteratorile deev
002 0000000000
strateg yst
4 230
x bc
od w
33 00
36 35
ec nt
lb tf
iss eepst
), $
si ena
cm utex
nodecl isseepst
006 0000000000
valipf br
o if
u hashtable
28 69
35 95
Ġ56 29499534213
ceee ixeos
speed s
oob size
language s
epfb pk
simpl ify
r ag
x ys
Ġ4 52
be h
test e
vectoriysaiy eeemiel
my queue
nodeide dpot
saf min
tr ieeec
ip ac
14 0000000
Ġ6 29
fiel dilj
Ġbig integer
h region
is kew
pr ison
26 72
Ġ4 46
34 64
37 45
38 49
key span
usb tmc
person es
Ġ36 9
pairixiee pt
ti mem
post er
kstrto ull
taskparallel settings
it ivity
36 99
bt cursor
nod eeeec
blk bits
the or
sv g
rad ar
subdiv foreach
epfb s
3 179
4 151
add ddd
se ch
20 690
res izer
em i
28 88
34 70
cc ge
vectoriisaiieeee mmev
sink pi
buc ke
145 2068
vectorisssaisseee sais
pairikix eec
casenum ber
permutationip iebt
1452068 64
d lat
w imax
al pa
sub m
ns plit
Ġ4 36
len g
pf vs
forwardirk n
dt im
fb dev
va zo
game sais
a pci
z zst
Ġ 387
allocator if
pairik dc
26 99
38 27
list imsaim
bigint ied
ixxex eeec
aq r
vectoribsaibeee brkst
package d
integermodulo ili
gpunode stack
Ġ1099 511627776
4 104
32 76
pairik ilest
pr p
44 46
45 44
io ctx
97 24
su sb
stat fs
364 4
iid lb
toixesaixee elb
4 236
g ol
u set
34 49
destroy ieeevrs
35 43
print i
36 14
05 10
uni qu
iiie sd
ager ss
Ġ97 28
nodeil eeot
tau p
arf gp
c di
k gid
Ġ1 179
ne o
typee eeee
vm f
34 10
ok ay
03 18
ci k
00000000000 31
pairiiss eed
h ui
st pn
ee z
Ġb relse
node si
ic v
38 33
bigint enst
test no
bignum ee
cxxltip jst
uplo s
ecl ipst
lorgqr opt
enem y
manh att
stpn cpy
b th
base illns
iee clerks
pairik p
vectorix s
key fram
101 101
factor ial
pairikxb eeeixers
qi mo
ignor ed
gpunode link
u ch
u fo
32 06
er f
de co
el es
sub table
37 23
max ilerkt
44 36
cee rt
stat ers
mole s
tm u
getik ss
iot ain
32 04
array ev
44 43
625 000
m dma
z lat
pn tst
iteratorip pn
30 68
identity itest
36 54
364 1
Ġ59 5
vectorilsaileeee pleet
iix es
constructissjr sseeevpt
d vec
f dd
rs ize
Ġ4 76
33 70
50 40
ilb c
eo llb
send er
coordin at
dib x
ptcacheedit point
33 52
es ainst
list in
44 27
check rst
Ġ6 57
param seve
Ġ100 4
725 000
roun ds
Ġ61489 14691236517
147497 67106
32 09
class id
tree sais
28 73
key pad
work load
Ġ20 20
03 34
pairixxe as
ipkc s
embede jb
4 138
h ca
u pi
ol ution
29 87
min mn
39 24
38 22
pos i
78 42
fr q
04 17
out len
sf min
Ġ128 849018
ceeee pst
want t
treeit tst
t ops
tr ash
di ol
33 88
1000 6
rx buf
669 2
c mt
e met
st id
op acity
ro obt
34 08
35 52
dat agram
data es
Ġ5 40
Ġ78 5
iteratorixe ot
ox u
sgemm nt
111100 16657
s bridge
vo test
30 76
test ii
vectoricsaicee elb
dl ci
0 262
a al
s value
s lat
add fff
se ot
35 70
arg f
arg l
tag ens
vt xf
cas ier
pairidd eeec
prob es
md spcontext
nan f
nan l
metad at
eeeev n
din vtxf
assignableirx ot
dinvtxf mdspcontext
4 155
4 321
x lt
node ls
iteratorip tst
45 45
Ġ5 50
fr ees
nip j
211 94
300 3
00000000000 18
post fix
pairissss eee
pcid as
p max
x frac
iter ateej
traits ipst
29 95
30 12
34 62
38 44
44 35
sw eep
vectoriisaiieeee qerks
ps um
xee ns
Ġ4294967 231
box es
3 178
4 111
4 333
p ff
ss ize
40 22
po ke
sr ate
027 6
sortip levt
iiisai iens
4 115
8 255
vectoris b
30 89
[...]
