{"<s>":0,"<pad>":1,"</s>":2,"<unk>":3,"<mask>":4,"!":5,"\"":6,"#":7,"$":8,"%":9,"&":10,"'":11,"(":12,")":13,"*":14,"+":15,",":16,"-":17,".":18,"/":19,"0":20,"1":21,"2":22,"3":23,"4":24,"5":25,"6":26,"7":27,"8":28,"9":29,":":30,"<":31,"=":32,">":33,"@":34,"[":35,"\\":36,"]":37,"^":38,"_":39,"a":40,"b":41,"c":42,"d":43,"e":44,"f":45,"g":46,"h":47,"i":48,"j":49,"k":50,"l":51,"m":52,"n":53,"o":54,"p":55,"q":56,"r":57,"s":58,"t":59,"u":60,"v":61,"w":62,"x":63,"y":64,"z":65,"{":66,"|":67,"}":68,"~":69,"Ġ":70,"Ġ%":71,"st":72,"Ġi":73,"al":74,"or":75,"pn":76,"__":77,"Ġ=":78,"all":79,"32":80,"::":81,"ct":82,"as":83,"ee":84,"in":85,"64":86,"std":87,"call":88,"it":89,"\"*":90,"er":91,"ai":92,"str":93,"Ġl":94,"tr":95,"Ġ@":96,"Ġ%\"":97,"cl":98,"at":99,"uct":100,"struct":101,"de":102,"ad":103,"ass":104,"class":105,"en":106,"id":107,"ve":108,"re":109,"vo":110,"co":111,"Ġ@_":112,"Ġ%__":113,"ator":114,"el":115,"Ġt":116,"mp":117,"is":118,"Ġcall":119,"ab":120,"Ġ0":121,"Ġvo":122,"Ġvoid":123,"iter":124,"(%":125,"ce":126,"ctor":127,"vector":128,"bas":129,"nu":130,"le":131,"abel":132,"Ġlabel":133,"(%\"":134,"::_":135,"no":136,"xx":137,"oc":138,"zn":139,"ail":140,"alloc":141,"cxx":142,"iterator":143,"ar":144,"gnu":145,"th":146,"cmp":147,"tree":148,"Ġb":149,"rb":150,"od":151,"Ġtail":152,"Ġ[":153,"con":154,"on":155,"air":156,"pair":157,"ex":158,"oad":159,"for":160,"base":161,"Ġ}":162,"Ġ{":163,"ub":164,"node":165,"Ġto":166,"ast":167,"Ġx":168,"ret":169,"allocator":170,"this":171,"end":172,"nor":173,"norm":174,"10":175,"normal":176,".__":177,"ss":178,"fin":179,"Ġload":180,"ic":181,"try":182,"add":183,"entry":184,"::__":185,"Ġbr":186,"an":187,"13":188,"Ġ]":189,"16":190,"znst":191,"ii":192,"Ġde":193,"fine":194,"Ġdefine":195,"Ġret":196,"12":197,"Ġentry":198,"un":199,"ink":200,"ptr":201,"if":202,"sai":203,"17":204,"stor":205,"00":206,"*,":207,"Ġs":208,"\",":209,"once":210,"odr":211,"cast":212,"Ġlink":213,"Ġlinkonce":214,"hi":215,"basic":216,"lo":217,"zst":218,"ke":219,"ist":220,"ext":221,"bod":222,"body":223,"store":224,"ir":225,"ev":226,"se":227,"Ġ%_":228,"op":229,"ind":230,"ip":231,"erce":232,"coerce":233,"11":234,"Ġstore":235,"pad":236,"15":237,"iv":238,"iee":239,"int":240,"sub":241,"voke":242,"Ġ@__":243,"ing":244,"Ġ1":245,"**":246,"Ġicmp":247,"ne":248,"ea":249,"do":250,"val":251,"mo":252,"idx":253,"ge":254,"tmp":255,"cond":256,"_(%\"":257,"Ġ],":258,"Ġbit":259,"Ġbitcast":260,"ue":261,"Ġin":262,"ay":263,"move":264,"irst":265,"Ġf":266,"ro":267,"tra":268,"ref":269,"Ġp":270,"first":271,"uble":272,"isai":273,"double":274,"Ġ<":275,"he":276,"arr":277,"..":278,"inc":279,"ul":280,"array":281,"not":282,"vectori":283,"14":284,"exit":285,"ect":286,"var":287,"()":288,"Ġ(":289,"less":290,"to":291,"Ġdouble":292,"head":293,"then":294,"ch":295,"isaiiee":296,"iz":297,"string":298,"indvar":299,"ns":300,"18":301,"new":302,"indvars":303,"ash":304,"Ġphi":305,"Ġinvoke":306,"cont":307,"znk":308,"lpad":309,"ed":310,"sais":311,"pre":312,"and":313,"iteratorip":314,"sp":315,"Ġif":316,"eq":317,"loop":318,"hash":319,"\"**":320,"est":321,"header":322,"alloca":323,"Ġalloca":324,"Ġun":325,"di":326,"arrayidx":327,"loopexit":328,"ll":329,"next":330,"19":331,"Ġ\"":332,"eam":333,"stream":334,"Ġadd":335,"hs":336,"20":337,"dive":338,"last":339,"ag":340,"Ġeq":341,"pairi":342,"eev":343,"tu":344,"load":345,"vectoriisaiiee":346,"Ġfor":347,"ma":348,"ep":349,"_(":350,"preheader":351,"ol":352,"me":353,"Ġns":354,"py":355,"Ġnsw":356,"mpl":357,"il":358,"spl":359,"init":360,"Ġ2":361,"impl":362,"hile":363,"ult":364,"while":365,"ity":366,"loat":367,"ie":368,"able":369,"os":370,"copy":371,"ty":372,"res":373,"ix":374,"tup":375,"Ġnu":376,"sro":377,"sroa":378,"Ġfloat":379,"elect":380,"22":381,"tail":382,"ff":383,"Ġ%.":384,"typ":385,"detail":386,"ostream":387,"ops":388,"],":389,"tuple":390,"wind":391,"Ġunwind":392,"comp":393,"bo":394,"0000":395,"typee":396,"Ġz":397,"ks":398,".)":399,"23":400,"...)":401,"ot":402,"value":403,"split":404,"]*":405,"ent":406,"agg":407,"ence":408,"ide":409,"21":410,"Ġ-":411,"Ġ)":412,"erence":413,"ort":414,"ur":415,"lp":416,"izer":417,"eee":418,"clea":419,"fp":420,"invoke":421,"nup":422,"cleanup":423,"pairik":424,"24":425,"trace":426,"ion":427,"25":428,"lhs":429,"pr":430,"znkst":431,"cov":432,"mul":433,"ig":434,"rs":435,">*":436,"san":437,"dex":438,"index":439,"conv":440,"bool":441,"sanit":442,"sanitizer":443,"toint":444,"Ġptr":445,"Ġptrtoint":446,"select":447,"ers":448,"its":449,"div":450,"reference":451,"26":452,"ate":453,"Ġstd":454,"pt":455,">>":456,"traits":457,"29":458,"addr":459,"tobool":460,"dev":461,"ong":462,"eeee":463,"dec":464,"const":465,"pairii":466,"27":467,"kc":468,"pc":469,"remove":470,"\"*,":471,"em":472,"asm":473,"result":474,"ero":475,"star":476,"vectoris":477,"Ġzero":478,"*)":479,"Ġasm":480,"30":481,"set":482,"css":483,"pro":484,"idee":485,"Ġland":486,"ffect":487,"abort":488,"ideeffect":489,"Ġsideeffect":490,"Ġ4":491,"retval":492,"28":493,"que":494,"vm":495,"ter":496,"cr":497,"Ġzeroext":498,"asan":499,"ice":500,"char":501,"Ġnull":502,"Ġ...)":503,"edge":504,"noabort":505,"erson":506,"copyload":507,"llvm":508,"nt":509,"lcss":510,"lcssa":511,"saix":512,"ality":513,"34":514,"ersonality":515,"bu":516,"iie":517,"stro":518,"stroy":519,"destroy":520,"rhs":521,"min":522,"crit":523,"\"()":524,"epil":525,"Ġ\"\",":526,"Ġ,":527,"33":528,"else":529,"Ġ\"\"()":530,"ingpad":531,"Ġlandingpad":532,"cur":533,"start":534,"war":535,">,":536,"true":537,"es":538,"ser":539,"ac":540,"35":541,"80":542,"ish":543,"Ġex":544,"rk":545,"finish":546,"ij":547,"rea":548,"ident":549,"allocat":550,"identity":551,"arg":552,"table":553,"allocatee":554,"alse":555,"print":556,"ph":557,"siz":558,"36":559,"86":560,"sh":561,"39":562,"reach":563,"Ġnuw":564,"reachable":565,"09":566,"construct":567,"rn":568,"37":569,"be":570,"38":571,"gt":572,"map":573,"prom":574,"Ġlpad":575,"Ġlong":576,"get":577,"ward":578,"31":579,"rnst":580,"lt":581,"deque":582,"ial":583,"idxprom":584,"minate":585,"iteratoripist":586,"mem":587,"eh":588,"ut":589,"referenceis":590,"ec":591,"loc":592,"40":593,"cc":594,"ios":595,"hashtable":596,"atch":597,"Ġunreachable":598,"args":599,"initial":600,"Ġsext":601,"kcz":602,"fpkcz":603,"printfpkcz":604,"niter":605,"saixee":606,"tract":607,"Ġ3":608,"incdec":609,"gin":610,"forward":611,"et":612,"vectorix":613,"lock":614,"age":615,"catch":616,"max":617,"Ġslt":618,"iisaiiee":619,"49":620,"im":621,"sc":622,"po":623,"Ġ8":624,"sizeev":625,"ens":626,"curr":627,"erks":628,"50":629,"begin":630,"Ġfast":631,"list":632,"current":633,"istream":634,"rt":635,"44":636,"def":637,"Ġfastcc":638,"Ġsgt":639,"fl":640,">>::_":641,"Ġextract":642,"sert":643,"48":644,"stis":645,"Ġcleanup":646,"47":647,"55":648,"Ġand":649,"~{":650,"Ġsub":651,"67":652,"wide":653,"esais":654,"ume":655,"ap":656,"unt":657,"pst":658,"initializ":659,"iteratoripst":660,",~{":661,"ilb":662,"100":663,"resume":664,"terminate":665,"lb":666,"rks":667,"45":668,"Ġextractvalue":669,"gep":670,"46":671,"db":672,"znsai":673,"sw":674,"ran":675,"pot":676,"Ġwhile":677,"Ġ(...)":678,"count":679,"baseiisaiiee":680,"elb":681,"zns":682,"flag":683,"ile":684,"icee":685,"Ġ(...)*":686,"par":687,"pairiiie":688,"point":689,"insert":690,"eevt":691,"Ġselect":692,"vectoriisaiieeee":693,"long":694,"41":695,"unr":696,"initialized":697,"znss":698,"uninitialized":699,"idd":700,"personality":701,"gxx":702,"Ġpersonality":703,"iteratorit":704,"56":705,"cx":706,"dbg":707,"allocatorev":708,"ssee":709,"urn":710,"cee":711,"lessiie":712,"42":713,"read":714,"br":715,"of":716,"43":717,"57":718,"rst":719,"midd":720,"middle":721,"vec":722,"iest":723,"69":724,"device":725,"58":726,"zstl":727,"unc":728,"deallocatee":729,"bit":730,"000000":731,"ned":732,"Ġint":733,"cxa":734,"ixem":735,"59":736,"pairixx":737,"storage":738,"ehcleanup":739,"nodeist":740,"Ġzext":741,"igned":742,"dat":743,"lessis":744,"dpot":745,"typeeos":746,"onst":747,"referenceit":748,"traitsisai":749,"Ġ([":750,"fo":751,"60":752,"elem":753,"._":754,"51":755,"Ġno":756,"splat":757,"false":758,"ho":759,"pie":760,"Ġfalse":761,"tp":762,"io":763,"99":764,"ime":765,"allocatorist":766,"ssai":767,"Ġ(%\"":768,"broad":769,"sb":770,"Ġcatch":771,"broadcast":772,"buf":773,"rev":774,"},~{":775,"ise":776,"52":777,"second":778,"block":779,"element":780,"tupleij":781,"evt":782,"comple":783,"data":784,"pos":785,"eec":786,"bal":787,"lor":788,"mod":789,"traitsicee":790,"Ġult":791,"xst":792,"return":793,"complex":794,"62":795,"65":796,"sr":797,"spec":798,"range":799,"sa":800,"pu":801,"cew":802,"destroyip":803,"piecew":804,"piecewise":805,"ang":806,"ait":807,"baseev":808,"bac":809,"68":810,"vectorixsaixee":811,"nodeis":812,"act":813,"54":814,"icst":815,"61":816,"erk":817,"iist":818,"baseip":819,"53":820,"nal":821,"rem":822,"traitsiceerst":823,"pairiiiee":824,"sink":825,"ps":826,"baseist":827,"Ġor":828,"itereevt":829,"hole":830,"trunc":831,"big":832,"holeindex":833,"saicee":834,"aligned":835,"ault":836,"forwardir":837,"glo":838,"Ġsh":839,"global":840,"79":841,"len":842,"default":843,"ition":844,"ins":845,"moveir":846,"clang":847,"63":848,"lat":849,"key":850,"Ġinter":851,"Ġinternal":852,"70":853,"land":854,"edeev":855,"]]*":856,"dee":857,"vectorist":858,"bigint":859,"info":860,"exitcond":861,"66":862,"]],":863,"rsait":864,"Ġ16":865,"eed":866,"kst":867,"Ġ(%":868,"Ġtrunc":869,"te":870,"che":871,"membuf":872,"77":873,"Ġ5":874,"phi":875,"chec":876,"iiest":877,"pkc":878,"78":879,"eet":880,"ssaissee":881,"jj":882,"latile":883,"Ġvolatile":884,"iteratoripxst":885,"brk":886,"Ġexact":887,"1000":888,"pairiiiesais":889,")*":890,"ture":891,"endev":892,"off":893,"05":894,"ict":895,"saiiee":896,"zstls":897,"ans":898,"check":899,"vectorixsaix":900,"75":901,"flags":902,"znsol":903,"eeeens":904,"cap":905,"pairiiiest":906,"erse":907,"position":908,"ction":909,"ixe":910,"128":911,"72":912,"beginev":913,"71":914,"reverse":915,"76":916,"parent":917,"neg":918,"iss":919,"74":920,"88":921,"us":922,"ual":923,"Ġshl":924,"back":925,">::_":926,"zstlsist":927,"ostreamict":928,"row":929,"equal":930,"89":931,"73":932,"Ġ10":933,"push":934,"miter":935,"traitsisaist":936,"shr":937,"Ġresume":938,"ashr":939,"Ġashr":940,"cin":941,"zl":942,"znsolse":943,"Ġmul":944,"epst":945,"Ġ.":946,"bt":947,"capture":948,"90":949,"Ġnocapture":950,"iteratorist":951,"Ġcond":952,"void":953,"fr":954,"dr":955,"Ġtrue":956,"mm":957,"reg":958,"sd":959,"offset":960,"isse":961,"Ġ},":962,"pairikx":963,"85":964,">>>::_":965,"text":966,"sort":967,"ft":968,"ilm":969,"lessiiesaiiee":970,"ib":971,"*),":972,"are":973,"prol":974,"Ġ\".":975,"main":976,"Ġ32":977,"\"*)*":978,"put":979,"znsir":980,"eeec":981,"znsirser":982,"Ġsdiv":983,"81":984,"decay":985,"num":986,"allocatoriie":987,"cout":988,"ds":989,"cept":990,"per":991,"84":992,"iff":993,"92":994,"hea":995,"Ġu":996,"arraydestroy":997,"ection":998,"82":999,"${":1000,"except":1001,"mii":1002,"lel":1003,"Ġsection":1004,"),":1005,"trip":1006,"heap":1007,"nodee":1008,"Ġ<{":1009,"87":1010,"eeeot":1011,"startup":1012,"101":1013,"brkns":1014,"83":1015,"bb":1016,"Ġ7":1017,"diff":1018,"eplel":1019,"ill":1020,"_(%":1021,"throw":1022,"105":1023,"Ġ6":1024,"Ġ24":1025,"dir":1026,"95":1027,"valu":1028,"iiist":1029,"96":1030,"difference":1031,"ej":1032,"buff":1033,"lr":1034,"bvector":1035,"110":1036,"thread":1037,"fs":1038,"ptrev":1039,"test":1040,"eebt":1041,"err":1042,"treeiist":1043,"iet":1044,"Ġlor":1045,"erminate":1046,"Ġterminate":1047,"ht":1048,"prime":1049,"left":1050,"lessiiesais":1051,"enst":1052,"lessice":1053,"znssd":1054,"arraydecay":1055,"vectoriisaiieeeens":1056,"noexcept":1057,"queue":1058,"97":1059,"eeev":1060,"forwardist":1061,"la":1062,"treeist":1063,"Ġfmul":1064,"typeerks":1065,"pairikss":1066,"su":1067,"ixst":1068,"pp":1069,"ket":1070,"93":1071,"pol":1072,"hashing":1073,"91":1074,"ies":1075,"vectorisssaissee":1076,"98":1077,"ight":1078,"ipst":1079,"94":1080,"ixsaixee":1081,"traitsisaiiee":1082,"swap":1083,"ioinit":1084,"code":1085,"au":1086,"pim":1087,"itercl":1088,"section":1089,"Ġread":1090,"state":1091,"Ġ12":1092,"wor":1093,"fpsr":1094,"dirflag":1095,"cxxmii":1096,"Ġ}>":1097,"04":1098,"ly":1099,"polic":1100,"policy":1101,"impld":1102,"znsirseri":1103,"Ġfcmp":1104,"ls":1105,"icsaicee":1106,"treeiiist":1107,"nop":1108,"pf":1109,"identityiiest":1110,"der":1111,"ali":1112,"ase":1113,"cst":1114,">>,":1115,"net":1116,"*)*":1117,"Ġfadd":1118,"nsub":1119,"06":1120,"valuee":1121,"out":1122,"icest":1123,"103":1124,"ixx":1125,"fill":1126,"alias":1127,"znsaist":1128,"iteratoris":1129,"copyist":1130,"Ġugt":1131,"lessisse":1132,"Ġ9":1133,"enable":1134,"hand":1135,"))":1136,"102":1137,"baseixsaixee":1138,"Ġnoalias":1139,"saist":1140,"01":1141,"vectoriisaiieee":1142,"make":1143,"iteratoripk":1144,"xtra":1145,"rehash":1146,"xtraiter":1147,"am":1148,"file":1149,"07":1150,"pi":1151,"pop":1152,"buc":1153,"bucket":1154,"}\"":1155,"112":1156,"011":1157,"iiee":1158,"cest":1159,"right":1160,"kv":1161,"sk":1162,"Ġsret":1163,"initializer":1164,"nodeepst":1165,"ded":1166,"ranged":1167,"log":1168,"epp":1169,"ison":1170,"memset":1171,"pairiiies":1172,"\"]*":1173,"only":1174,"deallocateers":1175,"eot":1176,"cess":1177,"Ġvector":1178,"\"],":1179,"hashingens":1180,"low":1181,"mage":1182,"eest":1183,"ask":1184,"Ġpo":1185,"Ġreadonly":1186,"ign":1187,"104":1188,"Ġpoison":1189,"Ġ${":1190,"hel":1191,"uar":1192,"iteratoripss":1193,"jrk":1194,"eevpt":1195,"compare":1196,"113":1197,"union":1198,"allocateers":1199,"Ġlshr":1200,"111":1201,"107":1202,"handle":1203,"lessixe":1204,"mpkv":1205,"allocateempkv":1206,"ieonst":1207,"moveirieonst":1208,"eeixem":1209,"itch":1210,"116":1211,"uni":1212,"doublecomplex":1213,"dpt":1214,"ra":1215,"helper":1216,"type":1217,"117":1218,"\")":1219,"115":1220,"ieeev":1221,"}\"(":1222,"znsolsei":1223,"cev":1224,"elm":1225,"eppev":1226,"access":1227,"120":1228,"vectoriisaiieeixem":1229,"ld":1230,"106":1231,"108":1232,"109":1233,"lessix":1234,"uninit":1235,"sortin":1236,"forwardirk":1237,"bug":1238,"bf":1239,"pairikc":1240,"aux":1241,"guar":1242,"buffer":1243,"heapin":1244,"Ġsig":1245,"priv":1246,"Ġsignext":1247,"Ġeh":1248,"ifix":1249,"ebo":1250,"size":1251,"nd":1252,"cxxmiip":1253,"scan":1254,"00000000":1255,"lcmp":1256,"dom":1257,"deallocateeps":1258,"ace":1259,"Ġundef":1260,"eesa":1261,"ifixsr":1262,"valptrev":1263,"random":1264,"ine":1265,"wardi":1266,"guarded":1267,"iiiee":1268,"unguarded":1269,"und":1270,"identityis":1271,"idsai":1272,"cxxne":1273,"eeet":1274,"bee":1275,"tst":1276,"up":1277,"implc":1278,"ress":1279,"Ġchar":1280,"114":1281,"stat":1282,"ver":1283,"treeixst":1284,"119":1285,"dt":1286,"lessixesais":1287,"ms":1288,"yval":1289,"arrayctor":1290,"Ġbyval":1291,"wm":1292,"scev":1293,"backe":1294,"ostreamit":1295,"118":1296,"ame":1297,"200":1298,"129":1299,"vectoriisaiieeedeev":1300,"om":1301,"image":1302,"eeot":1303,"sol":1304,"123":1305,"ssaiss":1306,"ack":1307,"iec":1308,"si":1309,"Ġne":1310,"Ġxor":1311,"isssaissee":1312,"ied":1313,"iy":1314,"one":1315,"132":1316,"pairixxest":1317,"inst":1318,"address":1319,"shl":1320,"vla":1321,"dso":1322,"issst":1323,"eeedeev":1324,"127":1325,"scevgep":1326,"atexit":1327,"printf":1328,"vectorixsaixeeee":1329,"roll":1330,"130":1331,"allocateem":1332,"dered":1333,"ory":1334,"ees":1335,"ncmp":1336,"eem":1337,"aip":1338,"unor":1339,"unordered":1340,"dep":1341,"sss":1342,"unroll":1343,"vectoriisaiieed":1344,"baseipiet":1345,"Ġ83":1346,"08":1347,"124":1348,"wr":1349,"Ġ15":1350,"*)*),":1351,"ashi":1352,"epkst":1353,"Ġsw":1354,"eevrs":1355,"ation":1356,"epi":1357,"xs":1358,"cre":1359,"baseisssaissee":1360,"epilog":1361,"125":1362,"constructis":1363,"pairis":1364,"121":1365,"122":1366,"scanf":1367,"147":1368,"znssc":1369,"126":1370,"destroyipst":1371,"temp":1372,"ijrk":1373,"unreachable":1374,"vectorisssaiss":1375,"pairixxesais":1376,"atom":1377,"ju":1378,"part":1379,"licst":1380,"iterclins":1381,"ixest":1382,"traitsilb":1383,"xt":1384,"rkt":1385,"erkt":1386,"gc":1387,"rtx":1388,"ite":1389,"hashens":1390,"deallocateepim":1391,"ieot":1392,"unique":1393,"eerks":1394,"lessixesaixee":1395,"mer":1396,"mt":1397,"010":1398,"tage":1399,"inter":1400,"eonst":1401,"ailb":1402,"184":1403,"vbase":1404,"cpp":1405,"debug":1406,"stest":1407,"snd":1408,"Ġdo":1409,"znsaice":1410,"dis":1411,"vectoricsaicee":1412,"rethrow":1413,"merge":1414,"fb":1415,"cxxneip":1416,"arrayinit":1417,"idde":1418,"pairiks":1419,"pairikxx":1420,"insertion":1421,"mask":1422,"auxilb":1423,"hw":1424,"iteratoripssst":1425,"create":1426,"136":1427,"znsolsepf":1428,"work":1429,"backward":1430,"131":1431,"_)":1432,"vectorib":1433,"vectoribsai":1434,"iteratoripies":1435,"eg":1436,"139":1437,"line":1438,"00000":1439,"lif":1440,"trans":1441,"Ġehcleanup":1442,"port":1443,"Ġreturn":1444,"134":1445,"135":1446,"nip":1447,"150":1448,"lessicesaicee":1449,"etime":1450,"lifetime":1451,"uff":1452,"ixxst":1453,"vectorils":1454,"vectorilsail":1455,"eos":1456,"rsos":1457,"138":1458,"znsolsepfrsos":1459,"Ġ40":1460,"switch":1461,"forwardi":1462,"ijeeee":1463,"137":1464,"vectoriisaiieeec":1465,"emp":1466,"vectoridsai":1467,"211":1468,"issest":1469,"uffle":1470,"iteratoripkist":1471,"Ġ48":1472,"policyens":1473,"140":1474,"typeers":1475,"133":1476,"atomic":1477,"154":1478,"li":1479,"ieee":1480,"vot":1481,"cpy":1482,"gth":1483,"endlicst":1484,"Ġ69":1485,"edpot":1486,"0000000":1487,"ard":1488,"ob":1489,"lm":1490,"tmpcast":1491,"float":1492,"Ġ20":1493,"cm":1494,"initc":1495,"traitsice":1496,"initd":1497,"xee":1498,"qu":1499,"pivot":1500,"implilm":1501,"error":1502,"func":1503,"forwardirpst":1504,"cnt":1505,"pks":1506,"Ġshuffle":1507,"Ġshufflevector":1508,"pairikicest":1509,"js":1510,"iks":1511,"]]]*":1512,"2949":1513,"oper":1514,"142":1515,"nodeii":1516,"Ġ64":1517,"constructii":1518,"chan":1519,"sum":1520,"fun":1521,"moveirst":1522,"copyilb":1523,"Ġzeroinitializer":1524,"signed":1525,"294967":1526,"eeeebrkns":1527,"destroyis":1528,"Ġ}*":1529,"saissee":1530,"znssixem":1531,"pushsection":1532,"popsection":1533,"]]],":1534,"145":1535,"length":1536,"lim":1537,"storemerge":1538,"146":1539,"traitsicesaicee":1540,"256":1541,"emrks":1542,")**":1543,"pairikii":1544,"144":1545,"treeixxst":1546,"identityixest":1547,"nxt":1548,"znkss":1549,"vectoriisaiieec":1550,"memcpy":1551,"gcj":1552,"148":1553,"extract":1554,"Ġinsert":1555,"Ġinsertelement":1556,"splatinsert":1557,"va":1558,"iteratoripcss":1559,"143":1560,"(<":1561,"Ġ\\":1562,"sy":1563,"iiie":1564,"valueeve":1565,"015":1566,"vectoriisaiieeees":1567,"141":1568,"vectoriisaiieeeplel":1569,"implis":1570,"163":1571,"295":1572,"chi":1573,"done":1574,"cpu":1575,"iters":1576,"keyepkst":1577,"limit":1578,"nod":1579,"tag":1580,"ains":1581,"write":1582,"iti":1583,"149":1584,"non":1585,"Ġ17":1586,"Ġfp":1587,"forwardirkst":1588,"addrev":1589,"zd":1590,"160":1591,"ible":1592,"allocate":1593,"iieot":1594,"rot":1595,"tc":1596,"xm":1597,"doiti":1598,"function":1599,"bad":1600,"soc":1601,"iisaiieesais":1602,"eeeplel":1603,"164":1604,"dst":1605,"ath":1606,"pairikic":1607,"form":1608,"eeeest":1609,"vt":1610,"vectoriisaiieeeebrkns":1611,"bound":1612,"kt":1613,"depth":1614,"gen":1615,"basei":1616,"fc":1617,"seg":1618,"brkst":1619,"iterip":1620,"saiy":1621,"ito":1622,"152":1623,"membufist":1624,"lpv":1625,"name":1626,"151":1627,"pairikiiest":1628,"ok":1629,"obj":1630,"zdlpv":1631,"page":1632,"itofp":1633,"1500":1634,"ode":1635,"anon":1636,"02":1637,"znsaiied":1638,"168":1639,"vectorixsaixeeeens":1640,"by":1641,"deallocateep":1642,"cu":1643,"lessissesaissee":1644,"iievt":1645,"155":1646,"znwm":1647,"pci":1648,"dma":1649,"156":1650,"eeeee":1651,"bl":1652,"destroyipiievt":1653,"158":1654,"Ġ4294967":1655,"eept":1656,"159":1657,"maxim":1658,"153":1659,"epis":1660,"assign":1661,"forwardiieot":1662,"ssc":1663,"sext":1664,"157":1665,"allocv":1666,"iteratorips":1667,"typees":1668,"saim":1669,"Ġsrem":1670,"014":1671,"treeicst":1672,"Ġ.\\":1673,"card":1674,"lessicesais":1675,"addressof":1676,"usb":1677,"xet":1678,"***":1679,"znsaiiec":1680,"dtfp":1681,"cldtfp":1682,"cxxmiipist":1683,"pkst":1684,"empkc":1685,"tupleijrs":1686,"Ġ11":1687,"realloc":1688,"event":1689,"lenempkc":1690,"eras":1691,"flow":1692,"pnst":1693,"165":1694,"eedpot":1695,"raw":1696,"Ġsitofp":1697,"Ġune":1698,"treeissst":1699,"restore":1700,"Ġ$":1701,"Ġmiddle":1702,"setiist":1703,"issss":1704,"iccst":1705,"stack":1706,"pairikicee":1707,"critedge":1708,"ug":1709,"like":1710,"rect":1711,"bi":1712,"rx":1713,"tupleijdpt":1714,"pairiis":1715,"saic":1716,"Ġ13":1717,"assignable":1718,"memory":1719,"03":1720,"constructible":1721,"constructibleis":1722,"likeit":1723,"baseiisaiieed":1724,"assignableis":1725,"300":1726,"162":1727,"link":1728,"bases":1729,"Ġfsub":1730,"moveilb":1731,"tx":1732,"177":1733,"znsaiced":1734,"clerk":1735,"166":1736,"169":1737,"lx":1738,"unsigned":1739,"med":1740,"lessissesais":1741,"eeees":1742,"identityicest":1743,"ance":1744,"eeevrs":1745,"treeiccst":1746,"free":1747,"pairikxcest":1748,"forwardirkieot":1749,"aist":1750,"erasee":1751,"context":1752,"ister":1753,"destroyii":1754,"basein":1755,"eger":1756,"192":1757,"dp":1758,"1024":1759,"ior":1760,"174":1761,"ctr":1762,">*)":1763,"lst":1764,"167":1765,"word":1766,"drm":1767,"170":1768,"baseilm":1769,"161":1770,"valueepkst":1771,"sizeerks":1772,"hashi":1773,"tcl":1774,":\\":1775,"tupleijrk":1776,"173":1777,"eeonst":1778,"maximerkt":1779,"nc":1780,"jrkieeev":1781,"constructiijrkieeev":1782,"*)**":1783,"jjj":1784,"mode":1785,"ddebug":1786,"allocatorisse":1787,"partition":1788,"Ġo":1789,"lower":1790,"500":1791,"Ġbug":1792,"basecldtfp":1793,"allocatori":1794,"176":1795,"issssst":1796,"pns":1797,"fmul":1798,"fmuladd":1799,"xeonst":1800,"treeissssst":1801,"cs":1802,"headers":1803,"baseeot":1804,"identityissest":1805,"iteripfb":1806,"mut":1807,"baseeeest":1808,"itere":1809,"vectorixsaixeee":1810,"mi":1811,"xeot":1812,"eesais":1813,"top":1814,"175":1815,"zz":1816,"Ġ\"=":1817,"moveirxeonst":1818,"spin":1819,"attr":1820,"179":1821,"nel":1822,"Ġh":1823,"172":1824,"sf":1825,"stu":1826,"input":1827,"nr":1828,"pairix":1829,"scal":1830,"iteratoripx":1831,"210":1832,"fmt":1833,"ijeeeeev":1834,"860":1835,"vectoridsaidee":1836,"171":1837,"vectoriisaiieesais":1838,"comm":1839,"178":1840,"prev":1841,"gr":1842,"allocis":1843,"hashii":1844,"param":1845,"prior":1846,"tw":1847,"187":1848,"da":1849,"pointer":1850,"object":1851,"ain":1852,"copyin":1853,"ejrk":1854,"priority":1855,"195":1856,"ache":1857,"allocisains":1858,"nodeijrk":1859,"ater":1860,"188":1861,"teot":1862,"nodeiie":1863,"iteratorii":1864,"vectoribsaibee":1865,"traitsisaixee":1866,"500000":1867,"180":1868,"frac":1869,"drop":1870,"185":1871,"194":1872,"conf":1873,"nodeix":1874,"hashiiens":1875,"tupleijeeeot":1876,"ixt":1877,"baseicsaicee":1878,"itereet":1879,"ieet":1880,"scl":1881,"pairiiieee":1882,"Ġ30":1883,"vectoriisaiiees":1884,"186":1885,"item":1886,"ipin":1887,"jump":1888,"allocatoriiec":1889,"019":1890,"restoreii":1891,"mmev":1892,"Ġ14":1893,"cmd":1894,"foo":1895,"iver":1896,"182":1897,"183":1898,"$_":1899,"mutex":1900,"Ġ@\"":1901,"ive":1902,"Ġ@\"_":1903,"pairixxes":1904,"met":1905,"best":1906,"bignu":1907,"isoc":1908,"inode":1909,"gre":1910,"eraseepst":1911,"allocatorixe":1912,"199":1913,"empl":1914,"tion":1915,"emplace":1916,"driver":1917,"vtable":1918,"backerk":1919,"bis":1920,"irq":1921,"197":1922,"icsaic":1923,"}\\":1924,"nv":1925,"ment":1926,"ant":1927,"ili":1928,"interval":1929,"greater":1930,"100000":1931,"apt":1932,"205":1933,"bkt":1934,"real":1935,"190":1936,"iteratorin":1937,"baseiisaiieec":1938,"cle":1939,"2738":1940,"vectoricsaic":1941,"fu":1942,"pairidde":1943,"pairikxc":1944,"lessiiesaist":1945,"196":1946,"clearev":1947,"6116":1948,"cashi":1949,"ieec":1950,"bignum":1951,"anop":1952,"189":1953,"gp":1954,"860184":1955,"8601842738":1956,"Ġ46116":1957,"201":1958,"Ġ461168601842738":1959,"erkst":1960,"intr":1961,"ysaiy":1962,"cache":1963,"imag":1964,"host":1965,"clins":1966,"ci":1967,"solve":1968,"apter":1969,"iesais":1970,"181":1971,"vectoriysaiy":1972,"reset":1973,"find":1974,"198":1975,"maine":1976,"cf":1977,",*":1978,"eeevpt":1979,"191":1980,"aseos":1981,"desc":1982,"215":1983,"ber":1984,"Ġextractelement":1985,"cxxlt":1986,"traitsit":1987,"seq":1988,"cashier":1989,"nodeiss":1990,"emm":1991,"012":1992,"vl":1993,"medi":1994,"traitsicesaiceerst":1995,"dele":1996,"linear":1997,"tracepoint":1998,"00000000000":1999,"ateg":2000,"brt":2001,"fneg":2002,"013":2003,"pairid":2004,"tt":2005,"213":2006,"eesc":2007,"use":2008,"identityest":2009,"2019":2010,"adapter":2011,"dx":2012,"sq":2013,"80211":2014,"pee":2015,"lay":2016,"discard":2017,"private":2018,"eeeevt":2019,"idden":2020,"just":2021,"214":2022,"mlx":2023,"baseisai":2024,"byte":2025,"vectorixsaixeeixem":2026,"categ":2027,"adjust":2028,"category":2029,"pairikist":2030,"future":2031,"time":2032,"pcm":2033,"tot":2034,"203":2035,"pairikxcee":2036,"Ġhidden":2037,"engin":2038,"pred":2039,"config":2040,"193":2041,"227":2042,"pow":2043,"212":2044,"__.":2045,"ared":2046,"clk":2047,"aipis":2048,"msg":2049,"topindex":2050,"av":2051,"engine":2052,"uint":2053,"ipis":2054,"204":2055,"022":2056,"206":2057,"task":2058,"Ġ67":2059,"202":2060,"saij":2061,"yy":2062,"100005":2063,"vectorixsaixeeedeev":2064,"**,":2065,"ien":2066,"bitset":2067,"Ġ4294967295":2068,"zsteq":2069,"Ġ31":2070,"msaim":2071,"initializeem":2072,"ssm":2073,"ievt":2074,"eeed":2075,"req":2076,"cxxneipist":2077,"dge":2078,"400":2079,"storag":2080,"ept":2081,"Ġswitch":2082,"vectorimsaim":2083,"219":2084,"bin":2085,"xor":2086,"channel":2087,"Ġ%._":2088,"Ġ\"${":2089,"Ġ28":2090,"shared":2091,"storageem":2092,"hashelb":2093,"vectoriisaiieeeppev":2094,"znsaix":2095,"gpu":2096,"230":2097,"eb":2098,"Ġfdiv":2099,"vb":2100,"Ġfpext":2101,"209":2102,"337":2103,"erkss":2104,"sm":2105,"memmove":2106,"rcu":2107,"phy":2108,"Ġ18":2109,"rksai":2110,"rtl":2111,"vectoribsaib":2112,"rightepst":2113,"leftepst":2114,"minat":2115,"207":2116,"Ġ56":2117,"um":2118,"saiieet":2119,"255":2120,"ient":2121,"gra":2122,"osort":2123,"pairikiiee":2124,"eesd":2125,"ctx":2126,"_\"":2127,"introsort":2128,"dent":2129,"area":2130,"364":2131,"epkc":2132,"cxxmiipst":2133,"seticst":2134,"clerks":2135,"dm":2136,"any":2137,"regs":2138,"pairixxee":2139,"222":2140,"nipim":2141,"iteratoriplst":2142,"ijdpt":2143,"deallocate":2144,"232":2145,"cas":2146,"spt":2147,"iteratorix":2148,"pis":2149,"student":2150,"pairipst":2151,"Ġ46116860184273879":2152,"nodeev":2153,"xspt":2154,"ary":2155,"jrkst":2156,"gl":2157,"221":2158,",$":2159,"minatev":2160,"km":2161,"gro":2162,"yst":2163,"terminatev":2164,"person":2165,"sail":2166,"iteratoriie":2167,"024":2168,"iiies":2169,"asmresult":2170,"buckets":2171,"ore":2172,"208":2173,"217":2174,"216":2175,"znsirserx":2176,"segment":2177,"ont":2178,"Ġ({":2179,"eeeppev":2180,"static":2181,"231":2182,"Ġ25":2183,"our":2184,"aw":2185,"vectoriisaiieeet":2186,"218":2187,"over":2188,"ieevt":2189,"228":2190,"xk":2191,"typeerksa":2192,"ejee":2193,"color":2194,"2018":2195,"ssst":2196,"sock":2197,"toiiest":2198,"quest":2199,"dd":2200,"249":2201,"aipst":2202,"10000":2203,"eesb":2204,"Ġ19":2205,"peel":2206,"backedge":2207,"output":2208,"rep":2209,"bus":2210,"lle":2211,"eeevt":2212,"forwardirieot":2213,"Ġ23":2214,"237":2215,")*,":2216,"Ġ__":2217,"traitsisaissee":2218,"pip":2219,"rna":2220,"path":2221,"emmev":2222,"irect":2223,"285":2224,"cxxltip":2225,"destroyipss":2226,"request":2227,"*)*,":2228,"\"***":2229,"ith":2230,"scalar":2231,"240":2232,"224":2233,"delete":2234,"indirect":2235,"307":2236,"istreamit":2237,"strs":2238,"getilm":2239,"pix":2240,"eo":2241,"220":2242,"vectoridsaid":2243,"rec":2244,"},":2245,"clear":2246,"contr":2247,"nodeijrkst":2248,"iteratoriist":2249,"iteratoripieet":2250,"insertij":2251,"insn":2252,"action":2253,"gs":2254,"integer":2255,"cxxeq":2256,"ipx":2257,"ibu":2258,"child":2259,"case":2260,"ource":2261,"face":2262,"cfg":2263,"292":2264,"swapin":2265,"iedtcl":2266,"baseipiedtcl":2267,"018":2268,"pairikssiest":2269,"imageinfo":2270,"nst":2271,"260":2272,"enne":2273,"mers":2274,"number":2275,"twister":2276,"mersenne":2277,"iied":2278,"226":2279,"235":2280,"239":2281,"constructiijrkieeevrs":2282,"ift":2283,"tim":2284,"294":2285,"257":2286,"zstrs":2287,"znsaicec":2288,"iiieest":2289,"zstrsicst":2290,"aipim":2291,"allocatoriied":2292,"Ġ63":2293,"225":2294,"imm":2295,"sign":2296,"group":2297,"251":2298,"nodes":2299,"pairikxxest":2300,"helperili":2301,"233":2302,"baseipxet":2303,"iterens":2304,"pairiiieec":2305,"Ġfneg":2306,"234":2307,"arch":2308,"ctl":2309,"jjjjj":2310,"rksaice":2311,"insertjjjjj":2312,"destroyipievt":2313,"destroyipieevt":2314,"250":2315,"baseisaibee":2316,"proper":2317,"erase":2318,"pb":2319,"miieept":2320,"hashix":2321,"ef":2322,"equals":2323,"229":2324,"my":2325,"pairiiiec":2326,"chip":2327,"eees":2328,"client":2329,"backij":2330,"graph":2331,"none":2332,"248":2333,"unlock":2334,"pairiiieeot":2335,"backerki":2336,"273":2337,"destroyiieevrs":2338,"dist":2339,"327":2340,"288":2341,"ctrl":2342,"223":2343,"fail":2344,"scsi":2345,"shift":2346,"cd":2347,"spinlock":2348,"fw":2349,"0000000000":2350,"errorpkc":2351,"typeens":2352,"305":2353,">::":2354,"skb":2355,"addressofist":2356,"512":2357,"wl":2358,"nodeiiee":2359,"iteriz":2360,"ple":2361,"znsols":2362,"246":2363,"pcs":2364,"ule":2365,"pairiee":2366,"ring":2367,"regmap":2368,"Ġ@.":2369,"Ġreadnone":2370,"final":2371,"scalarit":2372,"iteratoripkst":2373,"ofin":2374,"258":2375,"deev":2376,"264":2377,"common":2378,"vectoriisaiieeeel":2379,"mapiiist":2380,"deallocateepxm":2381,"rkc":2382,"pairiky":2383,"frame":2384,"ixers":2385,"vectorixsaixeeeplel":2386,"lnot":2387,"backwardi":2388,"status":2389,"238":2390,"front":2391,"tupleijo":2392,"beg":2393,"overflow":2394,"backwardilb":2395,"date":2396,"266":2397,"eeevn":2398,"242":2399,"jsaij":2400,"236":2401,"insertijrk":2402,"red":2403,"mapi":2404,"xfs":2405,"property":2406,"match":2407,"pairikcst":2408,"space":2409,"total":2410,"strip":2411,"vectorijsaij":2412,"nodeixe":2413,"ert":2414,"dc":2415,"putchar":2416,"with":2417,"elementixt":2418,"vectorixsaixeeees":2419,"compareist":2420,"267":2421,"intel":2422,"252":2423,"ker":2424,"243":2425,"245":2426,"sync":2427,"dequeiisaiiee":2428,"baseipk":2429,"col":2430,"ked":2431,"ende":2432,"Ġ100":2433,"trie":2434,"iteratoripis":2435,"pl":2436,"mult":2437,"ipk":2438,"party":2439,"Ġ29":2440,"Ġ}>,":2441,"244":2442,"piet":2443,"rement":2444,"ik":2445,"296":2446,"search":2447,"lessile":2448,"abortv":2449,"smax":2450,"moveirn":2451,"instr":2452,"501":2453,"treei":2454,"pairikciest":2455,"src":2456,"Ġ49":2457,"ijrs":2458,"constructix":2459,"esai":2460,"mac":2461,"pairiiieeonst":2462,"ilst":2463,"resetev":2464,"elements":2465,"aa":2466,"bounders":2467,"insertin":2468,"znssple":2469,"020":2470,"eeemmev":2471,"constructist":2472,"ba":2473,"dy":2474,"irs":2475,"iterev":2476,"compev":2477,"384":2478,"333":2479,"325":2480,"vectoriisaiieeeeet":2481,"254":2482,"021":2483,"ow":2484,"iteratoripxes":2485,"infin":2486,"vectoriesai":2487,"vectorixsaixeed":2488,"partial":2489,"269":2490,"loopin":2491,"027":2492,"iiii":2493,"destroyiieevpt":2494,"plat":2495,"017":2496,"secondchild":2497,"262":2498,"1005":2499,"idsaidee":2500,"bec":2501,"params":2502,"printk":2503,"vert":2504,"247":2505,"253":2506,"den":2507,"259":2508,"save":2509,"241":2510,"279":2511,"iterist":2512,"282":2513,"iel":2514,"active":2515,"rlock":2516,"nodeij":2517,"271":2518,"headerc":2519,"coun":2520,"283":2521,"pairikiieee":2522,"amd":2523,"ieeevn":2524,"sing":2525,"026":2526,"znsaiss":2527,"pairikiceee":2528,"control":2529,"280":2530,"pairikssiee":2531,"281":2532,"\"**,":2533,"ca":2534,"sailee":2535,"wait":2536,"**)":2537,"ppev":2538,"fa":2539,"pv":2540,"Ġnop":2541,"}:":2542,"stripit":2543,"pairikl":2544,"constructiss":2545,"flagss":2546,"fmtflagss":2547,"bm":2548,"270":2549,"1010":2550,"allocatorix":2551,"icu":2552,"iteratoripcst":2553,"ure":2554,"Ġ65":2555,"median":2556,"dest":2557,"lessixesaist":2558,"_\"(%\"":2559,"268":2560,"pairikciee":2561,"sg":2562,"Ġ26":2563,"nodeice":2564,"263":2565,"eers":2566,"cxxeqip":2567,"409":2568,"primes":2569,"rdx":2570,"345":2571,"typeeeos":2572,"Ġ35":2573,"cal":2574,"ush":2575,"platform":2576,"lgl":2577,"261":2578,"Ġ50":2579,"zstne":2580,"hint":2581,"dtor":2582,"operation":2583,"016":2584,"vectoriisaiieeemmev":2585,"fe":2586,"evpt":2587,"counter":2588,"pm":2589,"register":2590,"pairinst":2591,"values":2592,"rsbis":2593,"ienst":2594,"ell":2595,"hashiss":2596,"Ġ52":2597,"pixel":2598,"single":2599,"mw":2600,"297":2601,"znsolsex":2602,"biginteger":2603,"distance":2604,"man":2605,"jrks":2606,"erst":2607,",\\":2608,"275":2609,"iph":2610,"286":2611,"damage":2612,"iierkt":2613,"realp":2614,"hashixens":2615,"epk":2616,"constructiij":2617,"Ġ36":2618,"strlen":2619,"272":2620,"swapii":2621,"100010":2622,"]]":2623,"vf":2624,"Ġ80":2625,"bpf":2626,"ution":2627,"vectorixsaixeeeebrkns":2628,"infint":2629,"vaarg":2630,"found":2631,"movl":2632,"vis":2633,"pbds":2634,"traitsis":2635,"nvkm":2636,"hashissens":2637,"Ġ230":2638,"028":2639,"imagp":2640,"option":2641,"1369":2642,"valueet":2643,"vectorixsaixeeec":2644,"setist":2645,"lessiy":2646,"ejs":2647,"rom":2648,"power":2649,"cesais":2650,"023":2651,"app":2652,"basee":2653,"reco":2654,"brks":2655,"sct":2656,"Ġtry":2657,"iteratoripdst":2658,"recog":2659,"toptr":2660,"Ġinttoptr":2661,"cxxmiipxst":2662,"301":2663,"1001":2664,"Ġ33":2665,"nodeisse":2666,"epkcrksaice":2667,"iteratori":2668,"276":2669,"293":2670,"274":2671,"rc":2672,"pairikssst":2673,"amdgpu":2674,"zstlsicst":2675,"mas":2676,"sctp":2677,"allocatorime":2678,"284":2679,"025":2680,"sec":2681,"constructiijrkieeevpt":2682,"nic":2683,"Ġ128":2684,"329":2685,"ize":2686,"balign":2687,"step":2688,"310":2689,"cxxneipst":2690,"iteratoripiec":2691,"bar":2692,"boun":2693,"kasan":2694,"640":2695,"320":2696,"iteratoriiec":2697,"confl":2698,"znssplec":2699,"conflict":2700,"vectorisssaisseee":2701,"}\"()":2702,"gcov":2703,"chro":2704,"cet":2705,"265":2706,"ceonst":2707,"iteratoripie":2708,"ceot":2709,"000":2710,"397":2711,"fore":2712,"2036":2713,"mst":2714,"369":2715,"505":2716,"lengthev":2717,"sl":2718,"eert":2719,"solution":2720,"14748":2721,"342":2722,"vectorisssaisseeeens":2723,"Ġfpto":2724,"277":2725,"spi":2726,"pairiddest":2727,"constructiijieeev":2728,"312":2729,"Ġ\"~{":2730,"029":2731,"fv":2732,"ipxn":2733,"4300":2734,"stist":2735,"Ġsle":2736,"hashtableiist":2737,"ifi":2738,"Ġol":2739,"local":2740,"lda":2741,"sqrt":2742,"chrono":2743,"forwardixeot":2744,"exception":2745,"vectorisssaisseeixem":2746,"pe":2747,"ax":2748,"before":2749,"eboh":2750,"hlist":2751,"baseil":2752,"scc":2753,"315":2754,"skip":2755,"ided":2756,"eeevdpot":2757,"slo":2758,"Ġolt":2759,"dv":2760,"584300":2761,"58430092":2762,"584300921369":2763,"58430092136939":2764,"valeevt":2765,"ainst":2766,"Ġ23058430092136939":2767,"22337":2768,"290":2769,"nipimiet":2770,"pairikis":2771,"nipst":2772,"8547":2773,"go":2774,"zstlt":2775,"Ġ34":2776,"forwardirkxeot":2777,"ielb":2778,"14748364":2779,"rementpst":2780,"cry":2781,"exp":2782,"destroyiss":2783,"vectoriisaiieeeepiet":2784,"backeos":2785,"iosicst":2786,"223372036":2787,"nodeiieee":2788,"2233720368547":2789,"valc":2790,"checks":2791,"fn":2792,"mapiicst":2793,"pairit":2794,"itereeonst":2795,"eqerks":2796,"278":2797,"moveirceonst":2798,"vectorilsailee":2799,"306":2800,"acpi":2801,"swapiienst":2802,"mc":2803,"334":2804,"fil":2805,"puts":2806,"bn":2807,"vectoriisaiieest":2808,"deallocateepssm":2809,"empty":2810,"allocatorinst":2811,"299":2812,"hdr":2813,"eeeec":2814,"abs":2815,"Ġ21":2816,"fraction":2817,"Ġurem":2818,"nodeeps":2819,"blas":2820,"pairic":2821,"ata":2822,"toiie":2823,"nodeiilb":2824,"from":2825,"mpt":2826,"implixt":2827,"Ġ22":2828,"helperilm":2829,"epxs":2830,"eej":2831,"super":2832,"xxevt":2833,"categoryerks":2834,"Ġ2305843009213693951":2835,"format":2836,"328":2837,"promo":2838,"311":2839,"324":2840,"lobit":2841,"terks":2842,"799":2843,"destroyipxxevt":2844,"303":2845,"constant":2846,"tiee":2847,"subdev":2848,"scr":2849,"backeo":2850,"znsaixed":2851,"onent":2852,"inv":2853,"314":2854,"291":2855,"pointsais":2856,"sig":2857,"302":2858,"we":2859,"287":2860,"915":2861,"arrow":2862,"destroyipx":2863,"rat":2864,"scd":2865,"ision":2866,"label":2867,"pdev":2868,"setixst":2869,"hci":2870,"resource":2871,"nodeisslb":2872,"lockdep":2873,"lessist":2874,"prec":2875,"pairille":2876,"sci":2877,"ord":2878,"pk":2879,"module":2880,"030":2881,"374":2882,"Ġ256":2883,"update":2884,"clb":2885,"vectorixsaixeec":2886,"Ġogt":2887,"319":2888,"032":2889,"iteratorice":2890,"Ġoge":2891,"sse":2892,"inser":2893,"363":2894,"solver":2895,"000000000000000":2896,"lessicesaist":2897,"iteratoripkxst":2898,"ieeeot":2899,"destroyix":2900,"qp":2901,"350":2902,"298":2903,"lpfc":2904,"pairist":2905,"kmem":2906,"000000000000":2907,"valid":2908,"jst":2909,"289":2910,"narrow":2911,"pairiiieed":2912,"iteratoripyst":2913,"rksbis":2914,"pso":2915,"321":2916,"tieepso":2917,"stats":2918,"iiieesais":2919,"rip":2920,"Ġ255":2921,"hashiiest":2922,"eeeesa":2923,"359":2924,"tar":2925,"past":2926,"baseipist":2927,"masked":2928,"mapix":2929,"vectoriisaiieeest":2930,"cook":2931,"Ġfptosi":2932,"vari":2933,"btr":2934,"341":2935,"znsaixec":2936,"sseot":2937,"nodei":2938,"338":2939,"deleteis":2940,"ofinit":2941,"endofinit":2942,"membufiie":2943,"354":2944,"356":2945,"vectoriisaiieeeelins":2946,"counted":2947,"rel":2948,"377":2949,"elementpast":2950,"ia":2951,"sld":2952,"nodecl":2953,"edtcl":2954,"mx":2955,"ri":2956,"ipc":2957,"contin":2958,"uration":2959,"mb":2960,"scf":2961,"nodeicee":2962,"343":2963,"eebrt":2964,"tes":2965,"root":2966,"slot":2967,"Ġudiv":2968,"balance":2969,"322":2970,"304":2971,"netdev":2972,"baseixsaixeed":2973,"pla":2974,"mapist":2975,"iiilb":2976,"btrfs":2977,"bounde":2978,"pairikicelb":2979,"sortipin":2980,"boundepst":2981,"irt":2982,"tupleijxspt":2983,"336":2984,"alph":2985,"*)(":2986,"forwardirst":2987,"316":2988,"continue":2989,"old":2990,"fd":2991,"vp":2992,"ijeeeeevpt":2993,"integ":2994,"ijxspt":2995,"eejejee":2996,"imlm":2997,"locks":2998,"clerkis":2999,"ijeeeeevrs":3000,"eejejeeerst":3001,"bss":3002,"034":3003,"baseipst":3004,"331":3005,"Ġ46":3006,"323":3007,"scs":3008,"Ġunsigned":3009,"339":3010,"sancov":3011,"selectin":3012,"365":3013,"Ġ99":3014,"irk":3015,"conne":3016,"pairikxceee":3017,"treeiy":3018,"backwardin":3019,"326":3020,"347":3021,"integr":3022,"309":3023,"du":3024,"cb":3025,"ock":3026,"has":3027,"insertijrkieeevn":3028,"stdio":3029,"eens":3030,"pairixxeee":3031,"cge":3032,"iiet":3033,"stdioeb":3034,"same":3035,"cssee":3036,"eneerks":3037,"pairidd":3038,"leve":3039,"035":3040,"lc":3041,"unk":3042,"308":3043,"340":3044,"jrkx":3045,"csseebrkns":3046,"031":3047,"setissst":3048,"317":3049,"constructixjrkx":3050,"Ġ655":3051,"strided":3052,"component":3053,"enc":3054,"313":3055,"Ġ...)*)(":3056,"airo":3057,"353":3058,"iteratoriirip":3059,"033":3060,"bigintst":3061,"partitionin":3062,"351":3063,"timer":3064,"duration":3065,"nrvo":3066,"iiieiee":3067,"eeeels":3068,"_,":3069,"624":3070,"firstin":3071,"contain":3072,"baseidsaidee":3073,"pivotin":3074,"epns":3075,"let":3076,"heapip":3077,"most":3078,"394":3079,"beot":3080,"qed":3081,"335":3082,"348":3083,"nodesais":3084,"mat":3085,"toissest":3086,"hor":3087,"pairiiiees":3088,"pool":3089,"pairikib":3090,"318":3091,"attribu":3092,"Ġarraydestroy":3093,"sz":3094,"rebalance":3095,"user":3096,"036":3097,"iris":3098,"saiyee":3099,"allocatoripnst":3100,"testcase":3101,"469":3102,"Ġ27":3103,"skipdtor":3104,"traitsisaicee":3105,"ler":3106,"xeec":3107,"cairo":3108,"510":3109,"362":3110,"ken":3111,"container":3112,"460":3113,"target":3114,"mv":3115,"sseeev":3116,"allocatorice":3117,"ave":3118,"vers":3119,"037":3120,"mapic":3121,"toixest":3122,"open":3123,"integral":3124,"ures":3125,"386":3126,"basers":3127,"region":3128,"quad":3129,"352":3130,"dentry":3131,"oss":3132,"360":3133,"ou":3134,"ync":3135,"isactive":3136,"ration":3137,"chine":3138,"349":3139,"stringstream":3140,"backev":3141,"pat":3142,"pairixiest":3143,"038":3144,">>>,":3145,"isc":3146,"344":3147,"templ":3148,"forwardibeot":3149,"rade":3150,"matr":3151,"346":3152,"lns":3153,"ning":3154,"Ġ4611686018427387903":3155,"__._":3156,"precision":3157,"iteripfbs":3158,"valarray":3159,"rate":3160,"iteratorisse":3161,"uniform":3162,"330":3163,"solvev":3164,"iteratoripcsse":3165,"org":3166,"baseilsailee":3167,"iid":3168,"hashic":3169,"lessiieclerkis":3170,"385":3171,"jjjj":3172,"jp":3173,"ejo":3174,"pret":3175,"cxxltipist":3176,"rational":3177,"cpuid":3178,"039":3179,"Ġ66":3180,"level":3181,"ts":3182,"bucketse":3183,"pkt":3184,"template":3185,"options":3186,"eecl":3187,"used":3188,"Ġ\"={":3189,"ejeeest":3190,"valclins":3191,"332":3192,"radeon":3193,"scll":3194,"emptyev":3195,"cec":3196,"gpio":3197,"forwardirksseot":3198,"iblb":3199,"iterclipis":3200,"buil":3201,"dequeist":3202,"urb":3203,"factor":3204,"constantiblb":3205,"376":3206,"380":3207,"ejlm":3208,"led":3209,"machine":3210,"pointst":3211,"pairiiieaseos":3212,"core":3213,"040":3214,"nam":3215,"}\"(%":3216,"rotjjjj":3217,"sus":3218,"prob":3219,"eeeed":3220,"357":3221,"null":3222,"errno":3223,"hashicens":3224,"znsaipnst":3225,"Ġ39":3226,"79995":3227,"iidii":3228,"hal":3229,"bpst":3230,"pairikice":3231,"dvb":3232,"rebalancebpst":3233,"mar":3234,"bits":3235,"368":3236,"358":3237,"xxx":3238,"pairixs":3239,"mostev":3240,"pretty":3241,"clock":3242,"355":3243,"nstart":3244,"memcheck":3245,"vectorisssaisseed":3246,"Ġblock":3247,"iteratorc":3248,"(@":3249,"Ġblockaddress":3250,"mple":3251,"suc":3252,"wid":3253,"chunk":3254,"baseiist":3255,"mee":3256,"lattr":3257,"distr":3258,"100001":3259,"bytes":3260,"nlattr":3261,"tempor":3262,"sset":3263,"maxiierkt":3264,"pairikcc":3265,"handler":3266,"pack":3267,"ijeeeeest":3268,"parse":3269,"ijrkst":3270,"uniqueijrkst":3271,"ool":3272,"allocatorixec":3273,"sui":3274,"ijeeeeepst":3275,"ijeeeeevpst":3276,"iteratoriiee":3277,"acket":3278,"runt":3279,"testv":3280,"395":3281,"quer":3282,"iwl":3283,"dw":3284,"order":3285,"370":3286,"nfs":3287,"mesh":3288,"sscl":3289,"bint":3290,"temporary":3291,"blb":3292,"distribu":3293,"ssi":3294,"vc":3295,"\"*)**":3296,"390":3297,"pairikcx":3298,"Ġ51":3299,"Ġ92233720368547":3300,"pairiss":3301,"dig":3302,"conn":3303,"nf":3304,"372":3305,"vectoriisaiieeeep":3306,"resp":3307,"Ġatomic":3308,"vectoriisaiieeeeee":3309,"Ġsge":3310,"distribution":3311,"async":3312,"671":3313,"matrix":3314,"pairiddesais":3315,"det":3316,"json":3317,"dio":3318,"cgeterks":3319,"496":3320,"sel":3321,"place":3322,"lessissesaist":3323,"379":3324,"iii":3325,"px":3326,"saimee":3327,"copyerks":3328,"381":3329,"now":3330,"maskedptr":3331,"sseonst":3332,"pairie":3333,"592":3334,"mj":3335,"brksbit":3336,"traitsicesaiceebrksbit":3337,"pcpis":3338,"sortip":3339,"cookie":3340,"375":3341,"378":3342,"aipimien":3343,"baseipkist":3344,"383":3345,"assert":3346,"lessime":3347,"ibsai":3348,"attribute":3349,"pree":3350,"ssevt":3351,"nilb":3352,"361":3353,"mid":3354,"pairikiielb":3355,"lsl":3356,"dem":3357,"387":3358,"366":3359,"vs":3360,"swapip":3361,"miel":3362,"367":3363,"pto":3364,"expr":3365,"adv":3366,"queueist":3367,"glsl":3368,"iteratoripsses":3369,"preempt":3370,"aserks":3371,"ibsaibee":3372,"ssion":3373,"poss":3374,"xest":3375,"disp":3376,"scld":3377,"ick":3378,"emrk":3379,"iteripf":3380,"namespace":3381,"multis":3382,"eedeev":3383,"crypto":3384,"ui":3385,"371":3386,"bkts":3387,"memp":3388,"del":3389,"construction":3390,"delay":3391,"erkc":3392,"vectoriisaiieeed":3393,"ager":3394,"look":3395,"eeeelb":3396,"ces":3397,"388":3398,"044":3399,"eeeeet":3400,"filter":3401,"treeilst":3402,"constructionerks":3403,"Ġ60":3404,"389":3405,"irpst":3406,"proto":3407,"391":3408,"mapixcst":3409,"operations":3410,"iteratoripmst":3411,"prog":3412,"chg":3413,"icj":3414,"gh":3415,"bfa":3416,"lessilesais":3417,"basec":3418,"pairidiest":3419,"408":3420,"vectorisssaisseeee":3421,"destroyipssssevt":3422,"ivlb":3423,"constructissjrk":3424,"eeesd":3425,"decrementpst":3426,"ck":3427,"+${":3428,"moveirsseonst":3429,"Ġ409":3430,"qerks":3431,"cpumask":3432,"*]*":3433,"angle":3434,"iteratoripkc":3435,"tupleijrkieeeot":3436,"vectoriisaiieeeeevt":3437,"cases":3438,"lessiiesaiieed":3439,"runtime":3440,"4294967":3441,"}:\\":3442,"373":3443,"iteris":3444,"baseee":3445,"imagestack":3446,"rq":3447,"Ġcallbr":3448,"internal":3449,"baseisssaisseed":3450,"ipiet":3451,"baseixsaixeec":3452,"ipcee":3453,"traitsisaimee":3454,"lite":3455,"mole":3456,"decl":3457,"eth":3458,"exec":3459,"igh":3460,"send":3461,"ibsaibeesais":3462,"041":3463,"nextev":3464,"382":3465,"horse":3466,"mov":3467,"398":3468,"eps":3469,"ei":3470,"bitsetilm":3471,"ner":3472,"045":3473,"een":3474,"vectorixsaixeeeppev":3475,"blk":3476,"recur":3477,"moz":3478,"crtc":3479,"wq":3480,"cell":3481,"hba":3482,"396":3483,"048":3484,"trien":3485,"mag":3486,"cp":3487,"weight":3488,"epks":3489,"inic":3490,"rele":3491,"ixeept":3492,"command":3493,"edg":3494,"lookup":3495,"binary":3496,"vectorisssaisseeedeev":3497,"zsteqipst":3498,"zstneipst":3499,"Ġ+":3500,"047":3501,":.":3502,"Ġ.,":3503,"ipnst":3504,"coder":3505,"399":3506,"stde":3507,"iieec":3508,"destroyin":3509,"410":3510,"inf":3511,"bio":3512,"Ġ47":3513,"dynam":3514,"404":3515,"dynamic":3516,"Ġ82":3517,"vectorisssaisseeec":3518,"baseeed":3519,"outer":3520,"backeoi":3521,"nodeixee":3522,"vectoribsaibeesais":3523,"znsaissed":3524,"constructiijieeevrs":3525,"406":3526,"cxxneipxst":3527,"pfs":3528,"erkx":3529,"ifier":3530,"bd":3531,"multiset":3532,"epmj":3533,"rbeot":3534,"forwardirbeot":3535,"znsaissec":3536,"046":3537,"hd":3538,"444":3539,"646":3540,"eeeeec":3541,"znssase":3542,"znssaseoss":3543,"043":3544,"roty":3545,"405":3546,"lessiye":3547,"pairiicest":3548,"042":3549,"chk":3550,"sbit":3551,"pairixxeec":3552,"resize":3553,"isp":3554,"two":3555,"opt":3556,">>>>::_":3557,"392":3558,"ptrint":3559,"vectoricsaiceee":3560,"md":3561,"Ġ57":3562,"ted":3563,"issept":3564,"addressofissept":3565,"555":3566,"600":3567,"can":3568,"407":3569,"rotyjjj":3570,"Ġ}>*":3571,"393":3572,"Ġ44":3573,"bst":3574,"sqlite":3575,"destroyipssevt":3576,"operator":3577,"Ġ41":3578,"ctlz":3579,"pairiii":3580,"disable":3581,"pairikiie":3582,"pa":3583,"Ġ._":3584,"refcount":3585,"aystar":3586,"426":3587,"bigintd":3588,"hid":3589,"zstp":3590,"traitsicesaiceesbit":3591,"zstplicst":3592,"grid":3593,"erksait":3594,"biiee":3595,"Ġ214748364":3596,"pairikxxee":3597,"eeeeerksait":3598,"Ġ38":3599,"points":3600,"invo":3601,"aipxs":3602,"esains":3603,"copyip":3604,"758":3605,"zstor":3606,"hashtableixst":3607,"nodest":3608,"sta":3609,"baseipmet":3610,"401":3611,"456":3612,"fix":3613,"049":3614,"variant":3615,"eoss":3616,"iterclip":3617,"iteratoripcssedeev":3618,"pose":3619,"allocated":3620,"baseiy":3621,"high":3622,"Ġ1000":3623,"compar":3624,"cq":3625,"Ġ37":3626,"tinter":3627,"complexs":3628,":$":3629,"},=":3630,"447":3631,"inplace":3632,"pds":3633,"change":3634,"fi":3635,"nodese":3636,"backijs":3637,"manager":3638,"rtw":3639,"eeest":3640,"iins":3641,"qla":3642,"dequeis":3643,"fiel":3644,"release":3645,"ify":3646,"455":3647,"saixeet":3648,"9999":3649,"mozill":3650,"doublecomplexs":3651,"propertyrna":3652,"box":3653,"mozilla":3654,"hed":3655,"502":3656,"Ġbool":3657,"mark":3658,"cy":3659,"435":3660,"Ġ55":3661,"nipxm":3662,"wa":3663,"location":3664,"mlxsw":3665,"invoker":3666,"referencec":3667,"answ":3668,"050":3669,"icsaiceesais":3670,"bnx":3671,"403":3672,"ipt":3673,"pairixxe":3674,"tinterm":3675,"mapp":3676,"regex":3677,"ln":3678,"lf":3679,"eeeept":3680,"mapicist":3681,"allocatorissec":3682,"ejrkiee":3683,"pairixxeeonst":3684,"416":3685,"412":3686,"Ġ68":3687,"ixsaixeesais":3688,"sequ":3689,"vev":3690,"irks":3691,"411":3692,"reader":3693,"tran":3694,"415":3695,"pairikiceec":3696,"constructissj":3697,"proble":3698,"8000000000000000":3699,"query":3700,"erkilb":3701,"zext":3702,"nl":3703,"heapipin":3704,"420":3705,"Ġ42":3706,"comedi":3707,"mapiss":3708,"414":3709,"exceptioninfo":3710,"pairikst":3711,"nodeiiedpot":3712,"xen":3713,"427":3714,"pairikxxeee":3715,"aipimiet":3716,"417":3717,"iphy":3718,"402":3719,"token":3720,"413":3721,"_.":3722,"eeeeps":3723,"ifs":3724,"packet":3725,"1111":3726,"day":3727,"lessiiesaiieec":3728,"059":3729,"ings":3730,"probe":3731,"sof":3732,"eon":3733,"alpha":3734,"mmio":3735,"ips":3736,"identityiie":3737,"800":3738,"promise":3739,"allocatorip":3740,"Ġpred":3741,"mess":3742,"nb":3743,"}\",":3744,"ixxe":3745,"418":3746,"pairikssb":3747,"Ġ()":3748,"pairikxs":3749,"brmerge":3750,"toicest":3751,"lsame":3752,"ilest":3753,"traitsisainst":3754,"476":3755,"znsaimed":3756,"iew":3757,"896":3758,"mec":3759,"baseim":3760,"zstan":3761,"4096":3762,"iyest":3763,"vectorisssaisseec":3764,"7580":3765,"448":3766,"bc":3767,"ioc":3768,"jeert":3769,"df":3770,"*],":3771,"pairiiieebrkst":3772,"Ġ96":3773,"pport":3774,"rpc":3775,"iteratorixec":3776,"freq":3777,"wiphy":3778,"reversein":3779,"Ġxchg":3780,"kvm":3781,"424":3782,"nodec":3783,"insertijs":3784,"pairikm":3785,"xeeeot":3786,"bitmap":3787,"mon":3788,"reser":3789,"497":3790,"structures":3791,"vectoriisaiieeeeeebrt":3792,"bv":3793,"499":3794,"mmc":3795,"ae":3796,"pairixxec":3797,"biieept":3798,"ender":3799,"cash":3800,"eeesais":3801,"pairiiieeec":3802,"422":3803,"sis":3804,"mapem":3805,"iteratoripjst":3806,"her":3807,"alf":3808,"enabled":3809,"frontend":3810,"valueee":3811,"423":3812,"trienode":3813,"464":3814,"bid":3815,"432":3816,"stdout":3817,"446":3818,"cxxeqipist":3819,"promote":3820,"vectoriisaiieeeelns":3821,"xsr":3822,"459":3823,"addressofin":3824,"cevt":3825,"pairikxcelb":3826,"mpty":3827,"425":3828,"055":3829,"flush":3830,"ceee":3831,"integeris":3832,"ipher":3833,"iw":3834,"ipcenst":3835,"nodeeeest":3836,"width":3837,"419":3838,"nodeixeee":3839,"dinic":3840,"433":3841,"508":3842,"429":3843,"428":3844,"445":3845,"pin":3846,"Ġ45":3847,"pairixxeeot":3848,"iilm":3849,"pass":3850,"pairiiieevt":3851,"576":3852,"valueede":3853,"integerit":3854,"forwardirkceot":3855,"smp":3856,"Ġ1024":3857,"rkst":3858,"488":3859,"vbev":3860,"ieeevdpot":3861,"complexide":3862,"foov":3863,"loadn":3864,"af":3865,"fer":3866,"epkipiet":3867,"Ġoeq":3868,"450":3869,"poll":3870,"addressofinst":3871,"pairikssieee":3872,"baseisaib":3873,"nodeiieec":3874,"pxm":3875,"aipxm":3876,"gcd":3877,"tm":3878,"bufferist":3879,"mapixxst":3880,"domain":3881,"isempty":3882,"ux":3883,"basesa":3884,"Ġ512":3885,"pairikcieee":3886,"policye":3887,"430":3888,"ound":3889,"454":3890,"498":3891,"process":3892,"run":3893,"clip":3894,"vectorisssaisseeeebrkns":3895,"destroyixeevrs":3896,"message":3897,"441":3898,"pairikcs":3899,"434":3900,"606":3901,"categoryin":3902,"eeem":3903,"field":3904,"452":3905,",${":3906,"Ġ115":3907,"emiel":3908,"eeeelns":3909,"jx":3910,"imet":3911,"ulator":3912,"440":3913,"458":3914,"507":3915,"kfree":3916,"pixelchannel":3917,"dl":3918,"lear":3919,"answer":3920,"437":3921,"ire":3922,"eeevpst":3923,"vectorixsaixeeet":3924,"fff":3925,"466":3926,"477":3927,"057":3928,"pairikssbest":3929,"Ġhalf":3930,"allocatorile":3931,"478":3932,"457":3933,"acity":3934,"rmw":3935,"nipimet":3936,"nipimeet":3937,"barv":3938,"eeclins":3939,"eeeonst":3940,"487":3941,"bswap":3942,"Ġarrayctor":3943,"468":3944,"vide":3945,"051":3946,"sched":3947,"449":3948,"421":3949,"learning":3950,"cos":3951,"472":3952,"eeeos":3953,"ocfs":3954,"443":3955,"ubign":3956,"allocatorixed":3957,"clerkxs":3958,"sin":3959,"fm":3960,"constructixjrkxeeevrs":3961,"rdev":3962,"eeeeeebrt":3963,"pairikccest":3964,"queueiist":3965,"funcs":3966,"vectoriysaiyee":3967,"eep":3968,"dow":3969,"intf":3970,"lib":3971,"dataers":3972,"ull":3973,"rbx":3974,"calc":3975,"bbegin":3976,"iteratorixst":3977,"iteratoripxeet":3978,"Ġ78":3979,"iien":3980,"504":3981,"iio":3982,"436":3983,"video":3984,"056":3985,"Ġxchgq":3986,"pairikxiest":3987,"Ġ76":3988,"20000":3989,"pixelchannelmap":3990,"rdma":3991,"destroyipxevt":3992,"xedtcl":3993,"baseipxedtcl":3994,"capacity":3995,"vectorilsaileeeens":3996,"destroyipxeevt":3997,"pps":3998,"601":3999,"Ġ87":4000,"vectorimsaimee":4001,"mous":4002,"ffl":4003,"itercliins":4004,"pd":4005,"ther":4006,"vectoricsaiceeee":4007,"ymous":4008,"anonymous":4009,"470":4010,"509":4011,"imst":4012,"even":4013,"warned":4014,")::":4015,"fflush":4016,"inserter":4017,"odd":4018,"iteratoripkssst":4019,"nodeiieed":4020,"Ġnamespace":4021,"destroyist":4022,"pipe":4023,"439":4024,"467":4025,"Ġ65535":4026,"tool":4027,"gener":4028,"058":4029,"lang":4030,"constructicj":4031,"maskcond":4032,"Ġ4294967294":4033,"sscis":4034,"1243":4035,"pairieeest":4036,"00000007":4037,"053":4038,"treeiyst":4039,"Ġ127":4040,"451":4041,"480":4042,"453":4043,"ipcees":4044,"513":4045,"vectoriisaiieeemiel":4046,"cost":4047,"interface":4048,"dfs":4049,"membufixe":4050,"465":4051,"tv":4052,"clerkc":4053,"prep":4054,"glist":4055,"442":4056,"iscsi":4057,"baseeec":4058,"ssebrkst":4059,"substream":4060,"extractev":4061,"lessiyesais":4062,"438":4063,"rki":4064,"visit":4065,"Ġseq":4066,"destroyipc":4067,"\"]]*":4068,"475":4069,"cxxltipst":4070,"vif":4071,"sizem":4072,"Ġ_":4073,"\"]],":4074,"4836":4075,"hl":4076,"eclins":4077,"lessiieec":4078,"isss":4079,"474":4080,"__,":4081,"pairikicesais":4082,"illst":4083,"052":4084,"492":4085,"pairiicee":4086,"479":4087,"sys":4088,"iceee":4089,"00000000000000000000":4090,"462":4091,"dump":4092,"054":4093,"deallocateepcm":4094,"perf":4095,"descr":4096,"tupleijrkieec":4097,"iye":4098,"acks":4099,"treenode":4100,"arrayiilm":4101,"gbe":4102,"promoted":4103,"489":4104,"display":4105,"cel":4106,"ipssebrkst":4107,"og":4108,"problem":4109,"485":4110,"zero":4111,"lex":4112,"vectorixsaixeeemmev":4113,"uc":4114,"pairikiieec":4115,"cho":4116,"Ġ461168601842738790":4117,"461":4118,"prod":4119,"mapissist":4120,"ldb":4121,"506":4122,"dai":4123,"ta":4124,"appende":4125,"valist":4126,"setprecision":4127,"200000":4128,"Ġatomicrmw":4129,"greaterix":4130,"mmu":4131,"sett":4132,"eeeeevt":4133,"mount":4134,"session":4135,"eeemiel":4136,"forwardisse":4137,"forwardisseot":4138,"plan":4139,"674836":4140,"67483615":4141,"544":4142,"nfinish":4143,"522":4144,"486":4145,"iteratoriss":4146,"vectoricsaiceesais":4147,"version":4148,"484":4149,"ssis":4150,"Ġ58":4151,"gb":4152,"sn":4153,"tun":4154,"ptrist":4155,"orig":4156,"engineimlm":4157,"checkp":4158,"vd":4159,"603":4160,"sscsi":4161,"tupleijiiiee":4162,"initialize":4163,"unpack":4164,"board":4165,"604":4166,"reuse":4167,"655":4168,"constructixjx":4169,"473":4170,"regulator":4171,"iiisai":4172,"ejrkieec":4173,"sseeevrs":4174,"Ġ671":4175,"znsaimec":4176,"znsainst":4177,"drv":4178,"nest":4179,"sseet":4180,"641":4181,"baseisssaisseec":4182,"pxet":4183,"cule":4184,"rm":4185,"pairikiceeee":4186,"frontev":4187,"molecule":4188,"endepi":4189,"sssc":4190,"431":4191,"sseec":4192,"471":4193,"wmoperator":4194,"vectoribsaibeeixem":4195,"patch":4196,"constructiijieeevpt":4197,"atter":4198,"517":4199,"iteratoripcsseppev":4200,"463":4201,"Ġ72":4202,"virt":4203,"2000":4204,"iieeeevt":4205,"source":4206,"ilin":4207,"pairixiesais":4208,"cxxmiipssst":4209,"expect":4210,"destroyixeevpt":4211,"idsaideesais":4212,"ixxeest":4213,"481":4214,"Ġ59":4215,"495":4216,"vectoriesaieeee":4217,"ieebt":4218,"558":4219,"515":4220,"cub":4221,"060":4222,"clerki":4223,"baseeept":4224,"490":4225,"identityiieclerki":4226,"hashtableiiisai":4227,"hashtableiiisaiienst":4228,"nodeiclb":4229,"Ġ112":4230,"bs":4231,"extent":4232,"backerkx":4233,"lessixeclerkxs":4234,"iteratoripxs":4235,"encoder":4236,"*>":4237,"ha":4238,"pg":4239,"483":4240,"vectorisssaisseeeplel":4241,"znsolsed":4242,"ader":4243,"valik":4244,"491":4245,"eese":4246,"iteratoriieeot":4247,"Ġ1000000000":4248,"511":4249,"214748364":4250,"mixeept":4251,"iesai":4252,"cer":4253,"forwardirxeot":4254,"pairikxiee":4255,"isssssaiss":4256,"modimlm":4257,"tupleijrkxeeeot":4258,"494":4259,"3253":4260,"socket":4261,"mapping":4262,"ical":4263,"482":4264,"addressofipnst":4265,"referencecvbev":4266,"587":4267,"magick":4268,"645":4269,"swapix":4270,"baseeee":4271,"znssas":4272,"iterclist":4273,"codee":4274,"fir":4275,"baseipcet":4276,"cxxneipcsseebrkns":4277,"miniierkt":4278,"pref":4279,"elt":4280,"cut":4281,"nan":4282,"swapers":4283,"coord":4284,"514":4285,"baseixst":4286,"icenst":4287,"codec":4288,"503":4289,"585":4290,"556":4291,"hashtableisssssaiss":4292,"hashtableisssssaissenst":4293,"999":4294,"493":4295,"584":4296,"eons":4297,"7896":4298,"ose":4299,"ixerkt":4300,"lin":4301,"cv":4302,"susp":4303,"eepst":4304,"gcc":4305,"pq":4306,"iiiebrkst":4307,"copyipis":4308,"tab":4309,"ics":4310,"maximum":4311,"capacityev":4312,"swapicenst":4313,"Ġ\"=*":4314,"lessiyesaiyee":4315,"Ġ4096":4316,"sto":4317,"backec":4318,"tyy":4319,"malloc":4320,"listiisaiiee":4321,"insertyy":4322,"insertyyjjj":4323,"575":4324,"ki":4325,"rw":4326,"bh":4327,"ecx":4328,"Ġ4611686018427387896":4329,"unit":4330,"pairikj":4331,"destroyic":4332,"workqueue":4333,"callback":4334,"524":4335,"ger":4336,"down":4337,"sas":4338,"552":4339,"559":4340,"swapixenst":4341,"posest":4342,"pkcs":4343,"iterit":4344,"assume":4345,"pairill":4346,"ome":4347,"ceph":4348,"toisse":4349,"520":4350,"resiz":4351,"wideiv":4352,"lftr":4353,"ratio":4354,"reass":4355,"516":4356,"heapipilin":4357,"tests":4358,"lessilesailee":4359,"toice":4360,"vectorixsaixeeeeet":4361,"ebx":4362,"edx":4363,"setup":4364,"view":4365,"compound":4366,"timeout":4367,"nums":4368,"pkcis":4369,"12433253":4370,"vectoricsaiceeec":4371,"com":4372,"feat":4373,"nand":4374,"(,":4375,"sortipxn":4376,"557":4377,"ssd":4378,"forwardiceot":4379,"avirt":4380,"kernel":4381,"serial":4382,"vectoriisaiieems":4383,"baseiysaiyee":4384,"pairikiceeed":4385,"baseimsaimee":4386,"554":4387,"allocatorimec":4388,"fence":4389,"castev":4390,"neerks":4391,"bucketsep":4392,"baseem":4393,"iteratoricec":4394,"ids":4395,"sx":4396,"pairieeesais":4397,"50000":4398,"kref":4399,"bigintsais":4400,"basev":4401,"nodeem":4402,"068":4403,"519":4404,"xeeevn":4405,"saijee":4406,"pairikcp":4407,"sge":4408,"Ġ%.,":4409,"tupleijoc":4410,"iteratoripces":4411,"pairikxceec":4412,"nodeissee":4413,"toers":4414,"audio":4415,"job":4416,"identityiyest":4417,"treeiyyst":4418,"568":4419,"588":4420,"597":4421,"kmalloc":4422,"Ġ120":4423,"ris":4424,"paravirt":4425,"mr":4426,"560":4427,"bucketseppns":4428,"550":4429,"Ġ43":4430,"tb":4431,"peop":4432,"argv":4433,"tupleijrkc":4434,"kcontrol":4435,"igne":4436,"resizeem":4437,"643":4438,"vectorin":4439,"deleter":4440,"ccc":4441,"nodeclirk":4442,"bucketsem":4443,"ije":4444,"eax":4445,"bnode":4446,"allocatoride":4447,"ah":4448,"Ġ%..":4449,"sur":4450,"uniq":4451,"allocatorissed":4452,"551":4453,"geters":4454,"648":4455,"768":4456,"614":4457,"rkns":4458,"518":4459,"reserve":4460,"scatter":4461,"stop":4462,"eeeixers":4463,"608":4464,"jo":4465,"pairiicesais":4466,"promiseive":4467,"642":4468,"pairiiieept":4469,"757":4470,"vectorisssaisseeees":4471,"vrt":4472,"598":4473,"vectorixsaixeesais":4474,"rightmostev":4475,"treeillst":4476,"destroyissevpt":4477,"067":4478,"argc":4479,"track":4480,"identityilest":4481,"596":4482,"28640":4483,"vectoriesaieee":4484,"589":4485,"_\"(":4486,"pan":4487,"fixed":4488,"100100":4489,"vertex":4490,"here":4491,">)":4492,"566":4493,"zsteqicst":4494,"pairixiee":4495,"layer":4496,"599":4497,"hfi":4498,"uplo":4499,"562":4500,"569":4501,"need":4502,"Ġbt":4503,"syst":4504,"802":4505,"sla":4506,"565":4507,"adj":4508,"567":4509,"pssm":4510,"30752":4511,"ftest":4512,"pairillest":4513,"destroyipsseevt":4514,"pend":4515,"vlan":4516,"22730752":4517,"36928640":4518,"([":4519,"window":4520,"069":4521,"pairikiiesais":4522,"Ġ61":4523,".(":4524,"leftmostev":4525,"644":4526,"523":4527,"warn":4528,"532":4529,"system":4530,"700":4531,"vectoriisaiieeeepiiet":4532,"593":4533,"iteratoripkcst":4534,"fabs":4535,"528":4536,"579":4537,"5419":4538,"efx":4539,"pairikiieeee":4540,"promiseivest":4541,"pages":4542,"backijieeevdpot":4543,"copyipk":4544,"tern":4545,"gram":4546,"577":4547,"vectorixsaixeeeelx":4548,"vectorixsaixeeeelxns":4549,"enu":4550,"xc":4551,"iteratorissec":4552,"aipsss":4553,"eigh":4554,",=":4555,"563":4556,"vectoricsaiceeixem":4557,"mpns":4558,"pairiiiers":4559,"ear":4560,"possible":4561,"enum":4562,"667":4563,"pairikiieeed":4564,"32768":4565,"ethtool":4566,"settings":4567,"649":4568,"526":4569,"nla":4570,"imest":4571,"leonst":4572,"vectoricsaiceed":4573,"erki":4574,"4294967295":4575,"tpu":4576,"525":4577,"ys":4578,"065":4579,"apack":4580,"oll":4581,"zzle":4582,"acqu":4583,"540":4584,"iiieee":4585,"bigints":4586,"Ġ54":4587,"ejrkxee":4588,"Ġ88":4589,"Ġ101":4590,"tty":4591,"operand":4592,"vectoriisaiieeeeieebt":4593,"530":4594,"553":4595,"icc":4596,"586":4597,"eightpu":4598,"eightpuzzle":4599,"hashicest":4600,"uce":4601,"570":4602,"esa":4603,"piee":4604,"vectoridsaideeixem":4605,"relapack":4606,"1812433253":4607,"2567483615":4608,"2636928640":4609,"4022730752":4610,"Ġ400":4611,"609":4612,"527":4613,"Ġ305419":4614,"533":4615,"toiiesaiiee":4616,"536":4617,"534":4618,"constructixjrkxeeevpt":4619,"incrementpst":4620,"nodeiceee":4621,"hashe":4622,"erkxlb":4623,"zone":4624,"saif":4625,"minmax":4626,"saisseet":4627,"pairiisse":4628,"Ġ200":4629,"064":4630,"loopip":4631,"zstorst":4632,"solveve":4633,"nodeijs":4634,"builder":4635,"moveirleonst":4636,"comparee":4637,"572":4638,"traitsisaipnst":4639,"vectoriisaiieeeot":4640,"061":4641,"indexers":4642,"pairixxeaseos":4643,"062":4644,"round":4645,"descript":4646,"Ġ305419896":4647,"baseij":4648,"uart":4649,"connector":4650,"transfer":4651,"fib":4652,"descriptor":4653,"561":4654,"coe":4655,"toiiesaist":4656,"alg":4657,"proc":4658,"548":4659,"eeerks":4660,"controll":4661,"plane":4662,"mware":4663,"578":4664,"bp":4665,"Ġ86":4666,"ieest":4667,"qlc":4668,"insertijieeevn":4669,"iteratoriieneerks":4670,"iteratorissst":4671,"iteratoripsseet":4672,"bed":4673,"skc":4674,"chain":4675,"571":4676,"ifsaif":4677,"firmware":4678,"qlcnic":4679,"711":4680,"people":4681,"constructissjrksseeevrs":4682,"573":4683,"Ġc":4684,"529":4685,"iteratoripsse":4686,"ejrkc":4687,"hard":4688,"rd":4689,"deot":4690,"scale":4691,"eeepst":4692,"pairillesais":4693,"537":4694,"ute":4695,"iteratoripxec":4696,"eeeeed":4697,"063":4698,"gvariant":4699,"dataev":4700,"595":4701,"pending":4702,"addl":4703,"instance":4704,"bignumber":4705,"590":4706,"594":4707,"vectorixsaixees":4708,"538":4709,"535":4710,"647":4711,"sport":4712,"ga":4713,"vport":4714,"bigintc":4715,"swapp":4716,"pairixxeed":4717,"vectoribsaibeed":4718,"geome":4719,"mapiist":4720,"620":4721,"controller":4722,"reduce":4723,"selftest":4724,"vectoriisaiieeeepieet":4725,"545":4726,"scatterlist":4727,"identityist":4728,"574":4729,"membufice":4730,"Ġ922337203685477580":4731,"book":4732,"pairikiceeec":4733,"nested":4734,"547":4735,"stacks":4736,"1000000000":4737,"580":4738,"zstltiiiebrkst":4739,"539":4740,"521":4741,"Ġ92":4742,"581":4743,"aseb":4744,"Ġ*":4745,"654":4746,"forwardio":4747,"Ġ53":4748,"xer":4749,"trig":4750,"referenceaseb":4751,"},={":4752,"btree":4753,"blender":4754,"rintf":4755,"respon":4756,"ailee":4757,"traitsisailee":4758,"baseipxst":4759,"emrkirks":4760,"pairiklcest":4761,"recurse":4762,"hcd":4763,"Ġ2147483647":4764,"704":4765,"pairiiieeclerks":4766,"cor":4767,"vectoriisaiieeept":4768,"vectorijsaijee":4769,"*>*":4770,"Ġ62":4771,"clerksss":4772,"iteratoripxe":4773,"549":4774,"sho":4775,"destroyisseevrs":4776,"582":4777,"iterclipxs":4778,"625":4779,"Ġ\"={@":4780,"td":4781,"pun":4782,"75800":4783,"hashissest":4784,"tcp":4785,"rksaicest":4786,"610":4787,"writ":4788,"Ġ9223372036854775800":4789,"fca":4790,"aint":4791,"pairiiieeevt":4792,"des":4793,"xy":4794,"pairikll":4795,"pairikxst":4796,"celb":4797,"tries":4798,"signal":4799,"rtvec":4800,"583":4801,"stackrestore":4802,"blocks":4803,"/*":4804,"ssest":4805,"Ġoutput":4806,"Ġcode":4807,"rule":4808,"blo":4809,"/\\":4810,"yle":4811,"*/\\":4812,"Ġcondition":4813,"basesd":4814,"stacksave":4815,"},*":4816,"sseeevpt":4817,"767":4818,"eln":4819,"expected":4820,"uncore":4821,"605":4822,"sor":4823,"698":4824,"zstanst":4825,"words":4826,"ssci":4827,"Ġbtq":4828,"ti":4829,"Ġnrvo":4830,"strcmp":4831,"auto":4832,"fx":4833,"contains":4834,"iteratoripest":4835,"612":4836,"bj":4837,"iteratoripcsseeevt":4838,"valip":4839,"rf":4840,"geometry":4841,"ptri":4842,"lesside":4843,"Ġ90":4844,"iteratoriiripie":4845,"fif":4846,"baseippiet":4847,"*]":4848,"10001":4849,"eerksait":4850,"wordem":4851,"607":4852,"pairikxxelb":4853,"wake":4854,"matcher":4855,"numb":4856,"546":4857,"hwm":4858,"066":4859,"forwardit":4860,"nodeisseee":4861,"backerks":4862,"disc":4863,"_*":4864,"591":4865,"pairikycest":4866,"564":4867,"iiiees":4868,"remain":4869,"vectorixsaixeeeeec":4870,"goog":4871,"efp":4872,"531":4873,"bla":4874,"lshr":4875,"cblas":4876,"nipxmxet":4877,"vectoribsaibeec":4878,"typeet":4879,"baseicsaiceed":4880,"ssf":4881,"acquire":4882,"endeps":4883,"tem":4884,"070":4885,"znsaibed":4886,"crypt":4887,"pattern":4888,"pairikicens":4889,"deonst":4890,"cred":4891,"distanceipcenst":4892,"support":4893,"pairikiieeec":4894,"rtc":4895,"ry":4896,"Ġ4294967288":4897,"brid":4898,"pairidiee":4899,"frag":4900,"613":4901,"aster":4902,"cipher":4903,"pii":4904,"lessixesaixeed":4905,"bcmp":4906,"2147483648":4907,"constructipcees":4908,"611":4909,"brcm":4910,"pairikxceeee":4911,"upper":4912,"hashtableissst":4913,"hook":4914,"691":4915,"626":4916,"backwardip":4917,"46068":4918,"google":4919,"vcpu":4920,"cand":4921,"dequeiisaiieee":4922,"292150":4923,"lan":4924,"615":4925,"616":4926,"29215046068":4927,"sseevpt":4928,"destroyisseevpt":4929,"constructicjrkc":4930,"mn":4931,"Ġ8192":4932,"ixxex":4933,"cons":4934,"gu":4935,"1100":4936,"epkns":4937,"tintermnode":4938,"indexepns":4939,"bcontext":4940,"678":4941,"Ġ11529215046068":4942,"618":4943,"Ġ(<":4944,"testcas":4945,"bridge":4946,"1433":4947,"smin":4948,"pairisss":4949,"stcl":4950,"leot":4951,"iteripfbrks":4952,"liter":4953,"Ġ4611686018427387902":4954,"lessicesaiceed":4955,"getili":4956,"eeclsr":4957,"iteratoricee":4958,"trf":4959,"functionif":4960,"602":4961,"623":4962,"jiff":4963,"meet":4964,"rp":4965,"rsp":4966,"ssp":4967,"Ġ104":4968,"digits":4969,"tbl":4970,"pairikssx":4971,"tupleijos":4972,"fast":4973,"finders":4974,"eeeet":4975,"speed":4976,"clerkcs":4977,"height":4978,"bipst":4979,"Ġ11529215046068469":4980,"pieonst":4981,"dsp":4982,"literal":4983,"unicode":4984,"jiffies":4985,"scsd":4986,"632":4987,"iteripfbst":4988,"pid":4989,"arrays":4990,"score":4991,"679":4992,"bli":4993,"vectoriisaiieeeee":4994,"pairieiest":4995,"transport":4996,"666":4997,"esaist":4998,"674":4999,"iln":5000,"membufisse":5001,"542":5002,"sequence":5003,"bswapl":5004,"iens":5005,"pairids":5006,"Ġ144":5007,"append":5008,"\"(%\"":5009,"685":5010,"veev":5011,"testvas":5012,"moveirpieonst":5013,"617":5014,"isaist":5015,"079":5016,"cxxltipxst":5017,"ceec":5018,"program":5019,"pairiiieet":5020,"swapipienst":5021,"627":5022,"assigne":5023,"541":5024,"fai":5025,"response":5026,"destroyipccevt":5027,"dn":5028,"622":5029,"charge":5030,"ijo":5031,"Ġ*,":5032,"cube":5033,"antu":5034,"619":5035,"aipimiiet":5036,"mip":5037,"enump":5038,"cj":5039,"vecinit":5040,"cmnd":5041,"661":5042,"besais":5043,"677":5044,"deref":5045,"enk":5046,"543":5047,"datas":5048,"vectoricsaiceec":5049,"ieeet":5050,"pairiiieedeev":5051,"sco":5052,"bind":5053,"pairikibest":5054,"1002":5055,"pairixxees":5056,"662":5057,"Ġ192":5058,"Ġ107":5059,"amp":5060,"4294967296":5061,"advance":5062,"tupleijoiee":5063,"pairim":5064,"win":5065,"jpeg":5066,"prepare":5067,"prim":5068,"nodeixedpot":5069,"bucketsev":5070,"075":5071,"traitsisaidee":5072,"pms":5073,"tupleijrkxeec":5074,"Ġ97":5075,"ious":5076,"lwork":5077,"endpoint":5078,"math":5079,"pixman":5080,"688":5081,"Ġ84":5082,"92233720368547":5083,"sorted":5084,"qib":5085,"Ġ384":5086,"686":5087,"mpi":5088,"vectorilsaileeedeev":5089,"eeeeonst":5090,"lessisseclerksss":5091,"vectoriisaiieeevt":5092,"_\"*":5093,"ieeepst":5094,"iteratorixe":5095,"dot":5096,"tois":5097,"invokerist":5098,"621":5099,"foop":5100,"ijeert":5101,"ableit":5102,"uf":5103,"master":5104,"pcie":5105,"fshl":5106,"vectorisssaisseeeppev":5107,"628":5108,"wmoperatortype":5109,"stringstreamicst":5110,"ze":5111,"pairikicec":5112,"storen":5113,"vect":5114,"constr":5115,"swappableit":5116,"aq":5117,"rbd":5118,"cn":5119,"greateris":5120,"nodeeee":5121,"pairiiieeppev":5122,"dwc":5123,"077":5124,"rehashe":5125,"nodeiy":5126,"epkcs":5127,"treeimst":5128,"aud":5129,"eraseen":5130,"popev":5131,"moves":5132,"ree":5133,"1025":5134,"moveirpf":5135,"iterclix":5136,"equalser":5137,"erblb":5138,"oi":5139,"baseisaibeed":5140,"ength":5141,"ni":5142,"indexepkns":5143,"zzn":5144,"fifo":5145,"baseippst":5146,"close":5147,"nfp":5148,"ejrkxeec":5149,"tupleijxx":5150,"bgp":5151,"setprecisioni":5152,"lessimesaimee":5153,"nodeemrs":5154,"eeptev":5155,"asic":5156,"lessiceclerkcs":5157,"unregister":5158,"676":5159,"treeij":5160,"mes":5161,"eeens":5162,"771":5163,"itmp":5164,"684":5165,"699":5166,"hashtableicst":5167,"increment":5168,"675":5169,"vectorilsaileeixem":5170,"memo":5171,"670":5172,"653":5173,"smc":5174,"637":5175,"cxxneipssst":5176,"listiie":5177,"mux":5178,"071":5179,"tupleijost":5180,"hwmgr":5181,"ivin":5182,"identityixe":5183,"iteratoripcssees":5184,"687":5185,"708":5186,"ptrunc":5187,"getchar":5188,"Ġfptrunc":5189,"nipimieet":5190,"pairiiieeee":5191,"bmvert":5192,"baseii":5193,"629":5194,"Ġvec":5195,"phys":5196,"baseiesai":5197,"673":5198,"imept":5199,"addressofimept":5200,"2048":5201,"bot":5202,"ptrin":5203,"pairiiieist":5204,"pairiris":5205,"instruct":5206,"1000000":5207,"sqrtiien":5208,"pairikxceeed":5209,"idst":5210,"report":5211,"807":5212,"variable":5213,"682":5214,"plel":5215,"freest":5216,"iost":5217,"trigger":5218,"xmm":5219,"sseeeot":5220,"ram":5221,"completion":5222,"921":5223,"10005":5224,"vectoridsaideeeens":5225,"iiiest":5226,"frm":5227,"listist":5228,"Ġ2048":5229,"ena":5230,"nodeiieot":5231,"ieeevpst":5232,"ele":5233,"frombool":5234,"ated":5235,"nwordem":5236,"iteratoripcssemmev":5237,"669":5238,"iteratoric":5239,"deallocateepmm":5240,"630":5241,"pfss":5242,"structure":5243,"attrs":5244,"pll":5245,"lessimesais":5246,"634":5247,"toixe":5248,"cxxeqipst":5249,"eeqerks":5250,"copysign":5251,"digit":5252,"idest":5253,"phitmp":5254,"vectoriisaiieeeeenst":5255,"689":5256,"iteratoriiripiec":5257,"707":5258,"immst":5259,"api":5260,"ieeot":5261,"635":5262,"dmg":5263,"pairikxcesais":5264,"hashixest":5265,"sinkpv":5266,"att":5267,"matching":5268,"078":5269,"Ġ109":5270,"pairikssxest":5271,"706":5272,"pft":5273,"672":5274,"bign":5275,"ssld":5276,"clemm":5277,"pairikcxest":5278,"sen":5279,"sscd":5280,"fillip":5281,"rr":5282,"650":5283,"vectoridsaideee":5284,"633":5285,"639":5286,"Ġ71":5287,"tg":5288,"freestyle":5289,"iteratoriple":5290,"Ġ1000000007":5291,"hashingclemm":5292,"valclip":5293,"notifier":5294,"atm":5295,"swapipis":5296,"636":5297,"pairiiiejs":5298,"820":5299,"073":5300,"enode":5301,"jpj":5302,"typeee":5303,"713":5304,"short":5305,"714":5306,"compoundliteral":5307,"Ġuitofp":5308,"Ġ79":5309,"pairidiesais":5310,"eeedpot":5311,"declare":5312,"brcmf":5313,"10009":5314,"vectorifsaif":5315,"initializeemrki":5316,"vectoridsaideeee":5317,"slave":5318,"extra":5319,"stm":5320,"lessixeec":5321,"680":5322,"iteri":5323,"sscs":5324,"728":5325,"659":5326,"cfp":5327,"treeimmst":5328,"identityimest":5329,"695":5330,"ubifs":5331,"mwifi":5332,"mwifiex":5333,"alt":5334,"\"*)*,":5335,"typeerst":5336,"imax":5337,"ific":5338,"maxflow":5339,"rng":5340,"pairiiss":5341,"dtcl":5342,"irkst":5343,"638":5344,"Ġ77":5345,"090":5346,"683":5347,"ais":5348,"072":5349,"complete":5350,"wil":5351,"draw":5352,"1200":5353,"ixgbe":5354,"1088":5355,"vh":5356,"663":5357,"media":5358,"690":5359,"697":5360,"ssn":5361,"694":5362,"pairikssielb":5363,"recv":5364,"product":5365,"connection":5366,"710":5367,"distancein":5368,"iiieiesais":5369,"sortipst":5370,"network":5371,"mapep":5372,"ino":5373,"itemstr":5374,"vx":5375,"constructixjxeeevrs":5376,"surface":5377,"vectorilsaileee":5378,"074":5379,"793":5380,"promoteis":5381,"incrementpkst":5382,"sscc":5383,"kcis":5384,"pts":5385,"moveirdeonst":5386,"869":5387,"vv":5388,"050000":5389,"ffe":5390,"alphab":5391,"saidee":5392,"solv":5393,"Ġ70":5394,"693":5395,"eeeis":5396,"travers":5397,"681":5398,"bnxt":5399,"peer":5400,"devdata":5401,"nodeixlb":5402,"bmiter":5403,"appendem":5404,"simple":5405,"fest":5406,"813":5407,"constructissjrksseeevpt":5408,"712":5409,"resh":5410,"constraint":5411,"eelb":5412,"nvif":5413,"tailrecurse":5414,"692":5415,"lessixesaixeec":5416,"rkss":5417,"stelb":5418,"clist":5419,"718":5420,"nrhs":5421,"cifs":5422,"vece":5423,"sequenc":5424,"parti":5425,"modint":5426,"connect":5427,"statist":5428,"790":5429,"idj":5430,"otg":5431,"660":5432,"ilit":5433,"edgesais":5434,"heapipxn":5435,"Ġ500":5436,"lv":5437,"strcpy":5438,"wh":5439,"vectoricsaiceeeens":5440,"wal":5441,"lessicesaiceec":5442,"ene":5443,"709":5444,"afs":5445,"801":5446,"rtunion":5447,"bpt":5448,"696":5449,"alphabet":5450,"sscf":5451,"ejost":5452,"iteratoripsss":5453,"pfssiost":5454,"702":5455,"insertijrkxeeevn":5456,"ental":5457,"leave":5458,"pipds":5459,"statistics":5460,"pcet":5461,"iommu":5462,"cent":5463,"pipfs":5464,"sens":5465,"719":5466,"fmtflags":5467,"657":5468,"iteratoriiedeev":5469,"coll":5470,"mtd":5471,"notify":5472,"equ":5473,"Ġ(<{":5474,"auxest":5475,"bat":5476,"setfest":5477,"8192":5478,"pairiiien":5479,"nodeixeec":5480,"iteratoripcssee":5481,"baseiiins":5482,"band":5483,"neigh":5484,"664":5485,"rvt":5486,"functor":5487,"dam":5488,"hashiy":5489,"iteripfbiieeeevt":5490,"Ġ10000":5491,"ratioill":5492,"805":5493,"baseijsaijee":5494,"9592":5495,"letter":5496,"ctxt":5497,"iteratoriy":5498,"valuees":5499,"kl":5500,"features":5501,"sscll":5502,"gfs":5503,"prt":5504,"endep":5505,"lett":5506,"705":5507,"Ġ89":5508,"yee":5509,"Ġ1496":5510,"652":5511,"vk":5512,"fmtfl":5513,"777":5514,"nss":5515,"631":5516,"pairiksss":5517,"dav":5518,"allocatoripst":5519,"lap":5520,"808":5521,"Ġcpuid":5522,"Ġole":5523,"vectoriisaiieeeonst":5524,"dlm":5525,"issssns":5526,"backeox":5527,"nodeixeed":5528,"zer":5529,"beee":5530,"717":5531,"lessicesaiceesais":5532,"nft":5533,"2022":5534,"insertipin":5535,"ust":5536,"acl":5537,"iipiee":5538,"iipieebrt":5539,"vectoriisaiieeeeec":5540,"zstorrst":5541,"udelay":5542,"fixedrst":5543,",={":5544,"pairikssbee":5545,"moveirp":5546,"small":5547,"({":5548,"gsp":5549,"pairs":5550,"zstlticst":5551,"vectoridsaideesais":5552,"qdisc":5553,"iiiiiiii":5554,"ceeev":5555,"656":5556,"loopipiln":5557,"668":5558,"eli":5559,"sscld":5560,"gsequenc":5561,"gsequencenode":5562,"tin":5563,"fooi":5564,"pairikxceeec":5565,"076":5566,"instruction":5567,"tupleijii":5568,"mapicst":5569,"traitsic":5570,"locale":5571,"Ġout":5572,"ixxes":5573,"1030":5574,"cdp":5575,"scope":5576,"trap":5577,"pus":5578,"pairikiiens":5579,"dequei":5580,"cursor":5581,"gem":5582,"uniquein":5583,"devm":5584,"812":5585,"mrk":5586,"valipfb":5587,"accu":5588,"typeeee":5589,"modifier":5590,"adev":5591,"ped":5592,"mapii":5593,"776":5594,"maxjpj":5595,"899":5596,"linknode":5597,"vectoridsaideed":5598,"imple":5599,"exn":5600,"iteratorplel":5601,"665":5602,"cxxltipcsseebrkns":5603,"dap":5604,"725":5605,"ico":5606,"703":5607,"znssplepkc":5608,"gspca":5609,"disk":5610,"vectorixsaixeeeepxet":5611,"pairidx":5612,"Ġvaarg":5613,"vectoriysaiyeeeens":5614,"iceebpt":5615,"pointericeebpt":5616,"64045":5617,"722":5618,"omap":5619,"znssasepkc":5620,"blob":5621,"pression":5622,"pthread":5623,"861433":5624,"86143364045":5625,"701":5626,"64650":5627,"Ġ7686143364045":5628,"868":5629,"coex":5630,"Ġ768614336404564650":5631,"hda":5632,"year":5633,"ek":5634,"716":5635,"mol":5636,"ernst":5637,"720":5638,"pairikcielb":5639,"788":5640,"curve":5641,"803":5642,"gstring":5643,"vecext":5644,"edtclsr":5645,"pairikiiec":5646,"xfrm":5647,"four":5648,"Ġ160":5649,"862":5650,"791":5651,"jeevpt":5652,"iteratoripssec":5653,"initializeemrks":5654,"epcs":5655,"vmw":5656,"_\"(%":5657,"651":5658,"server":5659,"elist":5660,"rv":5661,"watch":5662,"pairiddes":5663,"netlink":5664,"723":5665,"kb":5666,"ov":5667,"778":5668,"numbers":5669,"iieeot":5670,"dereference":5671,"400000":5672,"iteratoripssedeev":5673,"715":5674,"ejrkieernst":5675,"rai":5676,"metad":5677,"perim":5678,"vectoricsaicees":5679,"constructissjsseevpt":5680,"iteratoripsseppev":5681,"818":5682,"zsteqipssebrkst":5683,"zstneipssebrkst":5684,"732":5685,"aipxmxen":5686,"entries":5687,"724":5688,"rectangle":5689,"sameis":5690,"tupleijrkceeeot":5691,"eval":5692,"uve":5693,"iov":5694,"pairikycee":5695,"secitemstr":5696,"mesa":5697,"fac":5698,"729":5699,"vsi":5700,"vid":5701,"bw":5702,"generic":5703,"809":5704,"symb":5705,"tableidx":5706,"weighted":5707,"bke":5708,"mbox":5709,"eeeeot":5710,"hashmap":5711,"coeff":5712,"scevcheck":5713,"798":5714,"heapipst":5715,"solvei":5716,"iiiesais":5717,"658":5718,"dict":5719,"vktr":5720,"baseicsaiceec":5721,"drbd":5722,"beginem":5723,"900":5724,"triple":5725,"bip":5726,"iiieiest":5727,"eenst":5728,"fh":5729,"enumpkcis":5730,"ipv":5731,"diag":5732,"fracst":5733,"hdev":5734,"distanceipk":5735,"804":5736,"other":5737,"mal":5738,"compress":5739,"721":5740,"multi":5741,"caps":5742,"888":5743,"sseeevn":5744,"locked":5745,"prefix":5746,"itr":5747,"baseissssns":5748,"modes":5749,"dequeixsaixee":5750,"ssais":5751,"channels":5752,"Ġ85":5753,"Ġ65536":5754,"tupleijdpot":5755,"vectorip":5756,"fault":5757,"wmi":5758,"vectorilsaileeee":5759,"861":5760,"clerkx":5761,"baseisaibeec":5762,"cgroup":5763,"nvme":5764,"identityixeclerkx":5765,"lens":5766,"expression":5767,"znsaibec":5768,"726":5769,"789":5770,"irqrestore":5771,"crd":5772,"auth":5773,"erkijeert":5774,"tfm":5775,"1072":5776,"tid":5777,"tupleijrksseeeot":5778,"727":5779,"upt":5780,"ira":5781,"asd":5782,"itercliipieebrt":5783,"gerror":5784,"ceres":5785,"tupleijpfssiost":5786,"env":5787,"dup":5788,"pairikxxeec":5789,"100007":5790,"dapm":5791,"nodeiieeot":5792,"letters":5793,"powii":5794,"vectoribsaibeeec":5795,"oth":5796,"baseilsail":5797,"ead":5798,"wreg":5799,"traitsip":5800,"parame":5801,"Ġ75":5802,"782":5803,"vol":5804,"avail":5805,"patient":5806,"091":5807,"vectoriisaiieeeec":5808,"sensor":5809,"rxpx":5810,"pairiyy":5811,"Ġ4294967292":5812,"metadata":5813,"month":5814,"show":5815,"events":5816,"movq":5817,"099":5818,"pmm":5819,"pairiix":5820,"strength":5821,"visited":5822,"885":5823,"sst":5824,"pushe":5825,"pairimm":5826,"806":5827,"maximumweighted":5828,"maximumweightedmatching":5829,"gets":5830,"convf":5831,"xl":5832,"carr":5833,"tupleijiiieest":5834,"863":5835,"experim":5836,"strlenpkc":5837,"experimental":5838,"arraystart":5839,"epms":5840,"znsirserl":5841,"ifin":5842,"uses":5843,"multip":5844,"866":5845,"flo":5846,"081":5847,"ptst":5848,"uv":5849,"nssc":5850,"durationilst":5851,"iteratorixeeot":5852,"Ġ3520":5853,"Ġ119":5854,"ptsais":5855,"idlm":5856,"mq":5857,"pairikssieec":5858,"mit":5859,"cam":5860,"733":5861,"*]]*":5862,"backerkss":5863,"stoail":5864,"eppis":5865,"ixxeesais":5866,"rang":5867,"*]],":5868,"vectoriisaiieees":5869,"svc":5870,"imed":5871,"pairiklle":5872,"assoc":5873,"rvalue":5874,"dss":5875,"nodeeeepst":5876,"smu":5877,"toiiesais":5878,"5555":5879,"squ":5880,"scene":5881,"eeeixe":5882,"iteripfbrk":5883,"zstcost":5884,"zstanrst":5885,"baseiplet":5886,"offsets":5887,"infoc":5888,"Ġ98":5889,"sdp":5890,"icious":5891,"ssl":5892,"possib":5893,"forwardideot":5894,"fwnode":5895,"poly":5896,"vectoribsaibees":5897,"iteratoriieeqerks":5898,"772":5899,"1007":5900,"vectorilsaileeeplel":5901,"oct":5902,"meot":5903,"baseiesaieee":5904,"swapipst":5905,"pairixxeevt":5906,"suspicious":5907,"795":5908,"pairir":5909,"insertijrks":5910,"minixerkt":5911,"serv":5912,"Ġ4611686018427387900":5913,"xa":5914,"allocatorimed":5915,"sema":5916,"737":5917,"735":5918,"eeelb":5919,"750":5920,"pairiissest":5921,"avx":5922,"vma":5923,"bixeept":5924,"bmloop":5925,"destroyiceevrs":5926,"vectorixsaixeeeeevt":5927,"nodeim":5928,"punto":5929,"867":5930,"nodepkcis":5931,"ency":5932,"wrk":5933,"defer":5934,"na":5935,"iilb":5936,"getik":5937,"umul":5938,"allocnode":5939,"batadv":5940,"topev":5941,"080":5942,"dire":5943,"isk":5944,"parser":5945,"ierr":5946,"773":5947,"ized":5948,"vectorixsaixeeeeeebrt":5949,"3333":5950,"ieepst":5951,"734":5952,"lessije":5953,"inserterki":5954,"740":5955,"ymm":5956,"scanner":5957,"fcs":5958,"cach":5959,"eevrt":5960,"ilities":5961,"accumul":5962,"819":5963,"745":5964,"the":5965,"semaph":5966,"bject":5967,"umax":5968,"light":5969,"allocateev":5970,"devt":5971,"remaining":5972,"bios":5973,"sv":5974,"094":5975,"journ":5976,"cll":5977,"semaphore":5978,"vex":5979,"iyst":5980,"nipssm":5981,"atem":5982,"pairiklcee":5983,"783":5984,"sprintf":5985,"mvm":5986,"journal":5987,"]]]]":5988,"774":5989,"gmp":5990,"743":5991,"volt":5992,"deallocateev":5993,"ier":5994,"1050":5995,"1000000007":5996,"may":5997,"792":5998,"865":5999,"vectorixsaixeeeelns":6000,"datast":6001,"775":6002,"punt":6003,"093":6004,"738":6005,"755":6006,"iteratoripkdst":6007,"ebt":6008,"np":6009,"rtsx":6010,"held":6011,"lessicesaic":6012,"vectoribsaibeee":6013,"pairikiieeeixers":6014,"748":6015,"minim":6016,"lexico":6017,"kobject":6018,"pdata":6019,"cler":6020,"lessi":6021,"mtk":6022,"vectoridsaideeec":6023,"graphical":6024,"784":6025,"lexicographical":6026,"nodeee":6027,"good":6028,"mapis":6029,"post":6030,"ldv":6031,"1003":6032,"bro":6033,"ttt":6034,"iteratoriiebec":6035,"lessissesaisseed":6036,"Ġ1152921504606846975":6037,"vectorilsaileeees":6038,"796":6039,"811":6040,"810":6041,"pairikiss":6042,"82325":6043,"1682022":6044,"3071682022":6045,"Ġ3843071682022":6046,"Ġ384307168202282325":6047,"730":6048,"datap":6049,"ready":6050,"pairikiceeeixers":6051,"770":6052,"nx":6053,"gend":6054,"eppei":6055,"maxixerkt":6056,"equalsers":6057,"739":6058,"uid":6059,"Ġ240":6060,"gendisk":6061,"794":6062,"092":6063,"pairiddee":6064,"imp":6065,"pairikmcest":6066,"787":6067,"889":6068,".,":6069,"Ġ108":6070,"fst":6071,"ipkst":6072,"5000":6073,"igint":6074,"znsaided":6075,"tupleijiiieesais":6076,"sortipievt":6077,"cxxmiipc":6078,"codeepns":6079,"psais":6080,"ban":6081,"aipxmxet":6082,"1011":6083,"linked":6084,"744":6085,"nodeiceec":6086,"pwm":6087,"097":6088,"Ġ73":6089,"vectoriisaiieeevpt":6090,"pairikxcec":6091,"7772":6092,"gslist":6093,"lver":6094,"optim":6095,"083":6096,"hashilens":6097,"ffs":6098,"interr":6099,"bucketep":6100,"counts":6101,"nn":6102,"saa":6103,"iis":6104,"record":6105,"ffff":6106,"iteratorixrxpx":6107,"beginempns":6108,"eightpuzzleilm":6109,"nodeijrkieeepst":6110,"ndev":6111,"vectoriisaiieeeevt":6112,"746":6113,"Ġ81":6114,"colum":6115,"096":6116,"iteratoripkis":6117,"selectcmp":6118,"ctorloop":6119,"fre":6120,"eost":6121,"memarrays":6122,"icjieeet":6123,"stoailicjieeet":6124,"traitsipnst":6125,"nodeclirkieepst":6126,"stclirst":6127,"gest":6128,"pfp":6129,"decode":6130,"lessiiesaiieeest":6131,"destroyiceevpt":6132,"797":6133,"crk":6134,"nfc":6135,"protocol":6136,"937":6137,"equalserks":6138,"dce":6139,"deallocateeplm":6140,"memcmp":6141,"bump":6142,"uveau":6143,"iicee":6144,"queuei":6145,"pairiiieeeot":6146,"baseicst":6147,"hashiyens":6148,"mapissst":6149,"764":6150,"10010":6151,"rad":6152,"eeeesc":6153,"isi":6154,"sockaddr":6155,"nodesepp":6156,"ikc":6157,"1105":6158,"unicodestring":6159,"736":6160,"anal":6161,"gcdxx":6162,"ejrkcee":6163,"datastructures":6164,"aco":6165,"nouveau":6166,"ml":6167,"816":6168,"util":6169,"095":6170,"calce":6171,"txq":6172,"build":6173,"cxxeqipxst":6174,"vectorixsaixeeeex":6175,"bucketeppns":6176,"Ġ176":6177,"aipssm":6178,"nodeseps":6179,"subdevice":6180,"maxi":6181,"emst":6182,"irqsave":6183,"pairixxeebrkst":6184,"casher":6185,"widget":6186,"convex":6187,"781":6188,"786":6189,"37418":6190,"cxxeqipcsseebrkns":6191,"fet":6192,"rwork":6193,"vals":6194,"ipkis":6195,"749":6196,"pairiki":6197,"backwardipis":6198,"pers":6199,"xxet":6200,"shader":6201,"vectoriisaiieeelb":6202,"complexidesais":6203,"Ġ\"{":6204,"saice":6205,"guard":6206,"erkclb":6207,"ijest":6208,"baseissst":6209,"clone":6210,"lec":6211,"1012":6212,"rmmio":6213,"ware":6214,"pcpkc":6215,"gru":6216,"defp":6217,"nodeijrkieeevpst":6218,"iowrite":6219,"macro":6220,"typeerksb":6221,"eqev":6222,"quot":6223,"iccsaic":6224,"mrkm":6225,"ejrkssee":6226,"085":6227,"owner":6228,"nodeil":6229,"bul":6230,"756":6231,"pairikcieec":6232,"890":6233,"eppst":6234,"893":6235,"flt":6236,"769":6237,"cat":6238,"825":6239,"hardware":6240,"cxxneipkst":6241,"auxemst":6242,"mtab":6243,"xhci":6244,"colle":6245,"bcma":6246,"pairikix":6247,"rotate":6248,"hns":6249,"082":6250,"084":6251,"aystarsearch":6252,"baseipkiet":6253,"<>::":6254,"ssb":6255,"mix":6256,"747":6257,"rand":6258,"erksslb":6259,"rehashemrkm":6260,"822":6261,"iterclixns":6262,"leftepkst":6263,"rightepkst":6264,"Ġ136":6265,"824":6266,"delayed":6267,"mgr":6268,"crksaice":6269,"5899":6270,"ox":6271,"pairikxcens":6272,"vout":6273,"vectorilsaileed":6274,"calcem":6275,"lus":6276,"rds":6277,"mutation":6278,"dirty":6279,"ioctl":6280,"kx":6281,"acy":6282,"added":6283,"iteratoripn":6284,"922337203685477580":6285,"setis":6286,"759":6287,"sem":6288,"panel":6289,"font":6290,"constructixjxeeevpt":6291,"three":6292,"interleave":6293,"Ġ95":6294,"814":6295,"pri":6296,"pairiiielb":6297,"hashtableiccsaic":6298,"hashtableiccsaicenst":6299,"debugfs":6300,"acke":6301,"checksc":6302,"sent":6303,"shoot":6304,"saiieeonst":6305,"moveirsaiieeonst":6306,"cxxmiipk":6307,"bgpd":6308,"mesais":6309,"convert":6310,"pixelinfo":6311,"kase":6312,"substr":6313,"731":6314,"ters":6315,"errors":6316,"ji":6317,"arrayidlm":6318,"eta":6319,"usage":6320,"iiieeee":6321,"iiesais":6322,"ceet":6323,"741":6324,"modul":6325,"785":6326,"pied":6327,"cerr":6328,"tau":6329,"inet":6330,"arf":6331,"cld":6332,"ization":6333,"deferred":6334,"supp":6335,"cgs":6336,"iddst":6337,"089":6338,"851":6339,"mic":6340,"Ġ})":6341,"keys":6342,"826":6343,"eilb":6344,"unmap":6345,"ieaseos":6346,"cust":6347,"vectorissais":6348,"vectoridsaideeedeev":6349,"mg":6350,"1234":6351,"884":6352,"wc":6353,"allocatoribec":6354,"xerbla":6355,"nipx":6356,"drw":6357,"nodeijrks":6358,"904":6359,"sat":6360,"art":6361,"symbol":6362,"ebrkst":6363,"nipxmeet":6364,"nipxmet":6365,"iiieieee":6366,"itb":6367,"lessidesaidee":6368,"827":6369,"increl":6370,"1000005":6371,"direction":6372,"leg":6373,"heapipx":6374,"lxn":6375,"heapipxlxn":6376,"882":6377,"Ġ224":6378,"mievt":6379,"fillipmievt":6380,"760":6381,"protobuf":6382,"dbl":6383,"ich":6384,"symtab":6385,"kk":6386,"831":6387,"traitsippnst":6388,"so":6389,"policyc":6390,"pairikccee":6391,"dpfs":6392,"Ġ()*":6393,"nprintf":6394,"noalias":6395,"hashingelb":6396,"screen":6397,"898":6398,"Ġ116":6399,"peri":6400,"bran":6401,"sector":6402,"pairikxxeeed":6403,"myrn":6404,"891":6405,"837":6406,"entity":6407,"webrt":6408,"commit":6409,"pairikxbest":6410,"iteratoriples":6411,"iteratoriieppev":6412,"als":6413,"779":6414,"listbase":6415,"fan":6416,"815":6417,"resetem":6418,"clerkss":6419,"vectoridsaidees":6420,"tupleijoieeeot":6421,"nodeiceed":6422,"ative":6423,"walk":6424,"911":6425,",%":6426,"iteratoripy":6427,"myrndv":6428,"Ġ260":6429,"ejoc":6430,"1009":6431,"742":6432,"817":6433,"dwar":6434,"napi":6435,"baz":6436,"iteratoripcsseeenst":6437,"765":6438,"vectorit":6439,"mtu":6440,"wrap":6441,"Ġ102":6442,"823":6443,"yeot":6444,"912":6445,"Ġ74":6446,"nodeile":6447,"766":6448,"vectorixsaixeest":6449,"ieesais":6450,"tupleijxxx":6451,"maze":6452,"pointerrna":6453,"stateev":6454,"see":6455,"cxxneipk":6456,"ten":6457,"892":6458,"hider":6459,"087":6460,"1271":6461,"queues":6462,"nfsd":6463,"elim":6464,"broken":6465,"nodeest":6466,"ana":6467,"voltage":6468,"baseipdet":6469,"pairin":6470,"dataplus":6471,"Ġ208":6472,"isseclerkss":6473,"hdmi":6474,"identityice":6475,"pfpsf":6476,"lport":6477,"tro":6478,"accumulator":6479,"eeeesd":6480,"iteratoriceeot":6481,"rss":6482,"Ġ1500":6483,"763":6484,"Ġ110":6485,"pairikxxesais":6486,"insertijrksseeevn":6487,"validate":6488,"iteratorins":6489,"906":6490,"safe":6491,"traitsisaiyee":6492,"dsi":6493,"894":6494,"wakeup":6495,"cms":6496,"1110":6497,"ivout":6498,"dwarf":6499,"writer":6500,"sed":6501,"fam":6502,"pairiist":6503,"deallocateepdm":6504,"754":6505,"destroyipd":6506,"ily":6507,"nodeicedpot":6508,"smb":6509,"Ġ4095":6510,"iderkt":6511,"iteratorixeneerks":6512,"roc":6513,"findin":6514,"coordin":6515,"interrupt":6516,"profile":6517,"Ġ105":6518,"1048":6519,"mien":6520,"780":6521,"918":6522,"iceec":6523,"086":6524,"thresh":6525,"qq":6526,"1099":6527,"echo":6528,"custom":6529,"200005":6530,"Ġ(...)**":6531,"sdio":6532,"098":6533,"memoized":6534,"nipcm":6535,"delt":6536,"jee":6537,"robot":6538,"worker":6539,"aipmien":6540,"Ġ2305":6541,"hwfn":6542,"751":6543,"pairikssieeee":6544,"761":6545,"boot":6546,"pairikxieee":6547,"complexidest":6548,"levrt":6549,"lessissesaisseec":6550,"tupleijiiee":6551,"pairikxxeeee":6552,"350000":6553,"service":6554,"887":6555,"edges":6556,"881":6557,"carry":6558,"vectoridsaideec":6559,"vectorixsaixeeemiel":6560,"refdataev":6561,"pairikmc":6562,"1113":6563,"pbvh":6564,"908":6565,"nodeclis":6566,"hcl":6567,"brksait":6568,"znsaipst":6569,"atomisp":6570,"ilj":6571,"dq":6572,"interleaved":6573,"greaterixeeeevt":6574,"constructicjrkceeevrs":6575,"icebrksait":6576,"zsteqicebrksait":6577,"902":6578,"qe":6579,"webrtc":6580,"pjs":6581,"isaiieevrt":6582,"pnt":6583,"830":6584,"gad":6585,"bracket":6586,"088":6587,"treelinknode":6588,"moveirsaim":6589,"moveirsaimeeonst":6590,"baseipp":6591,"lydi":6592,"toicesaicee":6593,"idev":6594,"752":6595,"tipc":6596,"memoizedp":6597,"poi":6598,"iceept":6599,"perm":6600,"895":6601,"branch":6602,"permutation":6603,"devlink":6604,"allocatoripie":6605,"route":6606,"pairikd":6607,"constructi":6608,"vectorilsaileeec":6609,"925":6610,"hp":6611,"seti":6612,"pairikxielb":6613,"destroyipcevt":6614,"destroyipceevt":6615,"922":6616,"mdb":6617,"1023":6618,"1114":6619,"shu":6620,"855":6621,"vectorilsaileeeebrkns":6622,"vectoribsaibeeed":6623,"family":6624,"headerks":6625,"ole":6626,"warning":6627,"thermal":6628,"stes":6629,"pairikllest":6630,"syn":6631,"829":6632,"dsa":6633,"rook":6634,"tupleijrkst":6635,"fits":6636,"nodeisseec":6637,"full":6638,"toixesaist":6639,"categoryipcenst":6640,"stringi":6641,"och":6642,"gadget":6643,"fold":6644,"basesb":6645,"sha":6646,"legacy":6647,"msghdr":6648,"eesg":6649,"iteratoripkcss":6650,"vectorimsaimeeeens":6651,"883":6652,"nodeemm":6653,"xattr":6654,"evrt":6655,"factors":6656,"917":6657,"failed":6658,"maxx":6659,"cbeginev":6660,"reak":6661,"ccl":6662,"dataest":6663,"addressofi":6664,"identityiceclerkc":6665,"nodesepps":6666,"mapiibst":6667,"eox":6668,"834":6669,"gue":6670,"914":6671,"strev":6672,"issc":6673,"valarrayide":6674,"allocatoriye":6675,"mmap":6676,"sym":6677,"1112":6678,"998":6679,"solverst":6680,"iiss":6681,"stackiist":6682,"reply":6683,"arm":6684,"lessij":6685,"aipcs":6686,"ptp":6687,"cord":6688,"treeiddst":6689,"supported":6690,"lessiceec":6691,"005":6692,"cover":6693,"period":6694,"btc":6695,"backem":6696,"compos":6697,"bmesh":6698,"znsirserd":6699,"sch":6700,"836":6701,"lapacke":6702,"znssaserkss":6703,"eeclips":6704,"839":6705,"913":6706,"emrkbrks":6707,"interse":6708,"gfx":6709,"kd":6710,"iser":6711,"arena":6712,"ssec":6713,"pairikiceedeev":6714,"vectoriisaiieeaserks":6715,"901":6716,"toissesaissee":6717,"caches":6718,"Ġ129":6719,"897":6720,"secur":6721,"Ġ3264":6722,"753":6723,"000000000012":6724,"rows":6725,"softc":6726,"ieeec":6727,"edgeesais":6728,"821":6729,"scss":6730,"vi":6731,"tsais":6732,"iieebt":6733,"eak":6734,"candid":6735,"919":6736,"nodeemmpns":6737,"aipssmsset":6738,"0110":6739,"quar":6740,"iterators":6741,"ibed":6742,"pairiiieeeeot":6743,"saime":6744,"charact":6745,"eosaime":6746,"828":6747,"762":6748,"trc":6749,"nodeijrkc":6750,"sample":6751,"partitionipin":6752,"mpks":6753,"virtio":6754,"znsaidec":6755,"compat":6756,"xstring":6757,"xeeevdpot":6758,"fii":6759,"ups":6760,"pivotipin":6761,"tunnel":6762,"outb":6763,"cbeg":6764,"saiceet":6765,"tagems":6766,"916":6767,"920":6768,"pfipt":6769,"issceet":6770,"xstringissceet":6771,"838":6772,"powiiien":6773,"firstipin":6774,"928":6775,"security":6776,"znsi":6777,"greaterist":6778,"pairikcieeee":6779,"identityidest":6780,"xmit":6781,"yet":6782,"sim":6783,"selectipin":6784,"pointe":6785,"datum":6786,"cxxmiiplst":6787,"cdev":6788,"ixxlb":6789,"threa":6790,"retry":6791,"dsais":6792,"ptrinst":6793,"lic":6794,"traitsicesaiceed":6795,"shuffle":6796,"nodeisseed":6797,"assigneos":6798,"ubignili":6799,"builtin":6800,"903":6801,"000000000013":6802,"acos":6803,"allocno":6804,"849":6805,"tupleijrkceec":6806,"ipceet":6807,"online":6808,"layout":6809,"shad":6810,"pairikyy":6811,"issesais":6812,"\"]":6813,"auxipcees":6814,"transa":6815,"pairiciesais":6816,"ibeerksait":6817,"allocatoribed":6818,"dereferenceable":6819,"leep":6820,"Ġdereferenceable":6821,"implinst":6822,"ixxebrkst":6823,"codeers":6824,"924":6825,"ppei":6826,"833":6827,"seec":6828,"pinctrl":6829,"olver":6830,"clos":6831,"nil":6832,"Ġ1048":6833,"iterclipst":6834,"logic":6835,"mmm":6836,"ulpt":6837,"swaps":6838,"cashierst":6839,"926":6840,"ecl":6841,"907":6842,"edt":6843,"icen":6844,"aead":6845,"dequeicsaicee":6846,"tuner":6847,"932":6848,"nodeissedpot":6849,"verify":6850,"testcases":6851,"coordinate":6852,"870":6853,"collection":6854,"835":6855,"eentry":6856,"ieeed":6857,"ieeee":6858,"pairixxeeec":6859,"brcms":6860,"Ġ122":6861,"995":6862,"antum":6863,"transaction":6864,"soft":6865,"pairikssieeed":6866,"lessijesais":6867,"923":6868,"kp":6869,"ipw":6870,"rilb":6871,"nodeoperation":6872,"lowword":6873,"midword":6874,"highword":6875,"column":6876,"theta":6877,"iteratoripcsseens":6878,"iocb":6879,"znsolsee":6880,"calloc":6881,"treeijst":6882,"pairijj":6883,"aregion":6884,"pairikiceeclerks":6885,"tri":6886,"tupleijrksseec":6887,"trs":6888,"1115":6889,"listii":6890,"ung":6891,"meonst":6892,"Ġ118":6893,"]**":6894,"Ġbigint":6895,"suf":6896,"sleep":6897,"pkv":6898,"Ġ()*,":6899,"prop":6900,"ejoiee":6901,"iwork":6902,"847":6903,"listnode":6904,"ntb":6905,"ejrkceec":6906,"stroke":6907,"iiieelb":6908,"items":6909,"chkxer":6910,"lace":6911,"vdbe":6912,"suspend":6913,"mth":6914,"iiieieec":6915,"delta":6916,"iix":6917,"832":6918,"1118":6919,"listiierks":6920,"ejrkst":6921,"929":6922,"pusheos":6923,"996":6924,"srt":6925,"magic":6926,"840":6927,"1020":6928,"qs":6929,"advancein":6930,"moveirpst":6931,"iiiecee":6932,"dta":6933,"eoilb":6934,"clust":6935,"ices":6936,"pairil":6937,"baseipkxst":6938,"mddev":6939,"rport":6940,"mu":6941,"mempool":6942,"Ġ91":6943,"848":6944,"rqst":6945,"845":6946,"sfii":6947,"square":6948,"mad":6949,"hh":6950,"ejrksseec":6951,"iteripfbiiee":6952,"candidate":6953,"sculpt":6954,"remo":6955,"Ġfptoui":6956,"850":6957,"1015":6958,"boundin":6959,"pairiissesais":6960,"2005":6961,"tupleijoxee":6962,"992":6963,"vectoriisaiieeeeievt":6964,"Ġ()**":6965,"miceept":6966,"audit":6967,"direct":6968,"lessisseec":6969,"iteratorisseeot":6970,"sdhci":6971,"ceeee":6972,"Ġ4295":6973,"xpxet":6974,"isters":6975,"possibilities":6976,"pairies":6977,"hu":6978,"Ġerr":6979,"1712":6980,"vectoriysaiyeee":6981,"flushicst":6982,"ype":6983,"ature":6984,"sft":6985,"saved":6986,"analy":6987,"cedtcl":6988,"Ġ124":6989,"reallocate":6990,"nipss":6991,"constructissjeevpt":6992,"decoder":6993,"877":6994,"nipssmeet":6995,"nipssmet":6996,"eii":6997,"xeeepst":6998,"lar":6999,"1026":7000,"phba":7001,"iteripfbr":7002,"yeonst":7003,"000000000014":7004,"bracketmatcher":7005,"910":7006,"sbst":7007,"flushev":7008,"857":7009,"endptr":7010,"iteratoricst":7011,"994":7012,"vectoriysaiyeeixem":7013,"ubi":7014,"859":7015,"1022":7016,"mapemb":7017,"znso":7018,"vectoribsaibeems":7019,"ufs":7020,"cg":7021,"framebuffer":7022,"longint":7023,"valclipiieebt":7024,"congru":7025,"personsais":7026,"pairikxceeeixers":7027,"reserv":7028,"vectorixsaixeeeee":7029,"846":7030,"lessilesaist":7031,"886":7032,"iteratoripceet":7033,"character":7034,"pay":7035,"Ġ94":7036,"ipkc":7037,"mapixist":7038,"ejrkxeernst":7039,"936":7040,"ssss":7041,"1117":7042,"cashiersais":7043,"destroyimageinfo":7044,"moveiryeonst":7045,"gf":7046,"scif":7047,"allow":7048,"iteratoriilb":7049,"856":7050,"nodeixeot":7051,"gv":7052,"pairikiieedeev":7053,"mapissbst":7054,"vectorixsaixeeeexeebt":7055,"iesaieeesais":7056,"stv":7057,"864":7058,"failure":7059,"990":7060,"pairimmesais":7061,"tnode":7062,"vectoricsaiceeeebrkns":7063,"draco":7064,"vectoricsaiceeedeev":7065,"xfer":7066,"baseipcedtcl":7067,"csl":7068,"byteit":7069,"gvarianttype":7070,"kobj":7071,"vectorisssaisseeet":7072,"bg":7073,"tpl":7074,"inp":7075,"ka":7076,"supply":7077,"srq":7078,"Ġ10737418":7079,"eeept":7080,"1119":7081,"ldu":7082,"iteratoriiepst":7083,"gpenc":7084,"auxev":7085,"pairixxeept":7086,"jm":7087,"znsailed":7088,"Ġ16384":7089,"backijxeeevdpot":7090,"pairikxxeeec":7091,"2222":7092,"pairikcieeed":7093,"000000000001":7094,"iteratoripklst":7095,"emu":7096,"substremm":7097,"bcm":7098,"udc":7099,"pwr":7100,"927":7101,"ports":7102,"deec":7103,"counters":7104,"*))":7105,"intersection":7106,"skcipher":7107,"933":7108,"Ġ2147483646":7109,"cro":7110,"pairikssiesais":7111,"listixsaixee":7112,"Ġ117":7113,"vectoriisaiieeaseos":7114,"pairikxb":7115,"iiieeec":7116,"1314":7117,"1019":7118,"930":7119,"rl":7120,"pym":7121,"threadst":7122,"ifstream":7123,"vectoriysaiyeeedeev":7124,"znsolsepfrst":7125,"ioread":7126,"Ġ167772":7127,"beta":7128,"nvmet":7129,"lessiiesaiiees":7130,"clei":7131,"50005":7132,"era":7133,"589934":7134,"transform":7135,"mmy":7136,"refcnt":7137,"submit":7138,"valev":7139,"erkxjeert":7140,"cw":7141,"wqe":7142,"identityisseclerkss":7143,"disabled":7144,"sj":7145,"ieept":7146,"iiiess":7147,"ension":7148,"pmu":7149,"yn":7150,"toii":7151,"suff":7152,"nodeseppis":7153,"pairikssieeec":7154,"acc":7155,"xdp":7156,"constructicjrkceeevpt":7157,"adc":7158,"ause":7159,"roce":7160,"dib":7161,"1028":7162,"hc":7163,"jmp":7164,"pairissiest":7165,"ieeonst":7166,"hclge":7167,"algo":7168,"ename":7169,"Ġ100000":7170,"baseit":7171,"uction":7172,"hsotg":7173,"bulk":7174,"tlv":7175,"znsaipied":7176,"841":7177,"878":7178,"meta":7179,"sortist":7180,"935":7181,"lun":7182,"znsolsel":7183,"0000000000000":7184,"843":7185,"997":7186,"1116":7187,"toicesaist":7188,"Ġ999":7189,"valiz":7190,"packets":7191,"giz":7192,"pairilles":7193,"abc":7194,"hier":7195,"insertijxeeevn":7196,"vectoribsaibeeee":7197,"coor":7198,"ham":7199,"ptrisaist":7200,"strn":7201,"ssns":7202,"pkvm":7203,"intervalsais":7204,"ijs":7205,"Ġ524":7206,"1128":7207,"eeprom":7208,"958":7209,"qr":7210,"ldx":7211,"Ġ262":7212,"Ġ32512":7213,"1013":7214,"toilest":7215,"idi":7216,"cxd":7217,"cxxmiipcst":7218,"xeeevpst":7219,"enet":7220,"1004":7221,"pairiiieeed":7222,"tags":7223,"1014":7224,"ocket":7225,"pte":7226,"874":7227,"844":7228,"epls":7229,"znsaip":7230,"2500":7231,"Ġ113":7232,"854":7233,"iteripfbrkst":7234,"nilfs":7235,"dcp":7236,"micldtfp":7237,"baseecldtfp":7238,"demangle":7239,"lydia":7240,"term":7241,"1040":7242,"Ġ137":7243,"fld":7244,"rctx":7245,"1017":7246,"copyins":7247,"kill":7248,"pairikssxee":7249,"ange":7250,"lessijesaijee":7251,"879":7252,"xgbe":7253,"zge":7254,"notnull":7255,"updat":7256,"ijeeeeeps":7257,"movie":7258,"mapiy":7259,"ldc":7260,"880":7261,"1018":7262,"rcv":7263,"Ġ1000000":7264,"pointee":7265,"vgpu":7266,"mainenk":7267,"934":7268,"irkc":7269,"meth":7270,"931":7271,"optimization":7272,"payload":7273,"sinkpvz":7274,"abl":7275,"dummy":7276,"xprt":7277,"tcb":7278,"cert":7279,"setter":7280,"eraseb":7281,"shi":7282,"deg":7283,"938":7284,"buffered":7285,"1469":7286,"toiyest":7287,"pairiices":7288,"bmedge":7289,"backeoc":7290,"lw":7291,"fetch":7292,"xdr":7293,"listi":7294,"vectorijsaijeeeens":7295,"break":7296,"coexist":7297,"876":7298,"opcode":7299,"which":7300,"moveisaiieevrt":7301,"deeev":7302,"valueebe":7303,"960":7304,"1132":7305,"znsailec":7306,"opp":7307,"956":7308,"ixlm":7309,"minimum":7310,"graham":7311,"4000":7312,"hashim":7313,"method":7314,"871":7315,"hn":7316,"000000000010":7317,"onic":7318,"jffs":7319,"947":7320,"acq":7321,"baseiie":7322,"iej":7323,"lessiiesaiieesais":7324,"syl":7325,"offload":7326,"100009":7327,"pairixxeeevt":7328,"842":7329,"desais":7330,"tre":7331,"overlay":7332,"pxee":7333,"iteratoripp":7334,"pch":7335,"identitycl":7336,"Ġ624":7337,"1034":7338,"movein":7339,"_\"**":7340,"gg":7341,"945":7342,"contextstr":7343,"macroblock":7344,"adjac":7345,"gpencil":7346,"eeclerks":7347,"render":7348,"prio":7349,"jjpjs":7350,"iriilb":7351,"groups":7352,"ql":7353,"scb":7354,"eeeesb":7355,"registers":7356,"srssp":7357,"858":7358,"905":7359,"elimit":7360,"countjjpjs":7361,"faile":7362,"pw":7363,"yo":7364,"gain":7365,"complexidee":7366,"epmm":7367,"700000":7368,"replace":7369,"Ġ168":7370,"comb":7371,"conver":7372,"967":7373,"pub":7374,"hr":7375,"llevt":7376,"mei":7377,"rxrpc":7378,"Ġ9223372036854775807":7379,"esb":7380,"rkx":7381,"iface":7382,"vectorilsaileec":7383,"tcf":7384,"sqrtf":7385,"greateriiee":7386,"966":7387,"vectoriesaieeeixem":7388,"eeppev":7389,"geii":7390,"1056":7391,"ssssee":7392,"853":7393,"aset":7394,"adap":7395,"gsource":7396,"875":7397,"vectorisssaisseeemmev":7398,"destroyipllevt":7399,"9223372036854775808":7400,"devices":7401,"tupleijoieesd":7402,"modifierdata":7403,"eebrkst":7404,"iteratoripdes":7405,"1027":7406,"vectorimsaimeee":7407,"873":7408,"fsl":7409,"imr":7410,"znkssixem":7411,"hashis":7412,"946":7413,"Ġ123":7414,"Ġ164":7415,"biginte":7416,"mgmt":7417,"statics":7418,"939":7419,"nodeiye":7420,"metal":7421,"traverser":7422,"852":7423,"aystarsearchins":7424,"floor":7425,"1016":7426,"creat":7427,"mapepps":7428,"ofstream":7429,"stage":7430,"gizmo":7431,"swapi":7432,"charit":7433,"eeebrkns":7434,"0100":7435,"zsteqicen":7436,"ses":7437,"pairiex":7438,"gam":7439,"intervalst":7440,"inserteos":7441,"typeerksbis":7442,"lessiiee":7443,"Ġ121":7444,"tach":7445,"1029":7446,"copyipkipiet":7447,"visitor":7448,"108864":7449,"100002":7450,"fsc":7451,"urned":7452,"Ġ216":7453,"lterks":7454,"dpk":7455,"iteratorile":7456,"arrayixlm":7457,"Ġ132":7458,"prot":7459,"analyzer":7460,"heapist":7461,"bx":7462,"zstltixxebrkst":7463,"identityijest":7464,"treeijjst":7465,"300000":7466,"tailers":7467,"pairikycelb":7468,"cols":7469,"991":7470,"964":7471,"Ġ111":7472,"993":7473,"eeaseos":7474,"attach":7475,"baseidsaideed":7476,"stdin":7477,"ipiv":7478,"pairikssbeee":7479,"hisi":7480,"1229":7481,"flash":7482,"dcomplex":7483,"force":7484,"qt":7485,"949":7486,"Ġ140":7487,"909":7488,"psb":7489,"rcp":7490,"ttm":7491,"echoaudio":7492,"remote":7493,"tracking":7494,"vend":7495,"rknst":7496,"ijos":7497,"queued":7498,"Ġ268":7499,"mfc":7500,"pairiciest":7501,"ahd":7502,"942":7503,"greateriieeeevt":7504,"957":7505,"octeon":7506,"hy":7507,"kss":7508,"monot":7509,"Ġ152":7510,"gas":7511,"parameters":7512,"pairixxeeee":7513,"988":7514,"dtr":7515,"results":7516,"forwardirkleot":7517,"987":7518,"ijoiej":7519,"grahamscan":7520,"tls":7521,"structinfoc":7522,"955":7523,"csr":7524,"hull":7525,"pairieees":7526,"monotonic":7527,"resources":7528,"hdcp":7529,"fprintf":7530,"1517":7531,"itereebt":7532,"idle":7533,"pairiksscest":7534,"swapiiienst":7535,"980":7536,"compareepkc":7537,"rct":7538,"addedgeii":7539,"ikis":7540,"ptev":7541,"brush":7542,"959":7543,"Ġ103":7544,"vectorimsaimeeixem":7545,"0101":7546,"types":7547,"vectv":7548,"002":7549,"hashtableist":7550,"changed":7551,"znsaiy":7552,"xkb":7553,"asais":7554,"Ġule":7555,"snprintf":7556,"xmax":7557,"buffers":7558,"1037":7559,"xbf":7560,"align":7561,"fat":7562,"ties":7563,"stan":7564,"954":7565,"minor":7566,"upev":7567,"ility":7568,"paint":7569,"pairiklst":7570,"vectoridsaideeeplel":7571,"1228":7572,"pairikcieeec":7573,"baseilsaileed":7574,"bari":7575,"Ġ2307":7576,"feature":7577,"adjacent":7578,"Ġacq":7579,"fact":7580,"pairissiesais":7581,"baseipssst":7582,"days":7583,"872":7584,"rhashtable":7585,"capab":7586,"pairiddeeonst":7587,"948":7588,"shot":7589,"vendor":7590,"vectoriysaiyeeee":7591,"iteratorixedeev":7592,"pairikcbest":7593,"Ġ130":7594,"pairixxen":7595,"baseeerkst":7596,"edtmicldtfp":7597,"ejiiiee":7598,"handleri":7599,"operandp":7600,"inner":7601,"distanceipkienst":7602,"pointc":7603,"Ġ67108864":7604,"frames":7605,"vectorisssaisseest":7606,"1055":7607,"bna":7608,"ratelimit":7609,"particl":7610,"mapiccst":7611,"Ġ114":7612,"Ġuge":7613,"fid":7614,"eline":7615,"986":7616,"3000":7617,"950":7618,"absd":7619,"ceil":7620,"znam":7621,"summ":7622,"1215":7623,"vr":7624,"pcpii":7625,"cac":7626,"personst":7627,"inplaceinst":7628,"pairikmcee":7629,"965":7630,"compil":7631,"manageriz":7632,"pairiddeee":7633,"940":7634,"cxxeqipk":7635,"invalid":7636,"rece":7637,"Ġreturned":7638,"traitsicelb":7639,"vnic":7640,"chil":7641,"1008":7642,"1144":7643,"tupleijoieec":7644,"1125":7645,"pairikciesais":7646,"precisionel":7647,"0103":7648,"minfo":7649,"1032":7650,"iteratoriiemmev":7651,"imx":7652,"mch":7653,"erknst":7654,"pairiiiens":7655,"ixesais":7656,"elems":7657,"<__":7658,"insnpi":7659,"pairixxeedeev":7660,"1218":7661,"plain":7662,"iirilb":7663,"have":7664,"xd":7665,"ijst":7666,"rtnl":7667,"Ġ288":7668,"choice":7669,"wp":7670,"actual":7671,"1220":7672,"bea":7673,"iinfo":7674,"parport":7675,"mulate":7676,"forwardileot":7677,"1124":7678,"pairikiceeeot":7679,"queueixst":7680,"\"(%":7681,"1213":7682,"1035":7683,"ejoieec":7684,"wldev":7685,"boundep":7686,"inqu":7687,"pairikiieeclerks":7688,"xwindow":7689,"miss":7690,"boundepkst":7691,"imeept":7692,"properties":7693,"944":7694,"imev":7695,"Ġ8589934":7696,"1212":7697,"gid":7698,"pairikcceee":7699,"Ġ93":7700,"pairixxeeppev":7701,"elj":7702,"ng":7703,"irxs":7704,"rwlock":7705,"jmax":7706,"1021":7707,"xi":7708,"saih":7709,"pairikssbelb":7710,"strncmp":7711,"968":7712,"mapil":7713,"frace":7714,"kunit":7715,"vectoriisaiieeebrkst":7716,"rxs":7717,"hz":7718,"1006":7719,"verbs":7720,"iteratorisseeqerks":7721,"tupleijiiiiee":7722,"nh":7723,"destroyil":7724,"vectoriisaiieejrks":7725,"categoryipk":7726,"bookmark":7727,"1046":7728,"cens":7729,"pimt":7730,"ensc":7731,"969":7732,"ww":7733,"iteratorissrssp":7734,"Ġ184":7735,"stateseq":7736,"lee":7737,"pairikiceeeqerks":7738,"forwardirsseot":7739,"mbx":7740,"ived":7741,"crc":7742,"1049":7743,"ayer":7744,"1146":7745,"vectorixsaixeeest":7746,"reiser":7747,"trouble":7748,"reiserfs":7749,"hsaih":7750,"percent":7751,"978":7752,"Ġ536":7753,"Ġ511":7754,"failedpk":7755,"finderki":7756,"swapist":7757,"1123":7758,"recover":7759,"sess":7760,"1147":7761,"qi":7762,"resv":7763,"hv":7764,"dpf":7765,"signature":7766,"1000000000000":7767,"dla":7768,"scalequ":7769,"ilter":7770,"constinit":7771,"endepx":7772,"8001":7773,"content":7774,"0102":7775,"isnan":7776,"iteratoripj":7777,"steps":7778,"absx":7779,"1251":7780,"epkxpxet":7781,"nodeepi":7782,"vmem":7783,"tpoint":7784,"vectoriisaiieeeeeevt":7785,"tupleijoceeeot":7786,"1140":7787,"1039":7788,"others":7789,"vdev":7790,"Ġ141":7791,"cls":7792,"exact":7793,"timespec":7794,"pairieiesais":7795,"979":7796,"midi":7797,"1219":7798,"1126":7799,"kfd":7800,"lru":7801,"pairikxceedeev":7802,"2880":7803,"000000000":7804,"brd":7805,"eeeessee":7806,"lnum":7807,"1149":7808,"threshold":7809,"ila":7810,"gd":7811,"niters":7812,"1225":7813,"1044":7814,"regx":7815,"regy":7816,"eeixers":7817,"mempx":7818,"mempy":7819,"1036":7820,"Ġ32768":7821,"dog":7822,"dequeisssaissee":7823,"permutationin":7824,"800000000":7825,"1352":7826,"suffix":7827,"1045":7828,"Ġ4295000":7829,"pcidev":7830,"raid":7831,"ulve":7832,"0001":7833,"tgt":7834,"hinic":7835,"elf":7836,"1038":7837,"xchg":7838,"1145":7839,"iteratoricrcp":7840,"zstm":7841,"vectorisssaisseeeep":7842,"ranget":7843,"dif":7844,"1033":7845,"1148":7846,"ceeec":7847,"nodeixeeot":7848,"game":7849,"mint":7850,"stand":7851,"barr":7852,"busy":7853,"frequ":7854,"Ġmonotonic":7855,"converter":7856,"Ġ125":7857,"mini":7858,"lon":7859,"nrm":7860,"pvr":7861,"mdio":7862,"Ġ999999":7863,"1600":7864,"datasais":7865,"identityelb":7866,"reserveem":7867,"975":7868,"cgraph":7869,"ulate":7870,"eddd":7871,"1108":7872,":${":7873,"half":7874,"using":7875,"pct":7876,"1122":7877,"Ġ9223372036854775806":7878,"50001":7879,"961":7880,"swapipxs":7881,"962":7882,"vectoriisaiieeesais":7883,"listis":7884,"nos":7885,"multisetiist":7886,"943":7887,"fuse":7888,"974":7889,"pj":7890,"nex":7891,"stru":7892,"tintermtraverser":7893,"iteratoril":7894,"iccns":7895,"msix":7896,"queries":7897,"infostr":7898,"chars":7899,"pairikxxec":7900,"989":7901,"1217":7902,"0113":7903,"eeclis":7904,"rest":7905,"segmentsais":7906,"1047":7907,"970":7908,"1564":7909,"6666":7910,"rank":7911,"pairixies":7912,"0104":7913,"itor":7914,"vectorixsaixeeeeenst":7915,"sdma":7916,"imer":7917,"rootev":7918,"wrapper":7919,"pprev":7920,"952":7921,"zstmi":7922,"tual":7923,"asn":7924,"pfn":7925,"1164":7926,"segmenttree":7927,"traitsisaipiee":7928,"nets":7929,"1158":7930,"gcdii":7931,"Ġcommon":7932,"977":7933,"rint":7934,"csio":7935,"stclirkst":7936,"timings":7937,"1059":7938,"insertip":7939,"timing":7940,"fscache":7941,"trienod":7942,"sftk":7943,"1224":7944,"953":7945,"epsss":7946,"mimeept":7947,"aipk":7948,"predphi":7949,"976":7950,"iebrkst":7951,"1216":7952,"1150":7953,"mixer":7954,"963":7955,"compareepkcs":7956,"hnae":7957,"tda":7958,"esult":7959,"1058":7960,"present":7961,"eeeepimt":7962,"yyl":7963,"ccg":7964,"way":7965,"baseimsaim":7966,"004":7967,"Ġ126":7968,"frequency":7969,"eeese":7970,"imbuf":7971,"984":7972,"0105":7973,"cancel":7974,"pairixxeeclerks":7975,"nali":7976,"ssls":7977,"iiieieeee":7978,"bail":7979,"1107":7980,"vase":7981,"inj":7982,"induction":7983,"hashiie":7984,"pairikxssest":7985,"pxeebrt":7986,"volume":7987,"hashij":7988,"1222":7989,"1067":7990,"mapeppim":7991,"prv":7992,"constructiy":7993,"checksum":7994,"openmode":7995,"1133":7996,"destroyipddevt":7997,"iteratoricedeev":7998,"stderr":7999,"ling":8000,"1057":8001,"pairikxceeclerks":8002,"zy":8003,"eevee":8004,"1134":8005,"nodeiiers":8006,"ldt":8007,"1068":8008,"iteratoripcs":8009,"strcpypcpkc":8010,"zon":8011,"idr":8012,"972":8013,"pairikiieeeqerks":8014,"sslsocket":8015,"6210":8016,"schedule":8017,"openmodes":8018,"acpy":8019,"iiieies":8020,"jris":8021,"watchdog":8022,"mdev":8023,"1031":8024,"5544":8025,"1104":8026,"vcc":8027,"1214":8028,"4002":8029,"1069":8030,"000000000002":8031,"iljrk":8032,"mapicxst":8033,"shash":8034,"constructiljrk":8035,"constructiljrkl":8036,"coal":8037,"iteratoriiripi":8038,"1197":8039,"ranges":8040,"barrier":8041,"pairidies":8042,"1137":8043,"vectorimsaimeeedeev":8044,"pairikjcest":8045,"1120":8046,"1064":8047,"drive":8048,"finderkss":8049,"hashimens":8050,"30000":8051,"oint":8052,"inserterkx":8053,"1223":8054,"magickexception":8055,"pairiidest":8056,"fbuffer":8057,"sslsocketstr":8058,"1860":8059,"divide":8060,"1078":8061,"vmemmap":8062,"maxy":8063,"iteratorim":8064,"anim":8065,"941":8066,"200010":8067,"getev":8068,"clers":8069,"libcall":8070,"1226":8071,"hashiieclei":8072,"000000000009":8073,"mapiis":8074,"1155":8075,"cpow":8076,"ipxln":8077,"lessiyesaist":8078,"1416":8079,"throwmagickexception":8080,"insertipxn":8081,"rbe":8082,"1232":8083,"loopipxln":8084,"pairikciec":8085,"ieeeest":8086,"copyipst":8087,"rangesais":8088,"eeeeenst":8089,"vir":8090,"cluster":8091,"1157":8092,"pause":8093,"iteripfbrs":8094,"iiieeeonst":8095,"vectoricsaiceeed":8096,"minated":8097,"mapped":8098,"vectorixsaixeeed":8099,"htc":8100,"tile":8101,"iteratorppev":8102,"traitsisaijee":8103,"1095":8104,"ku":8105,"Ġ180":8106,"composite":8107,"wlan":8108,"sdf":8109,"yyltype":8110,"iiiec":8111,"eerkt":8112,"moveirmeonst":8113,"nodeec":8114,"spar":8115,"toissesaist":8116,"clean":8117,"ixxsaix":8118,"pairikyceee":8119,"baseiysaiy":8120,"fcoe":8121,"structrna":8122,"isdigit":8123,"1052":8124,"demod":8125,"sib":8126,">>>>,":8127,"datar":8128,"iteratoripkmst":8129,"allocatorin":8130,"moveisai":8131,"ahc":8132,"1121":8133,"guess":8134,"apic":8135,"segs":8136,"007":8137,"bigintee":8138,"relinqu":8139,"ao":8140,"pairikssiec":8141,"ddd":8142,"fragment":8143,"973":8144,"countev":8145,"igb":8146,"Ġ1023":8147,"relinquish":8148,"ansy":8149,"oob":8150,"scis":8151,"smi":8152,"dens":8153,"]*,":8154,"vectoricsaiceeeepcet":8155,"extension":8156,"1199":8157,"000000000003":8158,"ejxx":8159,"1159":8160,"grp":8161,"listiisaiieed":8162,"951":8163,"pairiklceee":8164,"983":8165,"allocatoridec":8166,"0107":8167,"allocatorilec":8168,"encrypt":8169,"pnode":8170,"gcdi":8171,"ccp":8172,"Ġ196":8173,"ilo":8174,"mipst":8175,"iteratorixebec":8176,"1079":8177,"1054":8178,"985":8179,"jpjs":8180,"zstmiin":8181,"segsais":8182,"baseiccns":8183,"fileilb":8184,"Ġ148":8185,"1479":8186,"1180":8187,"nodeesais":8188,"ificate":8189,"0106":8190,"verdict":8191,"cen":8192,"znsolsem":8193,"1318":8194,"seen":8195,"forwardinst":8196,"981":8197,"1061":8198,"reserved":8199,"cpuidjpjs":8200,"1136":8201,"1102":8202,"1106":8203,"pairikxxens":8204,"qh":8205,"bigintcee":8206,"xeepst":8207,"qlen":8208,"iceeot":8209,"wd":8210,"cia":8211,"els":8212,"jar":8213,"biginteot":8214,"1844":8215,"isa":8216,"irx":8217,"hashtableixxsaix":8218,"ipr":8219,"rbegin":8220,"ieeevrs":8221,"1089":8222,"1344":8223,"dren":8224,"beacon":8225,"tupleijd":8226,"pairikissest":8227,"ptrs":8228,"baseipyet":8229,"keystr":8230,"ceeevrs":8231,"Ġ225":8232,"strcmppkcs":8233,"llib":8234,"rtllib":8235,"nssck":8236,"cmpsais":8237,"1152":8238,"irkins":8239,"8709":8240,"1109":8241,"tou":8242,"_(<":8243,"repack":8244,"ucl":8245,"1131":8246,"bmface":8247,"1230":8248,"1086":8249,"ding":8250,"shar":8251,"stmmac":8252,"chr":8253,"001":8254,"appendepkc":8255,"weak":8256,"Ġ*>,":8257,"bez":8258,"children":8259,"pai":8260,"006":8261,"bdev":8262,"cpuinfo":8263,"1189":8264,"vectorisssaisseeeeet":8265,"1153":8266,"1237":8267,"Ġsimple":8268,"traitsiceec":8269,"hashtableixxsaixenst":8270,"pairidxest":8271,"hub":8272,"1060":8273,"1156":8274,"ather":8275,"Ġ>::":8276,"pointeonst":8277,"backlight":8278,"lol":8279,"gate":8280,"atmel":8281,"vpx":8282,"ixxeee":8283,"csum":8284,"osd":8285,"1127":8286,"play":8287,"Ġ250":8288,"tn":8289,"8723":8290,"003":8291,"1077":8292,"deallocateepym":8293,"0111":8294,"nipcmcet":8295,"sdi":8296,"Ġ264":8297,"raiist":8298,"hack":8299,"side":8300,"partyst":8301,"111111":8302,"1680":8303,"ixeeot":8304,"percpu":8305,"rbeginev":8306,"irow":8307,"1227":8308,"ignor":8309,"ipu":8310,"urng":8311,"1209":8312,"600000":8313,"1074":8314,"leaf":8315,"1101":8316,"eliminated":8317,"uverbs":8318,"ential":8319,"pairikibee":8320,"xdisplay":8321,"ieed":8322,"readl":8323,"available":8324,"valarrayidesais":8325,"971":8326,"cdns":8327,"ppt":8328,"tupleijxxxeest":8329,"spkc":8330,"1129":8331,"baseipkst":8332,"1065":8333,"zstmirkst":8334,")),":8335,"eeeisa":8336,"msi":8337,"ilsail":8338,"ced":8339,"1141":8340,"hashns":8341,"jeot":8342,"shadow":8343,"982":8344,"1135":8345,"nvm":8346,"gmain":8347,"1210":8348,"]]]]]]]*":8349,"pnp":8350,"spac":8351,"vectoriysaiyeeeplel":8352,"activ":8353,"]]]]]]],":8354,"Ġcmp":8355,"fcf":8356,"bignumst":8357,"1103":8358,"idsaideec":8359,"baseipsset":8360,"snap":8361,"1087":8362,"ersion":8363,"pixelalpha":8364,"testcaser":8365,"gene":8366,"vectoriysaiyeeees":8367,"1130":8368,"1138":8369,"ror":8370,"Ġ106":8371,"associ":8372,"baseidsaideec":8373,"vecst":8374,"comparison":8375,"1090":8376,"langu":8377,"ghashtable":8378,"ost":8379,"compareerkss":8380,"iteratoripcec":8381,"iteratoripce":8382,"1075":8383,"cej":8384,"uil":8385,"hashtableiyst":8386,"iteratoriierblb":8387,"1188":8388,"sseee":8389,"vectoridsaideeees":8390,"distanceist":8391,"lssns":8392,"vectorisssaisseeeelssns":8393,"readback":8394,"condition":8395,"arrayi":8396,"gpi":8397,"1190":8398,"dfsii":8399,"obstack":8400,"emcrksaice":8401,"setilst":8402,"nm":8403,"ixeoi":8404,"destroystring":8405,"Ġ257":8406,"socke":8407,"execut":8408,"1193":8409,"wire":8410,"hashtableilst":8411,"chips":8412,"Ġ227":8413,"vectoricsaiceeet":8414,"cqe":8415,"xb":8416,"54442":8417,"nodeeonst":8418,"attack":8419,"allocatorije":8420,"fracsais":8421,"ejocee":8422,"Ġ32767":8423,"pairiiceeot":8424,"leentry":8425,"ldwork":8426,"lll":8427,"2010":8428,"deet":8429,"1236":8430,"1154":8431,"pcmcia":8432,"pxxet":8433,"1523":8434,"1041":8435,"iteratoripks":8436,"efi":8437,"functionifb":8438,"iiiii":8439,"ipn":8440,"guided":8441,"iteratoripcsseplel":8442,"1235":8443,"gather":8444,"mxs":8445,"ivtv":8446,"iteratoripfst":8447,"exist":8448,"tupleijoxeeeot":8449,"timest":8450,"pvpkvm":8451,"1000010":8452,"traitsisaip":8453,"1139":8454,"ghash":8455,"nodeijrkxeeepst":8456,"eoclb":8457,"::(":8458,"iteratoriceneerks":8459,"orith":8460,"gap":8461,"traitsisaipst":8462,"Ġ1073741824":8463,"vmcs":8464,"pportdata":8465,"logmodule":8466,"nipdm":8467,"mthca":8468,"intervals":8469,"wb":8470,"ended":8471,"epds":8472,"2100":8473,"nodeclirkxeepst":8474,"vectorimsaimeeee":8475,"cxxmiipdst":8476,"fall":8477,"tic":8478,"sysfs":8479,"iterclixpxeebrt":8480,"nssckfw":8481,"thing":8482,"Ġ10000000":8483,"sain":8484,"sinkiz":8485,"theory":8486,"nee":8487,"rout":8488,"rings":8489,"maj":8490,"vectorimsaimeed":8491,"sgl":8492,"Ġ248":8493,"printer":8494,"edit":8495,"97152":8496,"ahash":8497,"1142":8498,"1233":8499,"sdna":8500,"timestamp":8501,"1238":8502,"ansx":8503,"0109":8504,"1070":8505,"Ġ(...)***":8506,"iteripfbssssee":8507,"1249":8508,"nodeijrkxeeevpst":8509,"writel":8510,"han":8511,"wmgizmo":8512,"mierks":8513,"modular":8514,"1143":8515,"\"*)***":8516,"segtree":8517,"pkvs":8518,"smbus":8519,"ak":8520,"imc":8521,"padapter":8522,"dispatch":8523,"1053":8524,"exponent":8525,"1221":8526,"decry":8527,"mbus":8528,"ejr":8529,"uvc":8530,"iib":8531,"1239":8532,"rio":8533,"Ġ100000000":8534,"gly":8535,"grap":8536,"transl":8537,"ape":8538,"pairixxejs":8539,"origin":8540,"Ġ300":8541,"dword":8542,"probing":8543,"unexpected":8544,"ipiee":8545,"ases":8546,"digraph":8547,"eld":8548,"Ġ189":8549,"slow":8550,"iteratoriceeqerks":8551,"Ġ232":8552,"vega":8553,"msr":8554,"limited":8555,"encode":8556,"_\",":8557,"asc":8558,"pointec":8559,"1187":8560,"seed":8561,"iiieeeot":8562,"center":8563,"zhe":8564,"cose":8565,"1280":8566,"pusherki":8567,"isssaisseesais":8568,"sine":8569,"trst":8570,"moveirsaist":8571,"000000000004":8572,"ixeos":8573,"treeidst":8574,"1051":8575,"1315":8576,"erns":8577,"basert":8578,"movb":8579,"exy":8580,"baseilsaileec":8581,"ntsr":8582,"ifixntsr":8583,"moveisaist":8584,"1439":8585,"slice":8586,"ceest":8587,"pairiiiems":8588,"rehashemmm":8589,"mlb":8590,"gvt":8591,"iq":8592,"leet":8593,"vote":8594,"1313":8595,"1151":8596,"1000001":8597,"Ġ229":8598,"mater":8599,"vfs":8600,"iiiiiiiiiiiiiiii":8601,"arrayis":8602,"nodeime":8603,"nlmsghdr":8604,"seedem":8605,"eerkns":8606,"detailne":8607,"Ġ2567483615":8608,"binder":8609,"isprime":8610,"imagelist":8611,"mouse":8612,"virtual":8613,"Ġuno":8614,"cuts":8615,"material":8616,"1335":8617,"vectoridsaideeeebrkns":8618,"ipieerkns":8619,"bcd":8620,"vectorilsaileeeppev":8621,"1211":8622,"pairixieeonst":8623,"baseens":8624,"0116":8625,"pxeet":8626,"forwardioieot":8627,"rangest":8628,"pairikxbee":8629,"ste":8630,"gmaincontext":8631,"mib":8632,"istent":8633,"ddb":8634,"1063":8635,"vectoricsaiceeeppev":8636,"iteripfbxx":8637,"ftrace":8638,"1300":8639,"orden":8640,"numst":8641,"many":8642,"subsys":8643,"1183":8644,"turn":8645,"0112":8646,"ipienst":8647,"eelm":8648,"sytrf":8649,"early":8650,"1163":8651,"1856":8652,"lessidesais":8653,"1420":8654,"sli":8655,"0117":8656,"pairixxem":8657,"fab":8658,"transition":8659,"strto":8660,"emlb":8661,"constructicjceeevrs":8662,"1043":8663,"compute":8664,"chke":8665,"ilaenv":8666,"jet":8667,"pairiisses":8668,"eveeot":8669,"hacks":8670,"1244":8671,"cxxneiplst":8672,"1583":8673,"sdata":8674,"1073":8675,"1208":8676,"compiler":8677,"1281":8678,"1160":8679,"1097":8680,"iteratoripyes":8681,"1071":8682,"cxxneipcst":8683,"maxiderkt":8684,"1438":8685,"dyn":8686,"appendemc":8687,"1250":8688,"via":8689,"subdiv":8690,"Ġg":8691,"1257":8692,"znsirsery":8693,"101010":8694,"tupleijiiiees":8695,"simd":8696,"0108":8697,"might":8698,"1317":8699,"Ġfilter":8700,"1185":8701,"shost":8702,"1260":8703,"ionic":8704,"Ġ*>>::_":8705,"maind":8706,"gcdixet":8707,"mis":8708,"Ġ131":8709,"1316":8710,"fancy":8711,"eeeeens":8712,"1066":8713,"zstneicst":8714,"coales":8715,"moyo":8716,"solveii":8717,"pairikxiesais":8718,"tupleijoceesd":8719,"1273":8720,"ileept":8721,"1319":8722,"jr":8723,"1247":8724,"exynos":8725,"zo":8726,"1042":8727,"stackist":8728,"xh":8729,"congruential":8730,"1094":8731,"pairisssse":8732,"eemm":8733,"abortpkcis":8734,"Ġsp":8735,"Ġ%_.":8736,"monitor":8737,"Ġ131072":8738,"Ġ254":8739,"1084":8740,"mvpp":8741,"mds":8742,"eeeeee":8743,"ipa":8744,"Ġ2313":8745,"testcaseresult":8746,"dpm":8747,"jarvis":8748,"008":8749,"initializeipk":8750,"threevector":8751,"1080":8752,"1196":8753,"1245":8754,"1165":8755,"baseisse":8756,"pairikiieeeot":8757,"ugly":8758,"1799":8759,"parameter":8760,"embe":8761,"0115":8762,"assignem":8763,"1290":8764,"1186":8765,"vertexiter":8766,"pbvhvertexiter":8767,"rxq":8768,"tl":8769,"uglygep":8770,"tomoyo":8771,"pblk":8772,"png":8773,"sense":8774,"1205":8775,"1184":8776,"mipi":8777,"vectorijsaijeee":8778,"110000":8779,"Ġ228":8780,"vectorixsaixeeeeens":8781,"iono":8782,"iteratoripkyst":8783,"isu":8784,"fts":8785,"traversals":8786,"1423":8787,"typeeosa":8788,"eview":8789,"beam":8790,"0114":8791,"ieerkt":8792,"magickmemory":8793,"iees":8794,"errnod":8795,"acked":8796,"ism":8797,"fracs":8798,"distributioniie":8799,"states":8800,"language":8801,"typec":8802,"hwif":8803,"vxge":8804,"Ġ188":8805,"itemsais":8806,"bintst":8807,"1440":8808,"fract":8809,"vsnprintf":8810,"1194":8811,"touch":8812,"udp":8813,"hpi":8814,"vectoriysaiyeeec":8815,"horseinfo":8816,"movietracking":8817,"lint":8818,"rax":8819,"Ġ5368709":8820,"scnprintf":8821,"nodeet":8822,"1082":8823,"kest":8824,"Ġ501":8825,"1246":8826,"iop":8827,"llb":8828,"embede":8829,"1172":8830,"Ġ$$":8831,"_\"*,":8832,"5535":8833,"glyph":8834,"relinquishmagickmemory":8835,"802154":8836,"1248":8837,"iobase":8838,"6641":8839,"pairixxeeeot":8840,"musb":8841,"bel":8842,"putspkc":8843,"ostringstream":8844,"bank":8845,"Ġ134":8846,"1167":8847,"sclk":8848,"lcd":8849,"itsait":8850,"executor":8851,"bon":8852,"bestack":8853,"maybestack":8854,"customdata":8855,"1062":8856,"eex":8857,"forwardirkyeot":8858,"markup":8859,"ssic":8860,"destroyimagelist":8861,"dequeiisaiieeed":8862,"cxxmiipkist":8863,"chun":8864,"vdd":8865,"1096":8866,"ptre":8867,"indexerk":8868,"08000000000000000":8869,"names":8870,"sfnt":8871,"gnum":8872,"esas":8873,"decrypt":8874,"1076":8875,"1169":8876,"1175":8877,"eeebrkst":8878,"1627":8879,"Ġ231":8880,"pairiiieaserks":8881,"anymatcher":8882,"1162":8883,"nodeiceot":8884,"ntest":8885,"1206":8886,"pipcs":8887,"1240":8888,"pairics":8889,"1939":8890,"92233720368547757":8891,"setiyst":8892,"membufi":8893,"vectoriysaiyeeeebrkns":8894,"hiderc":8895,"1424":8896,"sfntly":8897,"exx":8898,"epcrksaice":8899,"pairimmest":8900,"major":8901,"linkedlist":8902,"rps":8903,"pairikiceed":8904,"Ġ%.)":8905,"ipxevt":8906,"valikie":8907,"vectoribsaibeeept":8908,"ank":8909,"closure":8910,"unlimited":8911,"znsaij":8912,"Ġ199":8913,"1083":8914,"ntfs":8915,"constructim":8916,"1432":8917,"rsnd":8918,"mxl":8919,"older":8920,"quark":8921,"1085":8922,"want":8923,"fbt":8924,"hdw":8925,"plarena":8926,"1198":8927,"Ġrcu":8928,"fbtft":8929,"localecompare":8930,"xeet":8931,"cli":8932,"vectoriisaiieeeesb":8933,"hashijens":8934,"Ġ149":8935,"2185":8936,"xrks":8937,"repev":8938,"masks":8939,"fltmin":8940,"noneg":8941,"xesais":8942,"iteratoripmes":8943,"vectorimsaimeeec":8944,"rawm":8945,"dddee":8946,"Ġ252":8947,"megas":8948,"megasas":8949,"riv":8950,"kernfs":8951,"1259":8952,"nodeclirks":8953,"thr":8954,"Ġ838":8955,"transdata":8956,"Ġ145":8957,"ertificate":8958,"nw":8959,"hdac":8960,"forwardiost":8961,"rawmidi":8962,"tcldtfp":8963,"heapnode":8964,"emulate":8965,"1534":8966,"Ġ167":8967,"vectorisssaisseesais":8968,"deform":8969,"1161":8970,"ssy":8971,"evali":8972,"sfd":8973,"tok":8974,"cxxltipssst":8975,"dssc":8976,"cycle":8977,"ihi":8978,"join":8979,"sufpair":8980,"Ġ147":8981,"Ġspir":8982,"amax":8983,"self":8984,"tupleijoieesb":8985,"pdm":8986,"quantu":8987,"prs":8988,"nid":8989,"allocatoriy":8990,"1419":8991,"rates":8992,"1166":8993,"1336":8994,"1339":8995,"1288":8996,"isci":8997,"acosiien":8998,"cleri":8999,"numer":9000,"]]]]*":9001,"2400":9002,"antumto":9003,"ness":9004,"1264":9005,"zsteqip":9006,"opts":9007,"emrkxrks":9008,"zt":9009,"1520":9010,"65536":9011,"beztriple":9012,"znsirserm":9013,"netif":9014,"erksa":9015,"srtp":9016,"genl":9017,"1417":9018,"1429":9019,"ldwrk":9020,"sharabl":9021,"hop":9022,"ejoxee":9023,"createemm":9024,"sharableem":9025,"shut":9026,"createemmrksaice":9027,"identityiiecleri":9028,"1201":9029,"1616":9030,"flip":9031,"sets":9032,"eoxlb":9033,"sdev":9034,"atan":9035,"ztv":9036,"Ġ139":9037,"traitsisaieee":9038,"ny":9039,"clg":9040,"2147483647":9041,"decnumber":9042,"pghdr":9043,"gimple":9044,"1362":9045,"unlint":9046,"vectoriisaiieei":9047,"wand":9048,"1207":9049,"ehci":9050,"isais":9051,"1268":9052,"esp":9053,"zstneip":9054,"10000000":9055,"boole":9056,"casenum":9057,"1418":9058,"1098":9059,"stateinst":9060,"rsi":9061,"1522":9062,"iteratorixeeqerks":9063,"ipxenst":9064,"1258":9065,"getline":9066,"1177":9067,"1334":9068,"rgb":9069,"vectoriesaieeeee":9070,"eeeeedeev":9071,"rcti":9072,"rhash":9073,"aligne":9074,"treader":9075,"proxy":9076,"vectorijsaijeeedeev":9077,"0000000000000000":9078,"Ġ524288":9079,"eeii":9080,"aes":9081,"ument":9082,"cnd":9083,"accessev":9084,"limits":9085,"1588":9086,"1174":9087,"Ġinrange":9088,"1181":9089,"1516":9090,"Ġ1048576":9091,"large":9092,"1202":9093,"unu":9094,"1204":9095,"mapiycst":9096,"classdev":9097,"pairikxceeeqerks":9098,"ceers":9099,"pports":9100,"800000":9101,"batch":9102,"1255":9103,"running":9104,"Ġ(...)**),":9105,"Ġcomplex":9106,"ceeot":9107,"vectoriisaiieeeeeebt":9108,"boolean":9109,"cntl":9110,"cir":9111,"tasklet":9112,"1428":9113,"htt":9114,"nodeiceeot":9115,"1332":9116,"pairikxxeeeixers":9117,"bpose":9118,"plarenapool":9119,"levt":9120,"ised":9121,"pairiiieps":9122,"magickinfo":9123,"pairikxceeeot":9124,"Ġ262144":9125,"bfq":9126,"tegra":9127,"socketreader":9128,"skl":9129,"lbl":9130,"1415":9131,"tupleijxxxee":9132,"collation":9133,"nodeemrk":9134,"longinteger":9135,"1091":9136,"_()":9137,"inb":9138,"cacheview":9139,"sie":9140,"dblmin":9141,"1170":9142,"1355":9143,"1282":9144,"certc":9145,"strcat":9146,"pairikssiens":9147,"az":9148,"vali":9149,"pairidieeonst":9150,"1614":9151,"cccc":9152,"qos":9153,"irieeot":9154,"inform":9155,"beeee":9156,"cashiers":9157,"1333":9158,"mpler":9159,"tupleijjjj":9160,"lj":9161,"emit":9162,"lg":9163,"strncpy":9164,"cycl":9165,"utf":9166,"vectoribsaibeeevt":9167,"checkg":9168,"scrarea":9169,"2404":9170,"0119":9171,"iteratorixeppev":9172,"ldtb":9173,"radio":9174,"extack":9175,"phm":9176,"plerkss":9177,"wireless":9178,"fractionst":9179,"dquot":9180,"bvh":9181,"1426":9182,"Ġ220":9183,"eoi":9184,"ochar":9185,"eei":9186,"vectoriysaiyeed":9187,"tupleijoxeesd":9188,"ssdsc":9189,"mcast":9190,"1276":9191,"mapixst":9192,"1615":9193,"dead":9194,"Ġ226":9195,"ixxeiest":9196,"drvdata":9197,"eesf":9198,"tf":9199,"0118":9200,"mapillst":9201,"connected":9202,"sibling":9203,"2020":9204,"cstruct":9205,"where":9206,"vectorixsaixeeeepxxet":9207,"1275":9208,"segmentst":9209,"znssplerkss":9210,"Ġ156":9211,"1525":9212,"1427":9213,"Ġ320":9214,"mclk":9215,"dtb":9216,"pipeline":9217,"Ġlist":9218,"ixeoc":9219,"roper":9220,"clockens":9221,"libr":9222,"Ġ146":9223,"pcpu":9224,"ijocej":9225,"ijj":9226,"2397":9227,"qual":9228,"tupleijx":9229,"1269":9230,"bigintiest":9231,"pusherks":9232,"slope":9233,"1303":9234,"lete":9235,"1527":9236,"model":9237,"Ġ135":9238,"pairikcxee":9239,"1182":9240,"infosais":9241,"vectoriesaieeesais":9242,"formul":9243,"baserki":9244,"1267":9245,"vectoricsaiceeees":9246,"1326":9247,"Ġ157":9248,"iiiecesais":9249,"association":9250,"1171":9251,"pairiiceee":9252,"tupleijst":9253,"smlnum":9254,"algorith":9255,"epnst":9256,"1299":9257,"charse":9258,"1178":9259,"crt":9260,"1168":9261,"1203":9262,"iteratoriiripies":9263,"lew":9264,"eevent":9265,"jack":9266,"Ġ150":9267,"unlocked":9268,"iiieec":9269,"checkus":9270,"aipdm":9271,"1330":9272,"cached":9273,"robo":9274,"allocatoriee":9275,"009":9276,"554432":9277,"valipf":9278,"mapilcst":9279,"jb":9280,"itemst":9281,"1256":9282,"pairikibelb":9283,"valit":9284,"standard":9285,"rssi":9286,"1093":9287,"iteratorisslb":9288,"sdl":9289,"eeneerks":9290,"nodeijrkssee":9291,"1195":9292,"pyst":9293,"bund":9294,"serio":9295,"wo":9296,"1270":9297,"texture":9298,"ugh":9299,"valikieclins":9300,"2187":9301,"1176":9302,"roperty":9303,"bor":9304,"sil":9305,"icast":9306,"100003":9307,"copyippis":9308,"mmx":9309,"1173":9310,"1425":9311,"eeeesseesais":9312,"miniderkt":9313,"1328":9314,"1231":9315,"esw":9316,"1324":9317,"uter":9318,"setimst":9319,"1081":9320,"iteratoricebec":9321,"fg":9322,"pkcz":9323,"pairikcceec":9324,"edgest":9325,"ixen":9326,"eeaserks":9327,"tpg":9328,"1242":9329,"dsy":9330,"1337":9331,"bigintaserks":9332,"istringstream":9333,"vu":9334,"constructiijr":9335,"cxxmiipyst":9336,"ball":9337,"ieeevpt":9338,"0132":9339,"times":9340,"nodeed":9341,"scaloc":9342,"ejiiee":9343,"msleep":9344,"1279":9345,"traitsicesaiceec":9346,"files":9347,"mk":9348,"iteratordeev":9349,"pairissss":9350,"Ġ4294967296":9351,"sortipssn":9352,"jeonst":9353,"sid":9354,"oney":9355,"vectoriisaiieeeeiet":9356,"fimc":9357,"arraysof":9358,"arraysofmemarrays":9359,"pollfd":9360,"1310":9361,"1320":9362,"finder":9363,"1241":9364,"weights":9365,"daddr":9366,"1254":9367,"stun":9368,"pairikibeee":9369,"pairiic":9370,"tupleijoceec":9371,"1350":9372,"Ġ410":9373,"destroyid":9374,"]]]],":9375,"pairiy":9376,"1191":9377,"conversion":9378,"blank":9379,"cdf":9380,"accel":9381,"vsp":9382,"40008000000000000000":9383,"sja":9384,"gmarkup":9385,"erilb":9386,"1284":9387,"iteratorij":9388,"hip":9389,"regi":9390,"greaterixe":9391,"screeninfo":9392,"Ġ190":9393,"Ġshort":9394,"pcb":9395,"money":9396,"nstarray":9397,"bundle":9398,"nodeclirkc":9399,"nodeclirkceepst":9400,"ejrkceernst":9401,"needed":9402,"constructissjsseeevrs":9403,"blocksize":9404,"vectorixsaixeeeepxeet":9405,"1283":9406,"bufferiie":9407,"ipiiet":9408,"1329":9409,"1092":9410,"bitem":9411,"iteratorixepst":9412,"charsepcs":9413,"vectoriesaieeeeens":9414,"epoch":9415,"issais":9416,"aipls":9417,"gnode":9418,"ejoceec":9419,"pairiddeec":9420,"0120":9421,"deps":9422,"Ġdelete":9423,"holder":9424,"qpl":9425,"utput":9426,"tupleijrkl":9427,"backwardipxs":9428,"1349":9429,"ertificatestr":9430,"mir":9431,"1519":9432,"tcon":9433,"ascl":9434,"iiiebee":9435,"ixxee":9436,"pairiiceeonst":9437,"tee":9438,"enter":9439,"Ġacquire":9440,"cnic":9441,"iint":9442,"1518":9443,"biguint":9444,"vectoricsaiceems":9445,"nodeisseot":9446,"conntrack":9447,"csi":9448,"1301":9449,"bnodesocket":9450,"getlineicst":9451,"1617":9452,"vecip":9453,"ldz":9454,"yi":9455,"aipxmxxet":9456,"pas":9457,"statesais":9458,"1274":9459,"apply":9460,"mbuf":9461,"vha":9462,"detect":9463,"*)***":9464,"ejris":9465,"span":9466,"Ġ138":9467,"classpkcis":9468,"beec":9469,"vectorimsaimeeeebrkns":9470,"sseeee":9471,"vmm":9472,"ats":9473,"nsisu":9474,"pairiksscee":9475,"tmit":9476,"atl":9477,"mainder":9478,"Ġ143":9479,"library":9480,"1307":9481,"equalserk":9482,"1312":9483,"1414":9484,"1619":9485,"toimest":9486,"1285":9487,"vmx":9488,"vectorixsaixeeeeedeev":9489,"hist":9490,"Ġ186":9491,"transinfo":9492,"banim":9493,"ordenar":9494,"ideept":9495,"1345":9496,"1535":9497,"notmask":9498,"qplib":9499,"ones":9500,"1412":9501,"agp":9502,"pairikcxeee":9503,"ejrksseernst":9504,"internalmmap":9505,"pairiiieeeonst":9506,"99999":9507,"1338":9508,"goption":9509,"typeeps":9510,"sseeevpst":9511,"1346":9512,"progress":9513,"logical":9514,"iteratoriiripiedeev":9515,"shutdown":9516,"ldab":9517,"rotat":9518,"nsisupports":9519,"vectoridsaideeeep":9520,"nodeijrkceeepst":9521,"vchi":9522,"destroyiy":9523,"cells":9524,"niplm":9525,"cid":9526,"1386":9527,"1309":9528,"1377":9529,"Ġ204":9530,"rreg":9531,"initv":9532,"sortipxevt":9533,"erkcjeert":9534,"1622":9535,"segments":9536,"rtwdev":9537,"lessiiesaiieeee":9538,"aap":9539,"\"*),":9540,"1331":9541,"1321":9542,"cjson":9543,"regexmask":9544,"jam":9545,"nodeijrkceeevpst":9546,"layers":9547,"1311":9548,"glew":9549,"vectoricsaiceeeeet":9550,"pairiklcelb":9551,"edd":9552,"iption":9553,"siw":9554,"1524":9555,"debugp":9556,"saileet":9557,"eeeese":9558,"maxlen":9559,"minheapnode":9560,"telem":9561,"eno":9562,"lto":9563,"ctype":9564,"1430":9565,"valuepair":9566,"xns":9567,"lessii":9568,"datarks":9569,"1422":9570,"traitsicesaic":9571,"room":9572,"1563":9573,"blend":9574,"pairikixest":9575,"threads":9576,"appenderkss":9577,"valued":9578,"bazv":9579,"vchiq":9580,"ification":9581,"img":9582,"rksait":9583,"mvert":9584,"moveireeonst":9585,"Ġ280":9586,"imgu":9587,"pairikciens":9588,"erkns":9589,"triee":9590,"hig":9591,"resultiss":9592,"1380":9593,"ulll":9594,"gmac":9595,"undo":9596,"jrs":9597,"scrub":9598,"1286":9599,"1277":9600,"iteratoriieppei":9601,"manyve":9602,"1263":9603,"nodeide":9604,"znsolsey":9605,"xwindows":9606,"xp":9607,"pairikssieeeixers":9608,"gtree":9609,"totaldamage":9610,"aipy":9611,"aapq":9612,"sdw":9613,"outh":9614,"member":9615,"erkssjeert":9616,"inserten":9617,"arb":9618,"1437":9619,"fpga":9620,"icol":9621,"1515":9622,"sssset":9623,"1266":9624,"writeback":9625,"aipcm":9626,"1618":9627,"finderks":9628,"splay":9629,"1305":9630,"8000":9631,"iso":9632,"1347":9633,"tpm":9634,"endepss":9635,"2800":9636,"pairixieee":9637,"prfile":9638,"1192":9639,"coding":9640,"arc":9641,"nodeins":9642,"1539":9643,"Ġ272":9644,"setting":9645,"1342":9646,"moveirjeonst":9647,"1360":9648,"1537":9649,"arp":9650,"stall":9651,"phydev":9652,"1323":9653,"relse":9654,"unused":9655,"ddee":9656,"aut":9657,"bitpack":9658,"1526":9659,"indextype":9660,"sectors":9661,"bnodetree":9662,"pmadd":9663,"pnfs":9664,"mapissxst":9665,"xe":9666,"kcst":9667,"ceeevpt":9668,"scsds":9669,"vectoriesaieeed":9670,"hest":9671,"dim":9672,"1435":9673,"2427":9674,"1358":9675,"vhost":9676,"uld":9677,"graphite":9678,"bev":9679,"pairikxieec":9680,"argument":9681,"rnd":9682,"scssdss":9683,"mnt":9684,"igc":9685,"1359":9686,"pairikccelb":9687,"vort":9688,"1327":9689,"pcr":9690,"fsm":9691,"iteratoriiep":9692,"mpz":9693,"subst":9694,"mapim":9695,"scst":9696,"ejst":9697,"fltmax":9698,"dblmax":9699,"hfs":9700,"sspmi":9701,"leevt":9702,"datal":9703,"pairiiieeeqerks":9704,"srb":9705,"cxg":9706,"gtreenode":9707,"1444":9708,"udev":9709,"lessicesaiceeest":9710,"1261":9711,"pal":9712,"gpuvert":9713,"1379":9714,"pmd":9715,"1436":9716,"hf":9717,"minus":9718,"coda":9719,"elns":9720,"infints":9721,"listisssaissee":9722,"vortex":9723,"rmi":9724,"1880":9725,"demux":9726,"dfsi":9727,"Ġ212":9728,"iterative":9729,"shield":9730,"sun":9731,"typeobject":9732,"1367":9733,"elementin":9734,"denst":9735,"Ġ215":9736,"xml":9737,"plerks":9738,"vectorinsain":9739,"Ġiter":9740,"1457":9741,"codes":9742,"zstnein":9743,"persistent":9744,"uvector":9745,"1252":9746,"1179":9747,"aicen":9748,"attributes":9749,"vectorijsaijeeixem":9750,"fixup":9751,"forwardimeot":9752,"internalmmapvector":9753,"ach":9754,"cloc":9755,"ieees":9756,"1278":9757,"1287":9758,"1298":9759,"eems":9760,"cai":9761,"bright":9762,"pairiddeaseos":9763,"forwardieeot":9764,"1528":9765,"nipxmxeet":9766,"1532":9767,"revision":9768,"futureiss":9769,"maybestackarray":9770,"1480":9771,"pairikliest":9772,"manage":9773,"bigintegerd":9774,"mxsinj":9775,"1625":9776,"nodeisseeot":9777,"sizeem":9778,"hot":9779,"quantuminfo":9780,"copyipxs":9781,"mf":9782,"summary":9783,"dget":9784,"minator":9785,"pairiice":9786,"ural":9787,"aom":9788,"strings":9789,"partitionip":9790,"2609":9791,"1464":9792,"2225":9793,"backerkc":9794,"mino":9795,"Ġ133":9796,"lessiee":9797,"1409":9798,"copyipkst":9799,"znsirserj":9800,"wol":9801,"pivotip":9802,"reas":9803,"1489":9804,"vectoricsaiceeeepc":9805,"pointins":9806,"overr":9807,"dsu":9808,"mev":9809,"xxeebt":9810,"filename":9811,"bbreg":9812,"tsolver":9813,"pairikjcee":9814,"tz":9815,"stpc":9816,"qedf":9817,"pairinne":9818,"wap":9819,"saf":9820,"pivotipxn":9821,"partitionipxn":9822,"vectorilsaileeet":9823,"pairieeee":9824,"ideee":9825,"oaddr":9826,"ipe":9827,"selectipxn":9828,"inserteoi":9829,"kev":9830,"1467":9831,"firstipxn":9832,"1322":9833,"backijr":9834,"unprepare":9835,"mvs":9836,"Ġ2097152":9837,"optprobe":9838,"issue":9839,"inpcb":9840,"lz":9841,"ym":9842,"eul":9843,"1628":9844,"vectoriisaiieeiee":9845,"forwardirceot":9846,"yeec":9847,"1348":9848,"1295":9849,"vfio":9850,"vectorihsaih":9851,"1434":9852,"vectoriisaiieeeesa":9853,"1308":9854,"Ġ161":9855,"ipxs":9856,"1530":9857,"huge":9858,"vectorisssaisseeest":9859,"topo":9860,"pkix":9861,"1297":9862,"ipo":9863,"1557":9864,"ets":9865,"imsaim":9866,"tupleijossee":9867,"nodeijieeepst":9868,"pairiixesais":9869,"xf":9870,"dcb":9871,"ghost":9872,"pairillee":9873,"coalesce":9874,"resol":9875,"1760":9876,"zstmii":9877,"2835":9878,"cyph":9879,"movw":9880,"0121":9881,"sfiifii":9882,"brightness":9883,"mhi":9884,"Ġ259":9885,"sseens":9886,"1538":9887,"swapicst":9888,"eesh":9889,"1378":9890,"1395":9891,"riest":9892,"enumproperty":9893,"zfc":9894,"Ġ}]*":9895,"pairiddeeot":9896,"qm":9897,"1399":9898,"yyevt":9899,"stpcpy":9900,"firstip":9901,"1289":9902,"lazy":9903,"loa":9904,"itt":9905,"1718":9906,"eevrsbit":9907,"traitsicesaiceevrsbit":9908,"rough":9909,">>::":9910,"aid":9911,"1545":9912,"ents":9913,"destroyipyyevt":9914,"Ġ3392":9915,"pvt":9916,"lu":9917,"selectip":9918,"valueeps":9919,"parm":9920,"copyippst":9921,"isr":9922,"1389":9923,"bitgroup":9924,"sav":9925,"enumpropertyitem":9926,"Ġtailrecurse":9927,"2001":9928,"eeclev":9929,"selection":9930,"ixxees":9931,"avg":9932,"ipmi":9933,"ixsaix":9934,"1421":9935,"initializeemrkx":9936,"previous":9937,"threade":9938,"hm":9939,"iteratorisseneerks":9940,"scalequantumto":9941,"aaa":9942,"pairiiieenst":9943,"1446":9944,"ecc":9945,"6651":9946,"pairiiiel":9947,"getlin":9948,"pairikssxeee":9949,"memcpypvpkvm":9950,"Ġ768":9951,"vectoridsaideeet":9952,"coords":9953,"sadd":9954,"ws":9955,"fails":9956,"cul":9957,"algorithm":9958,"iteratorissebec":9959,"1488":9960,"pairikssbeec":9961,"matche":9962,"ilsaileesais":9963,"0123":9964,"anorm":9965,"prag":9966,"((":9967,"aiplm":9968,"hashiielb":9969,"toiielb":9970,"2341":9971,"poline":9972,"saddr":9973,"1499":9974,"\"*>*":9975,"retpoline":9976,"1459":9977,"iiieiec":9978,"forwardirkmeot":9979,"vectoriisaiieeeelevrt":9980,"1620":9981,"2340":9982,"since":9983,"modify":9984,"pkts":9985,"scaled":9986,"1302":9987,"pairikcieedeev":9988,"1840":9989,"1445":9990,"dimm":9991,"1262":9992,"rvu":9993,"Ġ16777216":9994,"Ġ2000":9995,"lines":9996,"decompress":9997,"adapt":9998,"bgpdstroke":9999,"nurb":10000,"checkss":10001,"nfa":10002,"1253":10003,"Ġcmpxchg":10004,"1294":10005,"Ġ198":10006,"allocnodeis":10007,"toiiemlb":10008,"allocnodeisains":10009,"1722":10010,"0125":10011,"categoryist":10012,"1340":10013,"09999":10014,"instructions":10015,"Ġ4000":10016,"ssid":10017,"dmab":10018,"vy":10019,"1375":10020,"1265":10021,"rxe":10022,"baseiyst":10023,"1687":10024,"bigunsigned":10025,"Ġ201":10026,"cleii":10027,"noden":10028,"avf":10029,"ijox":10030,"iteratorixrxpxec":10031,"1455":10032,"tod":10033,"750000":10034,"ixxns":10035,"Ġ*${":10036,"1357":10037,"12365":10038,"vectoridsaideeed":10039,"cellsais":10040,"particle":10041,"1630":10042,"plug":10043,"iteratorilst":10044,"iteratoripleet":10045,"pairikmm":10046,"epys":10047,"Ġ@___":10048,"derived":10049,"vectorimsaimeeees":10050,"1272":10051,"1325":10052,"mloop":10053,"7615":10054,"1400":10055,"Ġ219":10056,"1529":10057,"7500":10058,"libmv":10059,"Ġ\"*":10060,"fft":10061,"posix":10062,"dataos":10063,"1449":10064,"quant":10065,"constructiyjrk":10066,"tk":10067,"readv":10068,"yu":10069,"Ġ218":10070,"fsi":10071,"recovery":10072,"constructiyjrky":10073,"Ġ864":10074,"plm":10075,"lot":10076,"2175":10077,"000000001":10078,"fee":10079,"vectorimsaimeec":10080,"Ġ187":10081,"otx":10082,"Ġ30000":10083,"mail":10084,"baseilst":10085,"nodeijieeevpst":10086,"watching":10087,"Ġ365":10088,"1726":10089,"Ġfree":10090,"information":10091,"Ġ172":10092,"vecmat":10093,"1555":10094,"nodees":10095,"0122":10096,"150000":10097,"1486":10098,"Ġ83886":10099,"eeas":10100,"1368":10101,"iiiessee":10102,"traitsisain":10103,"1000007":10104,"tupleijoxeec":10105,"1624":10106,"checkui":10107,"checkuc":10108,"553500":10109,"1536":10110,"fillin":10111,"partysais":10112,"gso":10113,"expi":10114,"1296":10115,"biginteonst":10116,"nodeiyee":10117,"fro":10118,"restart":10119,"judge":10120,"erasepst":10121,"toiieclerkis":10122,"ghook":10123,"possais":10124,"htable":10125,"1397":10126,"pairikiieed":10127,"constructissjrksseevpt":10128,"ejoxeec":10129,"remainder":10130,"functorerst":10131,"1505":10132,"capability":10133,"exst":10134,"iieepst":10135,"mos":10136,"sscsd":10137,"fec":10138,"1390":10139,"nodecliieepst":10140,"allocatoriled":10141,"Ġ1342":10142,"configure":10143,"baseijsaij":10144,"Ġ1499":10145,"aimc":10146,"eepcl":10147,"getlineepcl":10148,"1447":10149,"typed":10150,"sigma":10151,"slotinfostr":10152,"iavf":10153,"again":10154,"pairikxxeedeev":10155,"exture":10156,"pragma":10157,"stateest":10158,"amount":10159,"1470":10160,"pss":10161,"distanceipkst":10162,"ioaddr":10163,"vectorimsaimeeeplel":10164,"aimcen":10165,"clai":10166,"ield":10167,"registered":10168,"sparse":10169,"camera":10170,"ixns":10171,"1477":10172,"hift":10173,"Ġ4194":10174,"fen":10175,"pairiyyesais":10176,"usbhs":10177,"1304":10178,"iiiessesais":10179,"ima":10180,"1356":10181,"solvee":10182,"sfl":10183,"vectoritsait":10184,"evf":10185,"pairikyiest":10186,"146912365":10187,"inexact":10188,"1819":10189,"listen":10190,"asyncsolution":10191,"stripe":10192,"precalc":10193,"cxxneipkssst":10194,"phase":10195,"auxij":10196,"allowed":10197,"pairikcieeeixeoc":10198,"nom":10199,"nown":10200,"1514":10201,"litb":10202,"tdpfs":10203,"1549":10204,"pairikycesais":10205,"tdpf":10206,"opa":10207,"perse":10208,"anrm":10209,"rintfp":10210,"ryth":10211,"bose":10212,"verbose":10213,"inplacei":10214,"1626":10215,"jc":10216,"iteratoricrcpce":10217,"xgene":10218,"listice":10219,"pixels":10220,"1634":10221,"sqrtixen":10222,"isac":10223,"ledtcl":10224,"pairikdi":10225,"ipoib":10226,"ifindex":10227,"1550":10228,"mmevt":10229,"uchar":10230,"Ġ142":10231,"1411":10232,"1747":10233,"effect":10234,"Ġnode":10235,"baserks":10236,"1370":10237,"nodeinfo":10238,"1387":10239,"quantum":10240,"80000000000000000000":10241,"marker":10242,"wi":10243,"1824":10244,"1341":10245,"para":10246,"ktime":10247,"cma":10248,"vectorijsaijeeee":10249,"pairikiieeesais":10250,"iocbq":10251,"1474":10252,"parsecontext":10253,"epochev":10254,"1629":10255,"scsdisc":10256,"1306":10257,"7134":10258,"2286":10259,"1460":10260,"eeeixeoi":10261,"destroyipy":10262,"ixei":10263,"pairikiceeot":10264,"pairiccesais":10265,"each":10266,"baseipledtcl":10267,"1559":10268,"vectorilsaileeemmev":10269,"serialised":10270,"bfs":10271,"neighbor":10272,"Ġ210":10273,"qcom":10274,"specific":10275,"ixxeeee":10276,"bposechannel":10277,"3423":10278,"eeeixeoc":10279,"Ġ536870912":10280,"moveirpfb":10281,"mailbox":10282,"aipkipiiet":10283,"1635":10284,"iterclipsss":10285,"jbd":10286,"Ġnew":10287,"7164":10288,"50010":10289,"pointed":10290,"categoryipkienst":10291,"1388":10292,"ibdev":10293,"1364":10294,"iteratorcl":10295,"destroyiplevt":10296,"destroyipleevt":10297,"baseeeeest":10298,"0127":10299,"ixs":10300,"structs":10301,"adf":10302,"1879":10303,"slf":10304,"misc":10305,"checker":10306,"ceeevdpot":10307,"indexvaluepair":10308,"bpy":10309,"road":10310,"ua":10311,"pag":10312,"40000000":10313,"polar":10314,"lest":10315,"sseepst":10316,"vq":10317,"baseifsaif":10318,"1746":10319,"1293":10320,"digital":10321,"Ġ268435":10322,"Ġ197":10323,"destroyipmmevt":10324,"gop":10325,"calculate":10326,"1658":10327,"1365":10328,"trac":10329,"vectoricsaiceeeplel":10330,"inline":10331,"rkisp":10332,"paiririiest":10333,"ncy":10334,"plus":10335,"1920":10336,"car":10337,"gpiod":10338,"Ġ244":10339,"aper":10340,"constructicjceeevpt":10341,"itercli":10342,"1398":10343,"proj":10344,"Ġ151":10345,"allocatorided":10346,"fini":10347,"senate":10348,"asser":10349,"1406":10350,"gdate":10351,"1456":10352,"drawinfo":10353,"deeevrs":10354,"dequeiisaiieed":10355,"hdsp":10356,"Ġ195":10357,"valclipxxeebt":10358,"tclsr":10359,"cypher":10360,"1613":10361,"auxijrk":10362,"tupleiji":10363,"Ġ245":10364,"mant":10365,"1723":10366,"vectoriisaiieeeclerks":10367,"lessilesail":10368,"pairiiiemet":10369,"pairiiiemeet":10370,"pairiiiejeevpt":10371,"console":10372,"strsyl":10373,"1544":10374,"dropped":10375,"infintd":10376,"udata":10377,"pairikssbesais":10378,"reason":10379,"offs":10380,"rowmax":10381,"2199":10382,"assertion":10383,"nodeilee":10384,"psmouse":10385,"illb":10386,"pairikssieedeev":10387,"particles":10388,"sizes":10389,"btf":10390,"cnts":10391,"7146":10392,"zm":10393,"2425":10394,"scsdsc":10395,"generate":10396,"fcp":10397,"bpos":10398,"ordered":10399,"1677":10400,"eeps":10401,"dpa":10402,"ystem":10403,"qedi":10404,"1727":10405,"ldq":10406,"pairikiieeneerks":10407,"Ġ191":10408,"pairiidesais":10409,"ird":10410,"saisa":10411,"lessimesaist":10412,"eoc":10413,"missing":10414,"14691236517":10415,"pollrec":10416,"1632":10417,"dg":10418,"cxxeqipkist":10419,"calend":10420,"percentage":10421,"nodeclirksseepst":10422,"1468":10423,"oo":10424,"iirip":10425,"pairixxeet":10426,"prfiledesc":10427,"resa":10428,"quat":10429,"ptrins":10430,"ble":10431,"11000":10432,"1732":10433,"ih":10434,"pkcm":10435,"ipi":10436,"hrt":10437,"nodeijrksseeepst":10438,"constructiljrkleeevrs":10439,"jsonp":10440,"scssdssc":10441,"noders":10442,"pairikli":10443,"pairiibest":10444,"baseixxns":10445,"xkbfff":10446,"strateg":10447,"1623":10448,"persegtree":10449,"1540":10450,"edid":10451,"1556":10452,"iteratoripkest":10453,"destroyileevrs":10454,"idenst":10455,"rtrs":10456,"indices":10457,"psr":10458,"1413":10459,"0124":10460,"swapidenst":10461,"1822":10462,"cross":10463,"deallocateepjm":10464,"ikxs":10465,"1547":10466,"1567":10467,"evalu":10468,"listixsaixeed":10469,"greateriie":10470,"yield":10471,"ciphertext":10472,"1487":10473,"1408":10474,"exchange":10475,"2858":10476,"4100":10477,"Ġ33554432":10478,"1558":10479,"1586":10480,"sgemm":10481,"ipieet":10482,"edac":10483,"vectoribsaibeeeot":10484,"1580":10485,"bfad":10486,"aipiien":10487,"1292":10488,"vectoriesaieeeec":10489,"bufs":10490,"arith":10491,"quota":10492,"troublesort":10493,"1533":10494,"vecsais":10495,"ieeeixeos":10496,"1828":10497,"cpx":10498,"Ġget":10499,"noctor":10500,"12630":10501,"internalmmapvectornoctor":10502,"depsgraph":10503,"nlp":10504,"ijoiejlm":10505,"ijoiejeeest":10506,"export":10507,"vaddr":10508,"iteripfbiieecl":10509,"clocks":10510,"pairixxej":10511,"6000":10512,"2164":10513,"ric":10514,"depende":10515,"collision":10516,"znsaiyed":10517,"finderkc":10518,"sseebrkns":10519,"vectoricsaiceeept":10520,"slfd":10521,"xyz":10522,"1816":10523,"utex":10524,"vectorilsaileesais":10525,"slots":10526,"flowi":10527,"1728":10528,"pairiidee":10529,"accessip":10530,"wdt":10531,"1589":10532,"destroyipm":10533,"1724":10534,"kcsseebrkns":10535,"xeee":10536,"rolling":10537,"irso":10538,"1382":10539,"greateriv":10540,"baseipjet":10541,"sfld":10542,"eeeeeevt":10543,"xxxu":10544,"deleteree":10545,"bnt":10546,"strlenfirst":10547,"taken":10548,"requ":10549,"1363":10550,"pairikllee":10551,"cachier":10552,"iteratoride":10553,"1509":10554,"1475":10555,"2162":10556,"qtnf":10557,"aac":10558,"editb":10559,"destroyipdevt":10560,"destroyipdeevt":10561,"orchar":10562,"keymap":10563,"receive":10564,"1372":10565,"parts":10566,"bq":10567,"enic":10568,"east":10569,"Ġ185":10570,"autov":10571,"1407":10572,"1343":10573,"loaded":10574,"1568":10575,"iteratoripkjst":10576,"iteratorixem":10577,"ssds":10578,"1510":10579,"issns":10580,"ren":10581,"iteratoriieenst":10582,"sts":10583,"dequeiisaiieeec":10584,"doc":10585,"toile":10586,"1448":10587,"1383":10588,"pointeot":10589,"ven":10590,"1376":10591,"dobject":10592,"1496":10593,"scdc":10594,"znsaiyec":10595,"2518":10596,"ider":10597,"widgetinfo":10598,"infintst":10599,"2653":10600,"forwardiyeot":10601,"pagefault":10602,"freopen":10603,"nodeijrksseeevpst":10604,"compsais":10605,"1820":10606,"ejiee":10607,"dual":10608,"1737":10609,"sseeevdpot":10610,"2102":10611,"ixel":10612,"destroyim":10613,"scsdis":10614,"biginteec":10615,"1637":10616,"nlmsg":10617,"iiieieeec":10618,"vfn":10619,"baseimsaimeed":10620,"erky":10621,"pairikssxelb":10622,"1353":10623,"virtqueue":10624,"tupleijieest":10625,"ejoieernst":10626,"south":10627,"edgeevent":10628,"Ġ1342177":10629,"gpuobj":10630,"pairixxeeed":10631,"1548":10632,"pairiiriest":10633,"senator":10634,"1508":10635,"Ġ239":10636,"fmtw":10637,"smum":10638,"1697":10639,"tupleijiieesais":10640,"lsm":10641,"gmutex":10642,"isnull":10643,"elayer":10644,"mle":10645,"iiieens":10646,"1410":10647,"pairikcieeeixers":10648,"baseipkcst":10649,"Ġ202":10650,"dmabuf":10651,"0130":10652,"sii":10653,"allocation":10654,"xxxx":10655,"nodeeot":10656,"ctlr":10657,"1374":10658,"1393":10659,"1458":10660,"tupleijiicee":10661,"1826":10662,"dequeiisaiieec":10663,"1450":10664,"grow":10665,"xwidgetinfo":10666,"ssenst":10667,"fint":10668,"1507":10669,"Ġ}],":10670,"editbone":10671,"1745":10672,"1720":10673,"1735":10674,"compose":10675,"iieerksait":10676,"($":10677,"eea":10678,"dependency":10679,"2163":10680,"1562":10681,"24012630":10682,"iteratorixemmev":10683,"24012630263":10684,"bmed":10685,"typeest":10686,"role":10687,"Ġ236":10688,"nodelist":10689,"valeet":10690,"bur":10691,"flg":10692,"ured":10693,"2884":10694,"pairsais":10695,"was":10696,"yv":10697,"cpsw":10698,"hrtimer":10699,"186060":10700,"noded":10701,"1569":10702,"shifted":10703,"1385":10704,"1636":10705,"iteratorime":10706,"copyipkipieet":10707,"logy":10708,"aev":10709,"9534":10710,"vectorixsaixeeeesb":10711,"toijest":10712,"mystruct":10713,"24012630263186060":10714,"listixe":10715,"ionobject":10716,"2399":10717,"1291":10718,"1827":10719,"iiieebec":10720,"1443":10721,"baseiysaiyeed":10722,"kvec":10723,"zh":10724,"1730":10725,"resid":10726,"rcmin":10727,"tupleijoceesb":10728,"znsaieed":10729,"sll":10730,"brot":10731,"epkcpcet":10732,"1506":10733,"1466":10734,"1485":10735,"stdata":10736,"normalv":10737,"1664":10738,"dtrsyl":10739,"1835":10740,"1633":10741,"matchin":10742,"1392":10743,"maxev":10744,"formula":10745,"swapixx":10746,"swapixxenst":10747,"sep":10748,"1521":10749,"1503":10750,"1832":10751,"bmap":10752,"divis":10753,"sbd":10754,"ikicee":10755,"named":10756,"stk":10757,"usbnet":10758,"1717":10759,"1431":10760,"2513":10761,"1650":10762,"ijielb":10763,"eoijeert":10764,"moveirpxeonst":10765,"erss":10766,"hbucket":10767,"dispat":10768,"clis":10769,"cpufreq":10770,"Ġ8589934584":10771,"eiee":10772,"1384":10773,"clerkls":10774,"lessiyesaiy":10775,"tmultis":10776,"icient":10777,"repe":10778,"tmultisolver":10779,"1498":10780,"1932":10781,"pairikcss":10782,"iteripfbsssseeeevt":10783,"exter":10784,"iieest":10785,"pfv":10786,"unionfind":10787,"multimap":10788,"Ġ194":10789,"vectorixsaixeems":10790,"dro":10791,"mileept":10792,"swapipxenst":10793,"cxxmiipcsseens":10794,"through":10795,"1825":10796,"1924":10797,"putexture":10798,"processor":10799,"ocrdma":10800,"tstamp":10801,"backerkl":10802,"mcp":10803,"zu":10804,"1403":10805,"1405":10806,"insertipst":10807,"ayout":10808,"vmbus":10809,"iteratoripjes":10810,"1638":10811,"1725":10812,"vectoriysaiyeec":10813,"interv":10814,"encoding":10815,"dac":10816,"usub":10817,"trot":10818,"ovl":10819,"Ġ*>":10820,"Ġ170":10821,"beat":10822,"flex":10823,"staticv":10824,"1690":10825,"1818":10826,"2315":10827,"errnoc":10828,"dmx":10829,"zlo":10830,"bttv":10831,"4001":10832,"1739":10833,"filp":10834,"vmci":10835,"cmds":10836,"cplx":10837,"pairikssieeclerks":10838,"1463":10839,"generator":10840,"vectorijsaijeed":10841,"pairikllelb":10842,"vectoriisaiieejs":10843,"forwardioceot":10844,"55555555":10845,"Ġ268435456":10846,"zlome":10847,"nodeiiepst":10848,"hashile":10849,"eady":10850,"loopipst":10851,"runtimev":10852,"bbpkc":10853,"vectorilsaileeeeet":10854,"Ġ312":10855,"compr":10856,"1584":10857,"1546":10858,"1829":10859,"0128":10860,"implfunction":10861,"verifyimplfunction":10862,"bbpkciib":10863,"verifyimplfunctionbbpkciib":10864,"amt":10865,"freen":10866,"vectoriisaiieeens":10867,"sfifi":10868,"1925":10869,"vectorixsaixeeeeeplel":10870,"0129":10871,"maps":10872,"1442":10873,"1441":10874,"iile":10875,"Ġ217":10876,"ijlm":10877,"valikx":10878,"csstruct":10879,"16384":10880,"rectsais":10881,"memps":10882,"eque":10883,"pio":10884,"iisaiieebrkst":10885,"after":10886,"stride":10887,"coded":10888,"neighbo":10889,"maximumweightedmatchingiile":10890,"brelse":10891,"nvbios":10892,"gputexture":10893,"ksz":10894,"cxxmiipmst":10895,"extended":10896,"pairikxiens":10897,"sound":10898,"readd":10899,"budget":10900,"1590":10901,"1938":10902,"viewlayer":10903,"eeeeeplel":10904,"1462":10905,"2520":10906,"paddr":10907,"condthread":10908,"pairissies":10909,"resultisseens":10910,"Ġ154":10911,"vectorisssaisseeeelns":10912,"listiisaiieec":10913,"tiny":10914,"pairissssesais":10915,"begineert":10916,"1396":10917,"iieers":10918,"lessicesaiceeee":10919,"baseice":10920,"pairiiieeept":10921,"pull":10922,"1484":10923,"Ġ153":10924,"Ġ222":10925,"1734":10926,"2205":10927,"iteratoriyec":10928,"1511":10929,"gcdiiet":10930,"mdeform":10931,"Ġ1000000000000000000":10932,"surve":10933,"xr":10934,"vectoriesaieees":10935,"gtt":10936,"msgs":10937,"testcasesais":10938,"package":10939,"pairst":10940,"pointes":10941,"Ġ181":10942,"wmevent":10943,"ixeox":10944,"},{":10945,"baserkss":10946,"threaded":10947,"1542":10948,"ipks":10949,"shuf":10950,"dtv":10951,"pairieeeee":10952,"Ġ173":10953,"nci":10954,"steady":10955,"endeert":10956,"ostringstreamicst":10957,"ppos":10958,"Ġ158":10959,"comparator":10960,"1371":10961,"iiieeeee":10962,"eeeepf":10963,"062500":10964,"937500":10965,"bigintlterks":10966,"587500":10967,"pairidieee":10968,"1597":10969,"2611":10970,"fabric":10971,"statee":10972,"1351":10973,"rega":10974,"zeros":10975,"tex":10976,"ixxexee":10977,"1921":10978,"calendar":10979,"eerst":10980,"ssub":10981,"drawing":10982,"mirror":10983,"gmarkupparsecontext":10984,"bigdec":10985,"topology":10986,"Ġ182":10987,"vectorijsaijeeees":10988,"isw":10989,"downs":10990,"regt":10991,"6713":10992,"vdec":10993,"vectorijsaijeeeplel":10994,"1823":10995,"vectoriisaiieeeeot":10996,"Ġ2592":10997,"hif":10998,"irksspmi":10999,"stoirksspmi":11000,"parms":11001,"1354":11002,"1729":11003,"vectoriisaiieemet":11004,"vectoriisaiieemeet":11005,"vectoriisaiieejeevpt":11006,"loopback":11007,"packed":11008,"Ġ165":11009,"zip":11010,"xpc":11011,"robots":11012,"Ġcpumask":11013,"mtochar":11014,"antumtochar":11015,"contexts":11016,"timezon":11017,"ife":11018,"eraseerki":11019,"caso":11020,"uill":11021,"mempt":11022,"orchard":11023,"tas":11024,"cxxneipkcsseebrkns":11025,"regh":11026,"Ġ159":11027,"pairikiceeedtclsr":11028,"replacement":11029,"digest":11030,"tsubst":11031,"mempa":11032,"memph":11033,"1478":11034,"spk":11035,"pcpip":11036,"aipds":11037,"iot":11038,"lq":11039,"umem":11040,"1451":11041,"clon":11042,"1800":11043,"ixgb":11044,"1391":11045,"1919":11046,"1560":11047,"mxaapq":11048,"maxc":11049,"srand":11050,"burst":11051,"irec":11052,"Ġ162":11053,"1512":11054,"ikx":11055,"1639":11056,"1578":11057,"pairikcbee":11058,"1495":11059,"pairikjj":11060,"pairikiieeeixeoi":11061,"psp":11062,"nodeixers":11063,"vectoriysaiyeeeppev":11064,"iij":11065,"nipdmdet":11066,"Ġ1001":11067,"tom":11068,"iteratorixrxpxe":11069,"constructissjsseeevpt":11070,"rotation":11071,"1935":11072,"vectoridsaideeeepdet":11073,"shrink":11074,"moveirpfbst":11075,"1453":11076,"bers":11077,"adde":11078,"1476":11079,"ess":11080,"iteratoriclb":11081,"1749":11082,"1497":11083,"1830":11084,"lessimesaim":11085,"valikc":11086,"codejam":11087,"neighbour":11088,"ejpnst":11089,"rcmax":11090,"ini":11091,"2519":11092,"8250":11093,"trk":11094,"1598":11095,"lman":11096,"bellman":11097,"coup":11098,"1744":11099,"partid":11100,"chanctx":11101,"qede":11102,"0126":11103,"arct":11104,"constructilj":11105,"complexieesais":11106,"iteratoripkcsse":11107,"pairiexest":11108,"sdfl":11109,"traitsicel":11110,"iisse":11111,"1361":11112,"bellmanfor":11113,"ikss":11114,"signsais":11115,"1381":11116,"znsain":11117,"pairikiieeppev":11118,"pairikssieeeqerks":11119,"web":11120,"cvote":11121,"1837":11122,"distributionime":11123,"description":11124,"10100":11125,"1656":11126,"jug":11127,"clest":11128,"pairinnesais":11129,"gpollrec":11130,"nfails":11131,"cxxeqipssst":11132,"cros":11133,"dframe":11134,"2112":11135,"fields":11136,"hit":11137,"live":11138,"vectorijsaijeeec":11139,"expria":11140,"1671":11141,"pairikmceee":11142,"2280":11143,"rg":11144,"vor":11145,"1719":11146,"9170":11147,"1688":11148,"sfdl":11149,"waff":11150,"smul":11151,"2547":11152,"kn":11153,"ldvt":11154,"dequeicsaic":11155,"piec":11156,"special":11157,"2535":11158,"checkv":11159,"prepared":11160,"ldw":11161,"xelb":11162,"alive":11163,"backeoss":11164,"endist":11165,"eda":11166,"qj":11167,"admin":11168,"initsc":11169,"iteratoripcsseeee":11170,"errorv":11171,"1657":11172,"bone":11173,"1927":11174,"Ġ155":11175,"vectoricsaiceeevt":11176,"rmap":11177,"1570":11178,"rdt":11179,"idt":11180,"Ġ169":11181,"Ġ366":11182,"lkb":11183,"calcs":11184,"scanfpkcz":11185,"pairiixes":11186,"llc":11187,"1465":11188,"backend":11189,"cxxeqipkst":11190,"occ":11191,"1736":11192,"Ġ636":11193,"jrkm":11194,"constructimjrkm":11195,"drawingwand":11196,"iswrot":11197,"iiieers":11198,"iteratoripkcssee":11199,"sdlf":11200,"sldf":11201,"nodeiyeee":11202,"znsaipiec":11203,"memcmppkvs":11204,"ignore":11205,"cab":11206,"urem":11207,"dpdet":11208,"allocatoripiec":11209,"pic":11210,"constructidj":11211,"pairikcceeee":11212,"1490":11213,"1681":11214,"numbero":11215,"semaphoreinfo":11216,"misdn":11217,"beginist":11218,"allocatoripied":11219,"corner":11220,"unicodeset":11221,"ging":11222,"sieve":11223,"1968":11224,"1579":11225,"1886":11226,"bloc":11227,"1599":11228,"iteratoripls":11229,"functionifbii":11230,"iiieeed":11231,"referenced":11232,"1900":11233,"1504":11234,"cpkcz":11235,"ines":11236,"iteripfbii":11237,"tupleijiiieee":11238,"coef":11239,"1669":11240,"sfp":11241,"iteratoripkxs":11242,"pairikxxeeclerks":11243,"xenbus":11244,"1864":11245,"fj":11246,"1513":11247,"eclist":11248,"ucontrol":11249,"memblock":11250,"bond":11251,"Ġtree":11252,"vectoricsaiceeeot":11253,"processlib":11254,"tinyprocesslib":11255,"dlamch":11256,"1454":11257,"llns":11258,"vectorilsaileeeellns":11259,"kung":11260,"Ġ258":11261,"foopand":11262,"kungfoopand":11263,"unip":11264,"1834":11265,"station":11266,"2101":11267,"1936":11268,"facet":11269,"eeeesf":11270,"qitem":11271,"success":11272,"vectorisssaisseeeeeebrt":11273,"usll":11274,"2203":11275,"Ġdev":11276,"1922":11277,"toixesaixee":11278,"1596":11279,"pairixst":11280,"planes":11281,"1928":11282,"ieers":11283,"dan":11284,"backijceeevdpot":11285,"nodeidee":11286,"bigintec":11287,"1402":11288,"inserterkss":11289,"nsec":11290,"pairikssied":11291,"mideept":11292,"checksd":11293,"iiieieeed":11294,"****":11295,"Ġ304":11296,"tor":11297,"mediate":11298,"sgn":11299,"iteratoripz":11300,"pfc":11301,"slamch":11302,"adcq":11303,"stateid":11304,"cpt":11305,"1929":11306,"remap":11307,"1838":11308,"facesais":11309,"zsteqist":11310,"resourceinfo":11311,"neural":11312,"1937":11313,"traitsiceecvbev":11314,"1607":11315,"1473":11316,"frameinfo":11317,"nat":11318,"1494":11319,"2684":11320,"baseippxet":11321,"elst":11322,"16807":11323,"checke":11324,"destroyileevpt":11325,"maxflowdinic":11326,"1757":11327,"hfc":11328,"6460":11329,"bipsss":11330,"ramp":11331,"gkey":11332,"Ġalt":11333,"initializeipkieevt":11334,"ian":11335,"Ġ10001":11336,"bandwidth":11337,"ksettings":11338,"Ġ65537":11339,"computer":11340,"aapp":11341,"pairixcest":11342,"vectoridsaideeeppev":11343,"mport":11344,"numa":11345,"notrot":11346,"saideet":11347,"ulo":11348,"tps":11349,"Ġ4660":11350,"Ġrelease":11351,"1714":11352,"zgemm":11353,"1394":11354,"Ġ166":11355,"urnaa":11356,"iiieeaseos":11357,"correct":11358,"Ġ163":11359,"cif":11360,"1373":11361,"backwardipst":11362,"nq":11363,"trim":11364,"checksi":11365,"2132":11366,"voice":11367,"1531":11368,"waffle":11369,"lessicesaicees":11370,"cgemm":11371,"eevpst":11372,"1610":11373,"1551":11374,"primary":11375,"1817":11376,"checkssc":11377,"smumgr":11378,"unix":11379,"iteratorilec":11380,"1679":11381,"typesais":11382,"stoai":11383,"1554":11384,"pcdp":11385,"checksis":11386,"checkscsi":11387,"tupleijoxeesb":11388,"1608":11389,"cntr":11390,"pointn":11391,"fwrite":11392,"ctpop":11393,"constructij":11394,"gvarianttypeinfo":11395,"ifstreamicst":11396,"Ġ193":11397,"sprintfp":11398,"6793":11399,"deleterev":11400,"fcurve":11401,"1366":11402,"pairikiceeppev":11403,"vectorijsaijeeeebrkns":11404,"lerr":11405,"bvhtree":11406,"pairixxens":11407,"forwardirdeot":11408,"breakpad":11409,"minx":11410,"plet":11411,"1685":11412,"divisor":11413,"constructiljl":11414,"dequeixsaix":11415,"1899":11416,"rwsem":11417,"gkeyfile":11418,"wpan":11419,"Ġ251":11420,"rmq":11421,"tupleijxxxeesais":11422,"sprintfpcpkcz":11423,"2103":11424,"1565":11425,"indexes":11426,"srv":11427,"asest":11428,"pcfp":11429,"accept":11430,"Ġ92233720368547757":11431,"61489":11432,"got":11433,"ified":11434,"1926":11435,"vectorifsaifee":11436,"1592":11437,"scmi":11438,"ixxeb":11439,"clamp":11440,"Ġ183":11441,"ucs":11442,"pkey":11443,"gi":11444,"destroyipn":11445,"libipw":11446,"1670":11447,"hoge":11448,"gau":11449,"nodeic":11450,"dato":11451,"6364":11452,"1595":11453,"101000":11454,"indio":11455,"complexides":11456,"coefficient":11457,"strong":11458,"pairikn":11459,"1847":11460,"solvevenk":11461,"vectoribsaibeeevpt":11462,"1612":11463,"checkscis":11464,"1934":11465,"dotc":11466,"iysaiy":11467,"pvim":11468,"eng":11469,"4005":11470,"multicast":11471,"allo":11472,"mipieept":11473,"claim":11474,"ppk":11475,"fatal":11476,"certcertificatestr":11477,"1561":11478,"vga":11479,"1631":11480,"1483":11481,"backwardippis":11482,"bipieept":11483,"msp":11484,"vectoribsaibeeeevt":11485,"bigintcst":11486,"2186":11487,"vectoriisaiieeeeens":11488,"tagesaic":11489,"0134":11490,"rcond":11491,"1502":11492,"1648":11493,"sege":11494,"lessieesai":11495,"1543":11496,"vars":11497,"inputstream":11498,"1849":11499,"solveie":11500,"1609":11501,"traitsiceed":11502,"Ġ8388608":11503,"updateens":11504,"mpol":11505,"Ġ234":11506,"memsetpvim":11507,"1461":11508,"bmedit":11509,"clev":11510,"ceeevn":11511,"nodeileee":11512,"pairixieaseos":11513,"countiln":11514,"iiieees":11515,"quara":11516,"macsec":11517,"2115":11518,"gfp":11519,"huff":11520,"]*),":11521,"7110":11522,"destroyipeeevt":11523,"multipleentry":11524,"puntos":11525,"pairiciee":11526,"1593":11527,"1585":11528,"Ġ11585":11529,"1404":11530,"ourcel":11531,"Ġ171":11532,"greaterii":11533,"midpoint":11534,"edata":11535,"Ġ205":11536,"baseipeet":11537,"vectorisssaissees":11538,"cpus":11539,"vsc":11540,"1918":11541,"Ġ623":11542,"rsc":11543,"2147":11544,"helperiist":11545,"3334":11546,"hwr":11547,"000000000008":11548,"pairikssbeeee":11549,"fillipiievt":11550,"scor":11551,"Ġ800":11552,"pairiiieeernst":11553,"pointet":11554,"pes":11555,"sortipln":11556,"1621":11557,"2220":11558,"vectoriisaiieeeed":11559,"clnt":11560,"1655":11561,"2057":11562,"checki":11563,"inputs":11564,"synth":11565,"asoc":11566,"1940":11567,"vnt":11568,"translate":11569,"clerx":11570,"chunks":11571,"ale":11572,"znsolsej":11573,"ofs":11574,"ilenst":11575,"13622":11576,"identityixeclerx":11577,"svd":11578,"1566":11579,"maxd":11580,"jobz":11581,"insertijrkc":11582,"allocatorij":11583,"2429":11584,"swapilenst":11585,"1602":11586,"masksel":11587,"ssq":11588,"vectoridsaideeeeet":11589,"quadrat":11590,"exprlist":11591,"1576":11592,"ixxeelb":11593,"cake":11594,"anti":11595,"fluid":11596,"Ġ223":11597,"imeerksait":11598,"aia":11599,"errorii":11600,"tupleijiiii":11601,"integrity":11602,"1836":11603,"sams":11604,"128455":11605,"Ġ249":11606,"slab":11607,"Ġ178":11608,"2942":11609,"Ġ179":11610,"1667":11611,"andle":11612,"1659":11613,"1678":11614,"Ġ177":11615,"samsung":11616,"eedit":11617,"eeesg":11618,"pairikxieeee":11619,"691128455":11620,"survey":11621,"ras":11622,"treg":11623,"trieest":11624,"Ġ864691128455":11625,"based":11626,"6148914691236517":11627,"alc":11628,"1845":11629,"Ġ296":11630,"msaicee":11631,"1605":11632,"pairikxssee":11633,"trimev":11634,"hashtab":11635,"vectorixsaixeees":11636,"iteratorixerblb":11637,"referenceisa":11638,"irqs":11639,"omp":11640,"Ġ8646911284551352":11641,"iiieeeec":11642,"1660":11643,"pairilleee":11644,"pairike":11645,"insertijrkceeevn":11646,"wk":11647,"vectoriisaiieeenst":11648,"Ġ237":11649,"dedtcl":11650,"Ġ8646911284551352320":11651,"membase":11652,"xpy":11653,"pairiyyest":11654,"allocatoriyec":11655,"hex":11656,"ishtp":11657,"1700":11658,"exlb":11659,"Ġ1498":11660,"deallocateepem":11661,"pqi":11662,"1738":11663,"mapimcst":11664,"1492":11665,"1594":11666,"apa":11667,"baseippcet":11668,"expand":11669,"1857":11670,"1604":11671,"btcoexist":11672,"1748":11673,"vectoriesaieeec":11674,"solutionsais":11675,"pairikxceed":11676,"vectorisssaisseeeeevt":11677,"lessileclerkls":11678,"xlog":11679,"1733":11680,"defs":11681,"gon":11682,"mest":11683,"1756":11684,"gpuvertbuf":11685,"imsaimeesais":11686,"Ġ1497":11687,"eeeeebrkst":11688,"pairissst":11689,"mplex":11690,"Ġve":11691,"guid":11692,"imposs":11693,"shrunk":11694,"ping":11695,"edgeee":11696,"zomplex":11697,"elink":11698,"ifa":11699,"thentic":11700,"kind":11701,"sqrte":11702,"tmpvalue":11703,"Ġ213":11704,"Ġ247":11705,"axis":11706,"1721":11707,"greaterixesais":11708,"ssed":11709,"Ġ292":11710,"pairiiieeclers":11711,"400921":11712,"venus":11713,"1740":11714,"1642":11715,"forwardioxeot":11716,"1759":11717,"satur":11718,"asaia":11719,"5005":11720,"beeec":11721,"iteripfis":11722,"Ġ1671":11723,"checkscd":11724,"iiripiebrkst":11725,"pairikyceec":11726,"pairieiee":11727,"pairikiieeot":11728,"1541":11729,"fdb":11730,"valuec":11731,"eraseerks":11732,"pxa":11733,"Ġ175":11734,"0140":11735,"2125":11736,"ew":11737,"cstate":11738,"quirks":11739,"Ġ246":11740,"1755":11741,"intv":11742,"pairissiee":11743,"1776":11744,"1401":11745,"loquat":11746,"irkxns":11747,"pairiddec":11748,"ikiceers":11749,"latency":11750,"Ġ286":11751,"itv":11752,"cxxneipyst":11753,"treelink":11754,"rfkill":11755,"hashilest":11756,"pairikiceemmev":11757,"hashixecl":11758,"hashixeclex":11759,"throt":11760,"optional":11761,"\"(":11762,"tolist":11763,"edgee":11764,"cxxneipdst":11765,"mlei":11766,"hwrm":11767,"elen":11768,"2113":11769,"membufiye":11770,"trcmod":11771,"edma":11772,"vectorixsaixeeept":11773,"\"*)**,":11774,"srcu":11775,"leeevn":11776,"1767":11777,"dequeue":11778,"transmit":11779,"tupleijxxxx":11780,"third":11781,"forwardirkdeot":11782,"colmax":11783,"capabilities":11784,"2221":11785,"ijp":11786,"futureissesais":11787,"1839":11788,"1930":11789,"pairiiiejeert":11790,"167772":11791,"1501":11792,"lpc":11793,"checksld":11794,"ztr":11795,"1766":11796,"secs":11797,"maz":11798,"configuration":11799,"iomap":11800,"ciph":11801,"1689":11802,"maybe":11803,"seckey":11804,"mapixbst":11805,"xkc":11806,"znsirsere":11807,"viv":11808,"testits":11809,"<>,":11810,"icit":11811,"ssmpns":11812,"rcar":11813,"compareilb":11814,"iptr":11815,"stisb":11816,"garray":11817,"tie":11818,"nav":11819,"newlast":11820,"modulo":11821,"iteratoripcsseeec":11822,"callframeinfo":11823,"99999999":11824,"pairijjesais":11825,"changes":11826,"vn":11827,"jan":11828,"3846793":11829,"136223846793":11830,"136223846793005":11831,"belb":11832,"subscr":11833,"pairikxxeeeqerks":11834,"0133":11835,"team":11836,"inserterkc":11837,"sseeot":11838,"umin":11839,"1577":11840,"particlesystem":11841,"nipy":11842,"nlm":11843,"eeeclerks":11844,"eeeeeot":11845,"qc":11846,"ernt":11847,"iiiecest":11848,"Ġ16777215":11849,"lessil":11850,"mechan":11851,"hold":11852,"yes":11853,"1606":11854,"chetrf":11855,"1947":11856,"impns":11857,"emrkss":11858,"1553":11859,"heapipssn":11860,"incx":11861,"pairinnest":11862,"uci":11863,"vectoriesaieeeedeev":11864,"isdigittmp":11865,"fll":11866,"1777":11867,"hoo":11868,"pairikccec":11869,"eport":11870,"kom":11871,"Ġweak":11872,"1587":11873,"1848":11874,"1764":11875,"resampler":11876,"1758":11877,"lesserks":11878,"1889":11879,"pairikxieeed":11880,"lies":11881,"Ġ207":11882,"2126":11883,"completed":11884,"bignumsais":11885,"devfreq":11886,"macroblockd":11887,"baseifsaifee":11888,"kek":11889,"itive":11890,"saturate":11891,"tupleijol":11892,"paths":11893,"signe":11894,"duplex":11895,"ona":11896,"itest":11897,"1575":11898,"guest":11899,"cxgbi":11900,"reverseip":11901,"nodet":11902,"iieeevdpot":11903,"_**":11904,"23885":11905,"uadd":11906,"returnaddress":11907,"lane":11908,"1572":11909,"1472":11910,"pairikxbeee":11911,"2201":11912,"dispc":11913,"appendimage":11914,"1750":11915,"1452":11916,"saisb":11917,"colorspace":11918,"hannel":11919,"insertijceeevn":11920,"1699":11921,"1769":11922,"2755":11923,"100050":11924,"insertijr":11925,"polygon":11926,"pairij":11927,"2645":11928,"gss":11929,"pairixxems":11930,"vectoriisaiieeeeeot":11931,"1890":11932,"Ġ253":11933,"needs":11934,"2342":11935,"1641":11936,"pairikcieeclerks":11937,"indx":11938,"vectorimsaimeeeppev":11939,"1716":11940,"1949":11941,"west":11942,"cloneimageinfo":11943,"0137":11944,"Ġ174":11945,"lvl":11946,"asp":11947,"selftestl":11948,"mechanism":11949,"1966":11950,"sfi":11951,"uts":11952,"usleep":11953,"testit":11954,"triest":11955,"pairikssbeeed":11956,"80000000":11957,"filled":11958,"pairieeeeonst":11959,"nim":11960,"props":11961,"1743":11962,"arest":11963,"composed":11964,"did":11965,"nssckm":11966,"1573":11967,"strdup":11968,"2426":11969,"treeieest":11970,"vectoribsaibeejrks":11971,"cookies":11972,"ampdu":11973,"requi":11974,"1786":11975,"downshift":11976,"1955":11977,"iteratoridst":11978,"iteratoripdeet":11979,"baseimsaimeec":11980,"wacom":11981,"lessissesai":11982,"blkc":11983,"1833":11984,"cdfcontext":11985,"fal":11986,"1574":11987,"vectoriisaiieeeest":11988,"dcopy":11989,"1821":11990,"Ġbtsq":11991,"pairixxers":11992,"esd":11993,"piii":11994,"1933":11995,"75230":11996,"1870":11997,"ether":11998,"pairikyyest":11999,"nodeillb":12000,"greateridee":12001,"public":12002,"movesais":12003,"compressed":12004,"0135":12005,"gamma":12006,"har":12007,"treenodesais":12008,"1552":12009,"1611":12010,"punkt":12011,"sic":12012,"ever":12013,"iteratoriies":12014,"dspoint":12015,"komeda":12016,"ations":12017,"mapicbst":12018,"gpush":12019,"2841":12020,"auxijrkieeevdpot":12021,"250000":12022,"forwardirleot":12023,"membufile":12024,"bgpdspoint":12025,"gioc":12026,"1964":12027,"2116":12028,"vectoriisaiieeeeedeev":12029,"Ġ329":12030,"1640":12031,"instancestr":12032,"1888":12033,"copyipp":12034,"override":12035,"Ġ{}":12036,"1944":12037,"baseiplst":12038,"iterclipls":12039,">]*":12040,"icm":12041,"impossible":12042,"2110":12043,"baseipdedtcl":12044,"pairixxeaserks":12045,"646075230":12046,"elot":12047,"subsystem":12048,"inituc":12049,"giochannel":12050,"kick":12051,"eeeqerks":12052,"ocelot":12053,"iteratoricemmev":12054,"metr":12055,"inserterks":12056,"1896":12057,"maximumflow":12058,"bvec":12059,"uconverter":12060,"1923":12061,"gpushader":12062,"uri":12063,"Ġ203":12064,"0139":12065,"allocatoripx":12066,"identityclir":12067,"Ġnand":12068,"tpf":12069,"formats":12070,"ey":12071,"xv":12072,"1696":12073,"idjrk":12074,"constructidjrk":12075,"netxen":12076,"iiieieedeev":12077,"Ġ4194304":12078,"zrs":12079,"pptable":12080,"csytrf":12081,"xenst":12082,"baseipn":12083,"1917":12084,"greaterixeeclins":12085,"swait":12086,"argp":12087,"***,":12088,"1481":12089,"Ġ235":12090,"decoded":12091,"0131":12092,"anager":12093,"Ġ238":12094,"implins":12095,"2655":12096,"devnum":12097,"Ġ16711680":12098,"strll":12099,"fork":12100,"uerror":12101,"alarm":12102,"framefmt":12103,"appendimagetolist":12104,"vop":12105,"diagno":12106,"1668":12107,"ptt":12108,"nodeimlb":12109,"nbytes":12110,"tsc":12111,"800000000000000":12112,"pairixxexst":12113,"identityi":12114,"imezone":12115,"Ġ{}**":12116,"sram":12117,"100500":12118,"ofstreamicst":12119,"2176":12120,"shading":12121,"juggl":12122,"disse":12123,"partido":12124,"1493":12125,"chang":12126,"chnl":12127,"managerinst":12128,"logging":12129,"soil":12130,"graphs":12131,"xlgmac":12132,"1651":12133,"prlock":12134,"atedata":12135,"cvt":12136,"mcs":12137,"1571":12138,"rendev":12139,"gpub":12140,"combin":12141,"2134":12142,"1654":12143,"1581":12144,"pairiddees":12145,"glock":12146,"nodeijr":12147,"istringstreamicst":12148,"testd":12149,"bigintegerst":12150,"categoryerksa":12151,"rht":12152,"ensured":12153,"znsaieec":12154,"dj":12155,"fq":12156,"tcase":12157,"lead":12158,"1653":12159,"2316":12160,"chkelst":12161,"supportv":12162,"1967":12163,"stringinfo":12164,"congruence":12165,"ucll":12166,"factory":12167,"zalloc":12168,"ieeeixers":12169,"stype":12170,"pairiklleee":12171,"7438":12172,"bsg":12173,"1770":12174,"eeebec":12175,"tabla":12176,"candidates":12177,"1684":12178,"1797":12179,"pairiiiejrks":12180,"1649":12181,"blkcg":12182,"bet":12183,"scratch":12184,"yeeeot":12185,"rlp":12186,"treeinfo":12187,"listide":12188,"iiieie":12189,"pairikcceeed":12190,"irection":12191,"enumber":12192,"iteripfbxxeeeevt":12193,"attery":12194,"iu":12195,"2117":12196,"2122":12197,"isub":12198,"1709":12199,"mob":12200,"dverks":12201,"sums":12202,"vivid":12203,"aj":12204,"zlomek":12205,"strategy":12206,"pairiissed":12207,"veulve":12208,"commands":12209,"ors":12210,"Ġ396":12211,"login":12212,"mcu":12213,"1950":12214,"vectorixsaixeeeot":12215,"ssse":12216,"substring":12217,"vectorisssaisseeemiel":12218,"tarjan":12219,"vel":12220,"backwardippst":12221,"bgpdframe":12222,"scalequantumtochar":12223,"0002":12224,"pairiiiecst":12225,"pairiklielb":12226,"pairikddest":12227,"battery":12228,"1711":12229,"ncase":12230,"1582":12231,"hashst":12232,"fotg":12233,"1603":12234,"2728":12235,"quirk":12236,"addrs":12237,"2129":12238,"cant":12239,"should":12240,"walker":12241,"1675":12242,"ifr":12243,"scount":12244,"Ġ206":12245,"ille":12246,"charger":12247,"clerkys":12248,"44480":12249,"Ġ1152921504606846976":12250,"imeens":12251,"iiiiiiiiiiiiiiiiiiiiiiiiiiiiiiii":12252,"1780":12253,"baseipkxet":12254,"quadratic":12255,"vectoriisaiieeeeed":12256,"stsais":12257,"1491":12258,"pairikycens":12259,"phandle":12260,"ixej":12261,"2696":12262,"nodeeec":12263,"2206":12264,"1945":12265,"2114":12266,"nodeiiepks":12267,"lessieesaieee":12268,"1768":12269,"1713":12270,"placeholder":12271,"60000000":12272,"Ġ134217728":12273,"Ġ243":12274,"lra":12275,"lessidee":12276,"0145":12277,"2119":12278,"maxwrk":12279,"cubeb":12280,"1957":12281,"checksf":12282,"products":12283,"0136":12284,"1647":12285,"gpa":12286,"lwk":12287,"psi":12288,"cxxneipkist":12289,"pairiklceec":12290,"usi":12291,"ieeeesais":12292,"hb":12293,"cloth":12294,"12698":12295,"1813":12296,"2864":12297,"1643":12298,"generation":12299,"resultiv":12300,"etch":12301,"threadeveulve":12302,"assignemrki":12303,"silk":12304,"ucode":12305,"pyram":12306,"idp":12307,"1850":12308,"pixelindex":12309,"reloc":12310,"persons":12311,"lef":12312,"mqd":12313,"tec":12314,"prst":12315,"13043":12316,"ptc":12317,"oneg":12318,"pairidieaseos":12319,"detach":12320,"kthread":12321,"immediate":12322,"icmp":12323,"keep":12324,"bmeditmesh":12325,"eeeisb":12326,"checkii":12327,"segst":12328,"physical":12329,"cuad":12330,"vectorijsaijeec":12331,"yuv":12332,"1779":12333,"Ġ420":12334,"bgpdata":12335,"iiept":12336,"1715":12337,"secu":12338,"ieeeps":12339,"goal":12340,"Ġ40000":12341,"vectoriisaiieeeedeev":12342,"10737418":12343,"2128":12344,"regions":12345,"Ġ221":12346,"valipfbst":12347,"pairiddeed":12348,"50848":12349,"2124":12350,"hsa":12351,"bgpdlayer":12352,"activate":12353,"ekic":12354,"getikicee":12355,"1959":12356,"Ġ209":12357,"formatlocale":12358,"uniphier":12359,"Ġscal":12360,"written":12361,"Ġ214":12362,"dirent":12363,"ctxtdata":12364,"spot":12365,"bnrm":12366,"streaming":12367,"adsp":12368,"1859":12369,"1666":12370,"6460752303423":12371,"1855":12372,"cxxmiipjst":12373,"minimerkt":12374,"dataeonst":12375,"2404352":12376,"288450848":12377,"dissector":12378,"2884508482404352":12379,"initus":12380,"tupleijris":12381,"plu":12382,"largest":12383,"baseiysaiyeec":12384,"1995":12385,"aer":12386,"1591":12387,"auxipkis":12388,"bvectorst":12389,"imagecommand":12390,"wcn":12391,"ulp":12392,"1958":12393,"2536":12394,"autoneg":12395,"idproperty":12396,"addressofiiept":12397,"mapicp":12398,"blks":12399,"1948":12400,"enetc":12401,"1809":12402,"pairikjs":12403,"miny":12404,"vhub":12405,"eeeixeos":12406,"jii":12407,"1946":12408,"hashtableimst":12409,"comparein":12410,"_({":12411,"lessicesaiceeec":12412,"expf":12413,"2118":12414,"Ġ9999":12415,"qtd":12416,"kstep":12417,"verifier":12418,"myclass":12419,"minimumepst":12420,"1846":12421,"1867":12422,"prclist":12423,"numsais":12424,"iterclissns":12425,"bpoint":12426,"maximumepst":12427,"ssesais":12428,"Ġ10000000000":12429,"sseeec":12430,"2130":12431,"wx":12432,"subv":12433,"2234":12434,"Ġ448":12435,"pairilleec":12436,"1887":12437,"mmal":12438,"prcliststr":12439,"1789":12440,"testve":12441,"pairikibesais":12442,"uerrorcode":12443,"users":12444,"pairikliee":12445,"levels":12446,"Ġ233":12447,"feed":12448,"efa":12449,"tagesaiceees":12450,"illm":12451,"inplacein":12452,"dmi":12453,"pairiiiebst":12454,"8821":12455,"ada":12456,"znsaijed":12457,"dequeicsaiceee":12458,"1875":12459,"tupleijrkleeeot":12460,"ejj":12461,"iiiiii":12462,"diagnost":12463,"bigintmlei":12464,"backing":12465,"damagess":12466,"mature":12467,"orb":12468,"fy":12469,"vbi":12470,"Ġ499":12471,"pmc":12472,"44734":12473,"71112":12474,"credits":12475,"fcport":12476,"0138":12477,"Ġ663":12478,"qedr":12479,"1686":12480,"nearest":12481,"animdata":12482,"msaiceeens":12483,"leec":12484,"nvdimm":12485,"2123":12486,"refs":12487,"bdc":12488,"ieeeelb":12489,"stres":12490,"emeet":12491,"1878":12492,"identityieest":12493,"59240":12494,"1000100":12495,"1698":12496,"1471":12497,"frags":12498,"gpubatch":12499,"2028":12500,"pointd":12501,"highest":12502,"1831":12503,"100004":12504,"checkscs":12505,"checksci":12506,"sex":12507,"some":12508,"pairiiceec":12509,"constructiljrkleeevpt":12510,"usl":12511,"auxijs":12512,"wilc":12513,"iproc":12514,"1868":12515,"05998":12516,"iteripfbrst":12517,"inserteox":12518,"cmetal":12519,"15642858":12520,"1269844480":12521,"1564285888":12522,"fops":12523,"sseebt":12524,"ccb":12525,"univ":12526,"1708":12527,"Ġ2880":12528,"denselayer":12529,"fman":12530,"Ġ336":12531,"irectional":12532,"pdv":12533,"rangee":12534,"1652":12535,"valipfbs":12536,"iteratoripkcsseeesais":12537,"aipys":12538,"2200":12539,"tcam":12540,"sses":12541,"marked":12542,"stst":12543,"ged":12544,"2377":12545,"solvest":12546,"zsteqiiiebrkst":12547,"2127":12548,"blit":12549,"158313":12550,"esize":12551,"phylink":12552,"detailneist":12553,"noder":12554,"jjevt":12555,"statest":12556,"copyipms":12557,"zsytrf":12558,"17434":12559,"hul":12560,"vectoricsaiceest":12561,"iteratoripcssec":12562,"Ġ211":12563,"finis":12564,"dmar":12565,"nodeimee":12566,"2410":12567,"iyeept":12568,"6148914691236517205":12569,"44759240":12570,"8202884508482404352":12571,"109905998":12572,"184444734":12573,"6364136223846793005":12574,"13043109905998":12575,"44759240704":12576,"18444473444759240704":12577,"13043109905998158313":12578,"nsc":12579,"1858":12580,"original":12581,"bigintplerks":12582,"iteratoriplec":12583,"rules":12584,"sysctl":12585,"tub":12586,"2133":12587,"2418":12588,"rename":12589,"videobuf":12590,"pgd":12591,"valikce":12592,"2120":12593,"1970":12594,"retries":12595,"bottom":12596,"zhetrf":12597,"solveb":12598,"zsteqin":12599,"vblank":12600,"bidirectional":12601,"calcul":12602,"modintilj":12603,"constructiijrieeevrs":12604,"1775":12605,"lessiieeeevt":12606,"iteratoricepst":12607,"mgs":12608,"vectorixsaixeeevt":12609,"bigintmierks":12610,"nodeip":12611,"spacelink":12612,"sculptsession":12613,"cxxneipmst":12614,"author":12615,"1986":12616,"methods":12617,"jy":12618,"disconnect":12619,"pairikxxeeeot":12620,"ttdpfs":12621,"ttdpf":12622,"mapij":12623,"iterclipkis":12624,"bufferisse":12625,"possibilit":12626,"dscal":12627,"1674":12628,"1999":12629,"tubao":12630,"ucontext":12631,"spdif":12632,"tfraction":12633,"pairixieec":12634,"eeedtcldtfp":12635,"1694":12636,"pairikiieees":12637,"ara":12638,"1941":12639,"ites":12640,"lation":12641,"2875":12642,"demodulator":12643,"getpixelalpha":12644,"qxl":12645,"etnav":12646,"pairikssbeeec":12647,"etnaviv":12648,"hfa":12649,"1765":12650,"1788":12651,"rangell":12652,"sscal":12653,"epc":12654,"numo":12655,"faces":12656,"atio":12657,"pairikxieeec":12658,"kungfoopanda":12659,"orph":12660,"cha":12661,"blocksais":12662,"errmax":12663,"partys":12664,"1909":12665,"2215":12666,"2874":12667,"iteratorisscst":12668,"lis":12669,"Ġ270":12670,"apv":12671,"destroyipjjevt":12672,"isslb":12673,",=*":12674,"1796":12675,"maskspl":12676,"ector":12677,"stringx":12678,"components":12679,"unlink":12680,"1710":12681,"nit":12682,"pairiiieeneerks":12683,"possibilitie":12684,"logtype":12685,"alignedest":12686,"1869":12687,"Ġ266":12688,"vnode":12689,"pairikcieeeqerks":12690,"irkcns":12691,"encap":12692,"pcx":12693,"lessixee":12694,"pairicies":12695,"itnim":12696,"basesc":12697,"2108":12698,"nents":12699,"pairimmes":12700,"clec":12701,"2034":12702,"mapa":12703,"privatedata":12704,"2255":12705,"deeevpt":12706,"fnic":12707,"___":12708,"2174":12709,"ptrrgb":12710,"bswapq":12711,"cstar":12712,"noise":12713,"uuid":12714,"0147":12715,"1984":12716,"1742":12717,"wmanager":12718,"2121":12719,"roan":12720,"1877":12721,"1989":12722,"mci":12723,"1644":12724,"pairikssieeeot":12725,"general":12726,"1812":12727,"2049":12728,"playback":12729,"2338":12730,"sumer":12731,"unref":12732,"lwkopt":12733,"vmcb":12734,"txpower":12735,"ky":12736,"tupleijlll":12737,"210000":12738,"2319":12739,"ceeed":12740,"0144":12741,"cff":12742,"install":12743,"acgv":12744,"infintc":12745,"ddc":12746,"uilayout":12747,"zp":12748,"analog":12749,"iteratorilrlp":12750,"tune":12751,"sds":12752,"2024":12753,"share":12754,"2304":12755,"srp":12756,"combine":12757,"ijns":12758,"eswitch":12759,"1665":12760,"1998":12761,"1646":12762,"accessipz":12763,"consumer":12764,"pairikibeec":12765,"1910":12766,"green":12767,"2104":12768,"mss":12769,"147927":12770,"1673":12771,"refresh":12772,"uobject":12773,"aio":12774,"1808":12775,"longnum":12776,"gameport":12777,"toiye":12778,"010000":12779,"dz":12780,"longest":12781,"pairiff":12782,"listelem":12783,"Ġ402653":12784,"userdef":12785,"pairikcieeesais":12786,"tton":12787,"edn":12788,"cxxltiplst":12789,"ggc":12790,"pairikiieeedtclsr":12791,"pairikcbeee":12792,"Ġ1537":12793,"tupleijosseeeot":12794,"tupleijiiieeee":12795,"2344":12796,"bignums":12797,"sect":12798,"baseiln":12799,"1956":12800,"_([":12801,"2217":12802,"maximumeps":12803,"minimumeps":12804,"14792717434":12805,"lement":12806,"chunklink":12807,"leev":12808,"2398":12809,"2135":12810,"trb":12811,"1873":12812,"wmwindow":12813,"deleteist":12814,"Ġ1152921504606846974":12815,"emap":12816,"sinki":12817,"230376":12818,"tvector":12819,"sive":12820,"2303761517":12821,"besty":12822,"normalize":12823,"insertis":12824,"2743":12825,"emplaceij":12826,"controls":12827,"zgv":12828,"iteratorixeppei":12829,"33333333":12830,"mulv":12831,"0146":12832,"rangep":12833,"tupleijdprt":12834,"2105":12835,"googlecodejam":12836,"lessicesaiceee":12837,"ourceloc":12838,"1731":12839,"hashnode":12840,"iterclil":12841,"solveeve":12842,"equiv":12843,"zong":12844,"alter":12845,"received":12846,"banimlistelem":12847,"mader":12848,"pairikssceee":12849,"valikieeet":12850,"madera":12851,"bssid":12852,"vectorixsaixeeeeebrkst":12853,"pairiixee":12854,"2173":12855,"mptcp":12856,"histo":12857,"ilsailee":12858,"nodeelb":12859,"radix":12860,"linux":12861,"Ġ9223372036854775804":12862,"selected":12863,"lag":12864,"vict":12865,"button":12866,"2111":12867,"minc":12868,"1814":12869,"lut":12870,"ability":12871,"ncsi":12872,"iteripfbrkis":12873,"mpoly":12874,"2213":12875,"saiyeet":12876,"2272":12877,"3460":12878,"iylm":12879,"220587":12880,"Ġ2880220587":12881,"toolsettings":12882,"gus":12883,"131072":12884,"halfpyram":12885,"couple":12886,"Ġ274":12887,"tupleijxxxxx":12888,"7601":12889,"1980":12890,"Ġfreeze":12891,"60000":12892,"1482":12893,"descs":12894,"lbs":12895,"functions":12896,"getr":12897,"xkbffe":12898,"mtr":12899,"zcopy":12900,"ants":12901,"vdc":12902,"ixxeiesais":12903,"pairieee":12904,"identifier":12905,"isseeot":12906,"rpcrdma":12907,"clusters":12908,"iteripfbiieeclins":12909,"mincost":12910,"ixxeeec":12911,"pairiiiels":12912,"eeeps":12913,"nodeijxeeepst":12914,"binclos":12915,"vpi":12916,"recursive":12917,"alrm":12918,"eeernst":12919,"1954":12920,"gchecksum":12921,"charmatcher":12922,"categoryipienst":12923,"jest":12924,"plaint":12925,"sad":12926,"1790":12927,"authentic":12928,"1969":12929,"2697":12930,"ixxest":12931,"checkscf":12932,"checkscld":12933,"destroyideevrs":12934,"quick":12935,"Ġ402653184":12936,"vases":12937,"macb":12938,"horsest":12939,"1960":12940,"backijris":12941,"backijsseeevdpot":12942,"lab":12943,"1601":12944,"cookiesais":12945,"2526":12946,"Ġ480":12947,"2364":12948,"ched":12949,"eeeessec":12950,"warp":12951,"iteratoriceppev":12952,"1815":12953,"aaaa":12954,"fallback":12955,">],":12956,"infl":12957,"iteratorissrsspssec":12958,"managed":12959,"1806":12960,"poz":12961,"eptev":12962,"pairikiieemmev":12963,"consume":12964,"2131":12965,"http":12966,"nodeije":12967,"0141":12968,"1683":12969,"baseneerks":12970,"pairiksscelb":12971,"niplmlet":12972,"nodeicers":12973,"1894":12974,"futex":12975,"parall":12976,"solveev":12977,"dequeixsaixeee":12978,"0142":12979,"2378":12980,"berr":12981,"3918":12982,"xarray":12983,"pins":12984,"iiieieeclerks":12985,"znsaijec":12986,"vectorixsaixeeeonst":12987,"iiiixx":12988,"nodeijxeeevpst":12989,"magickcli":12990,"ariz":12991,"Ġ1812433253":12992,"huffman":12993,"arizona":12994,"ares":12995,"nvram":12996,"iteratorissedeev":12997,"eeeev":12998,"21052":12999,"pairiiceaseos":13000,"2622":13001,"decm":13002,"4549":13003,"pairikcceeec":13004,"zdapv":13005,"constructissjr":13006,"pairiixest":13007,"mapiixst":13008,"2303761517117":13009,"victim":13010,"endthread":13011,"fsnotify":13012,"iteratoriiepiet":13013,"clt":13014,"findecm":13015,"ulong":13016,"mind":13017,"nipmm":13018,"encrypted":13019,"soundtouch":13020,"bconstraint":13021,"iic":13022,"shm":13023,"1645":13024,"ciphers":13025,"qid":13026,"ixeepst":13027,"rts":13028,"pairixxeeneerks":13029,"nodeclixeepst":13030,"xid":13031,"adm":13032,"fram":13033,"hdl":13034,"greaterixesaixee":13035,"altern":13036,"treeiest":13037,"1778":13038,"2516":13039,"multiplic":13040,"Ġ8000":13041,"Ġ2147483648":13042,"2141":13043,"epjs":13044,"bestx":13045,"rationalst":13046,"functionifv":13047,"pairikmcelb":13048,"2973":13049,"actor":13050,"setimage":13051,"qelement":13052,"eeevrt":13053,"zsteqiiripiebrkst":13054,"subs":13055,"timezoner":13056,"greateril":13057,"smsc":13058,"releas":13059,"pairiissee":13060,"issaiseesais":13061,"kevent":13062,"wdev":13063,"tables":13064,"1704":13065,"gran":13066,">>>>>::_":13067,"zg":13068,"eeenst":13069,"rtattr":13070,"linest":13071,"1682":13072,"tupleijeeee":13073,"cubic":13074,"blockcontext":13075,"eventst":13076,"checkem":13077,"refera":13078,"1798":13079,"matrox":13080,"2428":13081,"ioremap":13082,"sisusb":13083,"tupleijeeeee":13084,"posst":13085,"1807":13086,"forwardirmeot":13087,"epn":13088,"scopy":13089,"1692":13090,"mymap":13091,"checkscc":13092,"2232":13093,"execute":13094,"xwindowinfo":13095,"rhy":13096,"iseed":13097,"acci":13098,"swit":13099,"pairikxceeot":13100,"pairicces":13101,"vecit":13102,"*)**,":13103,"nssckmd":13104,"dpr":13105,"1978":13106,"mica":13107,"ffffffff":13108,"1691":13109,"initui":13110,"stackicst":13111,"checkscl":13112,"checkscll":13113,"zdotc":13114,"1854":13115,"predi":13116,"lamb":13117,"ijocejlm":13118,"ijocejeeest":13119,"40000":13120,"rpm":13121,"lessieesais":13122,"destroyiyeevrs":13123,"movieclip":13124,"2579":13125,"destroyipj":13126,"Ġ1536":13127,"usec":13128,"diagnostic":13129,"1705":13130,"testimpl":13131,"2419":13132,"valikceclins":13133,"iteratoripees":13134,"32763":13135,"vddc":13136,"vxlan":13137,"1865":13138,"pairiiieeeclins":13139,"qsort":13140,"ieeeee":13141,"ejp":13142,"recomposed":13143,"dtile":13144,"Ġ137438":13145,"3037":13146,"cxgb":13147,"grctx":13148,"caseno":13149,"tupleijiieest":13150,"1913":13151,"8888":13152,"pairiklcesais":13153,"wyn":13154,"ifst":13155,"1706":13156,"flowedge":13157,"pairixcesais":13158,"1783":13159,"2198":13160,"toicesaiceesais":13161,")***":13162,"meson":13163,"tokens":13164,"1866":13165,"Ġ269":13166,"2580":13167,"ixxec":13168,"2230":13169,"2236":13170,"lpp":13171,"eiesais":13172,"termios":13173,"pdu":13174,"matches":13175,"Ġ1374389534":13176,"lpf":13177,"ccv":13178,"ccdc":13179,"snapshot":13180,"excl":13181,"lambda":13182,"xresourceinfo":13183,"3046":13184,"1876":13185,"tupleijrkyeeeot":13186,"cyclic":13187,"900000":13188,"1707":13189,"17529":13190,"nodeissepst":13191,"fattr":13192,"1885":13193,"gscanner":13194,"tnr":13195,"pairikls":13196,"tupleijiiiieest":13197,"ikiieers":13198,"02764":13199,"1853":13200,"known":13201,"vectoriisaiieeedtcldtfp":13202,"snic":13203,"odds":13204,"memorybuffer":13205,"1751":13206,"lessiyeclerkys":13207,"ejii":13208,"waits":13209,"pairixxemet":13210,"pairixxemeet":13211,"pairixxejeevpt":13212,"iiieieeeqerks":13213,"toicesaic":13214,"multiplication":13215,"acr":13216,"1874":13217,"vecs":13218,"plaintext":13219,"sselb":13220,"extensions":13221,"crb":13222,"vectorixsaixeeeeesa":13223,"eeeez":13224,"biieeonst":13225,"aipcmcet":13226,"kchip":13227,"rockchip":13228,"1695":13229,"netlbl":13230,"stackentry":13231,"clks":13232,"rocker":13233,"mdeformvert":13234,"maxn":13235,"ensure":13236,"dmaengine":13237,"tieij":13238,"universe":13239,"Ġ2047":13240,"Ġ328":13241,"insertijsseeevn":13242,"Ġ277":13243,"Ġ352":13244,"1761":13245,"1785":13246,"pairiicec":13247,"tupleijceest":13248,"ejrklee":13249,"ejoceernst":13250,"timezonerule":13251,"2137":13252,"ccopy":13253,"ida":13254,"blocke":13255,"gnt":13256,"2047":13257,"pairikxbelb":13258,"vring":13259,"2032":13260,"Ġ576460752303423":13261,"72809":13262,"bellmanford":13263,"liminator":13264,"fooii":13265,"ureliminator":13266,"Ġ65280":13267,"schureliminator":13268,"iteratoripksss":13269,"nexth":13270,"2420":13271,"moveirpfbiieeonst":13272,"operatoresais":13273,"falcon":13274,"1884":13275,"vectoriisaiieeist":13276,"complexix":13277,"1805":13278,"epfb":13279,"choose":13280,"psn":13281,"228672809":13282,"228672809129":13283,"ssytrf":13284,"zls":13285,"counterki":13286,"iteripfbiieeens":13287,"conquer":13288,"1952":13289,"hsw":13290,"1931":13291,"tol":13292,"2229":13293,"yyy":13294,"iiieceee":13295,"onacci":13296,"khz":13297,"dsaf":13298,"eij":13299,"pointesais":13300,"jobv":13301,"2139":13302,"2157":13303,"1843":13304,"mapiissst":13305,"0143":13306,"1676":13307,"actions":13308,"eulve":13309,"1914":13310,"greateriieec":13311,"icesais":13312,"3817":13313,"triesais":13314,"odm":13315,"pairidxesais":13316,"parents":13317,"pint":13318,"tatom":13319,"89408":13320,"pairicxesais":13321,"65538":13322,"moveirpsseonst":13323,"stud":13324,"iteratoricerblb":13325,"1897":13326,"iteratoripkcsseppev":13327,"erkllb":13328,"objectid":13329,"hashensc":13330,"hashingensc":13331,"policyensc":13332,"swapipssenst":13333,"biginteg":13334,"cop":13335,"dpaa":13336,"vectorisssaisseeeesseebt":13337,"2003":13338,"bias":13339,"rationals":13340,"edev":13341,"grw":13342,"1997":13343,"Ġ241":13344,"arrayist":13345,"tos":13346,"1977":13347,"Ġerror":13348,"sessionstr":13349,"kee":13350,"vectorisssaisseeeepsssset":13351,"detai":13352,"more":13353,"seterror":13354,"votes":13355,"solving":13356,"swiz":13357,"multisetist":13358,"forwardijeot":13359,"smac":13360,"iteratorissepst":13361,"distributionixe":13362,"xhlpp":13363,"pbl":13364,"ached":13365,"qat":13366,"sev":13367,"reportlist":13368,"iiiiiiiii":13369,"stick":13370,"roun":13371,"perc":13372,"iteratoriieet":13373,"aaqq":13374,"initi":13375,"constructiyjrkyeeevrs":13376,"wmm":13377,"pairils":13378,"2002":13379,"iteripfbiieeclipis":13380,"iteratoripkcssedeev":13381,"Ġset":13382,"ijcelb":13383,"Ġ324":13384,"vectoriysaiyeeet":13385,"exponential":13386,"eocjeert":13387,"blf":13388,"mipkst":13389,"Ġ242":13390,"trail":13391,"jian":13392,"1741":13393,"mapepp":13394,"1810":13395,"2218":13396,"iteripfbddee":13397,"abi":13398,"kern":13399,"greateriieeclins":13400,"0149":13401,"20001":13402,"tupleijdddee":13403,"200001":13404,"easeos":13405,"gz":13406,"glx":13407,"pairikssxeec":13408,"Ġ289":13409,"2363":13410,"requested":13411,"paire":13412,"sbi":13413,"2347":13414,"translator":13415,"1752902764":13416,"pfb":13417,"dvo":13418,"evens":13419,"agc":13420,"agent":13421,"ldwrku":13422,"svm":13423,"pairiccee":13424,"2610":13425,"cck":13426,"aipms":13427,"rxlb":13428,"Ġ267":13429,"optabs":13430,"eeeesseesaisg":13431,"2145":13432,"1762":13433,"functionrna":13434,"33489408":13435,"fibonacci":13436,"nodeimeee":13437,"symkeystr":13438,"1773":13439,"ixcee":13440,"1752902764108":13441,"capable":13442,"selector":13443,"finished":13444,"zswap":13445,"guardedallocator":13446,"1988":13447,"lers":13448,"vectorixsaixeeeees":13449,"initializeemrk":13450,"btaligne":13451,"btalignedobject":13452,"decim":13453,"pairiklceeee":13454,"pointererkst":13455,"blue":13456,"dpll":13457,"iisseesais":13458,"0155":13459,"inux":13460,"Ġ278":13461,"2339":13462,"2345":13463,"regj":13464,"partitionipst":13465,"entr":13466,"larg":13467,"pdf":13468,"speex":13469,"16777216":13470,"Ġ1537228672809129":13471,"evhttp":13472,"1979":13473,"Ġ32513":13474,"Ġ691752902764108":13475,"stamp":13476,"ints":13477,"2021":13478,"0158":13479,"mempj":13480,"2109":13481,"1753":13482,"backlog":13483,"attachment":13484,"aser":13485,"Ġinit":13486,"pairikms":13487,"registr":13488,"2144":13489,"dmac":13490,"mempi":13491,"Ġ1048575":13492,"destroyij":13493,"4850":13494,"Ġ2882303761517117":13495,"son":13496,"nodeiylb":13497,"strass":13498,"pairikidest":13499,"2456":13500,"rame":13501,"lessissesaisseeest":13502,"signs":13503,"1811":13504,"2657":13505,"memoryp":13506,"ttestcase":13507,"dmz":13508,"2017":13509,"assignment":13510,"strassens":13511,"dirs":13512,"2202":13513,"nnb":13514,"initev":13515,"forwardirkjeot":13516,"pairikmst":13517,"basesf":13518,"solo":13519,"regbase":13520,"yres":13521,"pairixieeot":13522,"swapped":13523,"2555":13524,"2646":13525,"destroyi":13526,"tj":13527,"splice":13528,"arrayillm":13529,"nscomp":13530,"deeevn":13531,"dpc":13532,"1787":13533,"2142":13534,"blocked":13535,"nk":13536,"flen":13537,"pointest":13538,"1048576":13539,"cdrom":13540,"pivotipst":13541,"stmt":13542,"1754":13543,"iteratoripds":13544,"codedinputstream":13545,"hum":13546,"xj":13547,"akm":13548,"portid":13549,"opensubdiv":13550,"cmet":13551,"meec":13552,"ascii":13553,"1943":13554,"Ġ440":13555,"dmd":13556,"yp":13557,"1693":13558,"2422":13559,"datab":13560,"binbase":13561,"slar":13562,"problemsais":13563,"getikx":13564,"vertices":13565,"dequeilsailee":13566,"vectorilsailees":13567,"6070":13568,"123456":13569,"3216":13570,"brst":13571,"addv":13572,"unless":13573,"hasher":13574,"therm":13575,"iteratoricrcpcec":13576,"2165":13577,"hashiyest":13578,"1990":13579,"chist":13580,"baseijsaijeed":13581,"2781":13582,"destroyipp":13583,"pairiiieeest":13584,"2333":13585,"sold":13586,"pairieeeec":13587,"mobile":13588,"2140":13589,"2099":13590,"2068":13591,"mce":13592,"znode":13593,"flav":13594,"1795":13595,"flowgraph":13596,"giv":13597,"Ġ416":13598,"fscrypt":13599,"eig":13600,"jfs":13601,"xres":13602,"iiieeeed":13603,"dvs":13604,"hwmon":13605,"infost":13606,"selinux":13607,"vectorisssaisseeeepsset":13608,"vectorisssaisseeeepsseet":13609,"pairikxceeppev":13610,"pairirxs":13611,"2223":13612,"1763":13613,"Ġ6917529027641081856":13614,"bdi":13615,"sscss":13616,"solverkst":13617,"curvemapping":13618,"binaryheap":13619,"dlar":13620,"jw":13621,"xcalloc":13622,"icceest":13623,"twl":13624,"blkno":13625,"details":13626,"cra":13627,"rectst":13628,"ngev":13629,"tmultisolveri":13630,"7000":13631,"cmpst":13632,"sswap":13633,"vectoricsaiceeevpt":13634,"seqno":13635,"tsourceloc":13636,"1841":13637,"bkey":13638,"iiieeeevt":13639,"initializeipks":13640,"numeric":13641,"oop":13642,"1915":13643,"pbvhnode":13644,"pairiliest":13645,"0900":13646,"2016":13647,"pairikxiec":13648,"zstltin":13649,"1893":13650,"very":13651,"1975":13652,"rsb":13653,"lima":13654,"baseiesaieeed":13655,"adt":13656,"infintsais":13657,"iteratorissemmev":13658,"iteratorimec":13659,"1662":13660,"1794":13661,"ixxebee":13662,"pairikisselb":13663,"ncr":13664,"sprd":13665,"pairikjcelb":13666,"zle":13667,"nodeid":13668,"gasket":13669,"stacki":13670,"qpn":13671,"foreach":13672,"vpath":13673,"vectoridsaideeemmev":13674,"pairikcxeec":13675,"moveirpceonst":13676,"made":13677,"Ġ276":13678,"htab":13679,"Ġ1428":13680,"nodeijlb":13681,"bints":13682,"2568":13683,"1663":13684,"queueissst":13685,"vectoricsaiceeeevt":13686,"moleculest":13687,"altera":13688,"1883":13689,"1996":13690,"lcm":13691,"wrong":13692,"backwardist":13693,"saimeet":13694,"eek":13695,"2334":13696,"0157":13697,"pairikssbens":13698,"setpixelalpha":13699,"lessiieeonst":13700,"wifi":13701,"1842":13702,"21053":13703,"shots":13704,"pick":13705,"1895":13706,"4030":13707,"erkylb":13708,"craid":13709,"0153":13710,"swallow":13711,"ump":13712,"molecul":13713,"programs":13714,"1898":13715,"forwar":13716,"ssfd":13717,"Ġ279":13718,"pairikccesais":13719,"import":13720,"1672":13721,"firstipst":13722,"ptcach":13723,"dmub":13724,"ptcacheedit":13725,"compl":13726,"strtol":13727,"2015":13728,"pmic":13729,"swa":13730,"pcxhr":13731,"Ġ1537228672809129301":13732,"ingenic":13733,"printr":13734,"2756":13735,"toissesais":13736,"pmcraid":13737,"increv":13738,"pairikip":13739,"complexiee":13740,"crtcs":13741,"requests":13742,"ejossee":13743,"destroyideevpt":13744,"selectipst":13745,"nipcmet":13746,"nipcmeet":13747,"organ":13748,"choco":13749,"hst":13750,"bracketmatcherist":13751,"1852":13752,"2033":13753,"2310":13754,"cdc":13755,"greaterixeec":13756,"uio":13757,"Ġ273":13758,"2177":13759,"spf":13760,"aipdmden":13761,"ixgbevf":13762,"xrx":13763,"iili":13764,"Ġ42949":13765,"vectoricsaiceeeepccet":13766,"backeod":13767,"visitable":13768,"pairikjceee":13769,"hashingensb":13770,"hashensb":13771,"policyensb":13772,"anymatcherist":13773,"baseissais":13774,"beiscsi":13775,"2136":13776,"pairikiieeptev":13777,"eosslb":13778,"gy":13779,"iievrt":13780,"pairiiieemmev":13781,"2027":13782,"eff":13783,"prof":13784,"hashidens":13785,"ldwrkr":13786,"six":13787,"1916":13788,"0154":13789,"0148":13790,"iry":13791,"ejrkyee":13792,"2168":13793,"osen":13794,"pairieies":13795,"une":13796,"backup":13797,"eppxs":13798,"pvgrw":13799,"3010":13800,"les":13801,"bitmask":13802,"ceeeot":13803,"Ġ397":13804,"micamino":13805,"ben":13806,"ud":13807,"2311":13808,"horiz":13809,"built":13810,"1976":13811,"ptrit":13812,"mooth":13813,"Ġ1234":13814,"cqp":13815,"pairixxeps":13816,"regionview":13817,"pairikxceemmev":13818,"smaller":13819,"rfcomm":13820,"1965":13821,"pyet":13822,"1771":13823,"heck":13824,"configfs":13825,"singleentry":13826,"1752":13827,"pairikyceeee":13828,"modulus":13829,"antst":13830,"2574":13831,"apple":13832,"ikxceers":13833,"orbell":13834,"mlerks":13835,"demorgan":13836,"1891":13837,"2023":13838,"2379":13839,"greaterixeecl":13840,"pairilleeonst":13841,"datan":13842,"links":13843,"eeebrt":13844,"doorbell":13845,"1907":13846,"1994":13847,"Ġ12336":13848,"rectangleinfo":13849,"basese":13850,"2025":13851,"iies":13852,"1851":13853,"1974":13854,"activity":13855,"2146":13856,"nodeissers":13857,"rxnfc":13858,"dddd":13859,"minev":13860,"boundary":13861,"txn":13862,"iysaiyeesais":13863,"ilv":13864,"devinfo":13865,"manageri":13866,"carrier":13867,"2143":13868,"0156":13869,"2188":13870,"oxy":13871,"hec":13872,"ztvn":13873,"maskbitem":13874,"ye":13875,"lost":13876,"iova":13877,"deletei":13878,"ipkcenst":13879,"iteratoripcsseeeebt":13880,"histogram":13881,"varpool":13882,"1803":13883,"baseipkcet":13884,"2014":13885,"2227":13886,"tlb":13887,"1661":13888,"2219":13889,"kernelinfo":13890,"iattr":13891,"1792":13892,"2634":13893,"checkx":13894,"ldh":13895,"strongly":13896,"2159":13897,"cfs":13898,"elementsais":13899,"heapipssl":13900,"heapipsslssn":13901,"metap":13902,"cordon":13903,"sell":13904,"pairieeeeot":13905,"oxygen":13906,"erkssst":13907,"tci":13908,"myset":13909,"1904":13910,"wss":13911,"6507":13912,"eiii":13913,"2983":13914,"pairiibesais":13915,"0151":13916,"vectorilsaileeeeplet":13917,"convexhull":13918,"advanceist":13919,"Ġ265":13920,"2214":13921,"ohci":13922,"pairikibeeed":13923,"wt":13924,"hostdata":13925,"epkdpdet":13926,"2138":13927,"Ġ>,":13928,"Ġ299":13929,"devs":13930,"halfpyramid":13931,"ebeot":13932,"2107":13933,"qry":13934,"lose":13935,"1905":13936,"summed":13937,"parallel":13938,"ipvs":13939,"iiieceec":13940,"constants":13941,"orange":13942,"pairikissee":13943,"conju":13944,"Ġsq":13945,"2231":13946,"ffd":13947,"2228":13948,"2950":13949,"zstltist":13950,"pairieieeonst":13951,"vil":13952,"lessiiesaiieeec":13953,"Ġ12593":13954,"2235":13955,"pairikdd":13956,"populate":13957,"iiiiiii":13958,"vectorilsaileeest":13959,"1781":13960,"iteratorisser":13961,"identityclirk":13962,"toix":13963,"phdr":13964,"aski":13965,"Ġ1000000000000000":13966,"stb":13967,"Ġsqlite":13968,"iiieeeclerks":13969,"vmxnet":13970,"1861":13971,"mute":13972,"eint":13973,"2620":13974,"ccet":13975,"vectoriisaiieeeeeplel":13976,"bigintegerc":13977,"plugin":13978,"rime":13979,"ldns":13980,"nfaist":13981,"3129":13982,"sata":13983,"irss":13984,"2244":13985,"2554":13986,"fvve":13987,"mig":13988,"abse":13989,"drob":13990,"aipkst":13991,"ixxexesais":13992,"vectoridsaideeeeldns":13993,"conjure":13994,"2226":13995,"ccu":13996,"categoryipkst":13997,"dgemm":13998,"nout":13999,"ioa":14000,"movietrackingtrack":14001,"orangefs":14002,"alth":14003,"1942":14004,"iterizn":14005,"goph":14006,
[...]
